<unk>	0
<s>	0
</s>	0
▁<dnt>	0
▁</dnt>	0
▁t	-0
he	-1
▁a	-2
in	-3
▁the	-4
er	-5
on	-6
re	-7
▁,	-8
▁s	-9
▁.	-10
▁w	-11
▁o	-12
at	-13
nd	-14
ed	-15
en	-16
is	-17
▁c	-18
or	-19
it	-20
▁f	-21
an	-22
es	-23
ar	-24
▁b	-25
al	-26
▁in	-27
▁p	-28
▁of	-29
ing	-30
as	-31
▁to	-32
▁and	-33
ou	-34
ic	-35
▁h	-36
▁m	-37
ion	-38
▁d	-39
le	-40
om	-41
▁T	-42
ent	-43
il	-44
▁S	-45
▁"	-46
▁A	-47
▁re	-48
▁th	-49
▁C	-50
st	-51
id	-52
ro	-53
▁I	-54
▁l	-55
▁n	-56
▁M	-57
am	-58
el	-59
ct	-60
ad	-61
▁e	-62
▁on	-63
▁be	-64
ol	-65
▁'	-66
ay	-67
▁g	-68
ur	-69
▁for	-70
▁The	-71
ve	-72
ot	-73
▁is	-74
▁B	-75
ut	-76
ver	-77
▁1	-78
et	-79
▁P	-80
ir	-81
ation	-82
im	-83
ly	-84
ce	-85
ter	-86
ch	-87
ig	-88
▁st	-89
▁was	-90
ow	-91
▁he	-92
us	-93
▁H	-94
ith	-95
▁R	-96
ra	-97
▁2	-98
▁as	-99
▁with	-100
▁that	-101
▁D	-102
un	-103
▁al	-104
▁wh	-105
▁N	-106
ul	-107
▁W	-108
ers	-109
ill	-110
▁at	-111
em	-112
▁an	-113
▁it	-114
▁F	-115
ri	-116
▁con	-117
▁G	-118
ist	-119
and	-120
os	-121
rom	-122
▁by	-123
est	-124
ak	-125
th	-126
▁)	-127
ag	-128
▁(	-129
▁L	-130
her	-131
ac	-132
res	-133
ment	-134
▁se	-135
ld	-136
▁pro	-137
▁de	-138
▁com	-139
op	-140
ate	-141
▁K	-142
▁from	-143
um	-144
▁J	-145
ain	-146
▁v	-147
▁20	-148
▁E	-149
pp	-150
▁y	-151
od	-152
art	-153
if	-154
▁are	-155
ab	-156
ity	-157
ort	-158
▁O	-159
ies	-160
▁ha	-161
ore	-162
▁sa	-163
iv	-164
▁has	-165
ia	-166
oc	-167
our	-168
ear	-169
▁r	-170
ew	-171
igh	-172
ud	-173
▁his	-174
hi	-175
pe	-176
ess	-177
▁ex	-178
▁su	-179
▁U	-180
▁In	-181
ant	-182
▁19	-183
qu	-184
▁said	-185
all	-186
ive	-187
▁or	-188
▁le	-189
ial	-190
▁have	-191
se	-192
▁not	-193
▁pl	-194
oun	-195
ard	-196
▁sh	-197
▁ch	-198
▁u	-199
ich	-200
ast	-201
ong	-202
ber	-203
ere	-204
ian	-205
ust	-206
ge	-207
gh	-208
ated	-209
ction	-210
rou	-211
so	-212
ould	-213
▁go	-214
▁k	-215
▁will	-216
ap	-217
ure	-218
▁:	-219
▁were	-220
ice	-221
ost	-222
ight	-223
▁had	-224
▁which	-225
ary	-226
ell	-227
ok	-228
are	-229
▁wor	-230
▁Ch	-231
▁Ind	-232
▁also	-233
ther	-234
▁St	-235
▁V	-236
▁this	-237
ome	-238
ry	-239
▁ad	-240
cc	-241
ine	-242
out	-243
▁comp	-244
▁their	-245
▁He	-246
ame	-247
▁who	-248
ire	-249
ep	-250
ack	-251
▁201	-252
ff	-253
▁j	-254
▁res	-255
▁whe	-256
▁ab	-257
▁we	-258
▁been	-259
fter	-260
▁Th	-261
ous	-262
ue	-263
▁all	-264
▁inc	-265
▁ag	-266
av	-267
ric	-268
ide	-269
▁un	-270
ub	-271
▁off	-272
ish	-273
te	-274
▁It	-275
og	-276
ical	-277
ik	-278
▁part	-279
▁cl	-280
ime	-281
ord	-282
ition	-283
ru	-284
per	-285
ress	-286
port	-287
age	-288
▁year	-289
ount	-290
▁us	-291
▁its	-292
▁3	-293
▁per	-294
▁out	-295
du	-296
▁but	-297
▁te	-298
ran	-299
ence	-300
▁her	-301
▁cont	-302
pl	-303
wo	-304
▁ne	-305
ond	-306
ign	-307
mer	-308
▁up	-309
irst	-310
▁one	-311
pt	-312
▁can	-313
ov	-314
▁-	-315
one	-316
ations	-317
ang	-318
▁they	-319
ass	-320
ect	-321
ult	-322
▁im	-323
▁after	-324
▁over	-325
▁en	-326
▁app	-327
nder	-328
ie	-329
▁ar	-330
▁man	-331
▁int	-332
00	-333
own	-334
▁pol	-335
vern	-336
▁first	-337
hed	-338
orm	-339
▁dis	-340
▁pe	-341
ree	-342
ind	-343
ake	-344
ach	-345
▁sc	-346
ays	-347
▁rec	-348
ace	-349
ions	-350
ks	-351
▁me	-352
ase	-353
▁other	-354
iz	-355
▁Y	-356
ational	-357
ail	-358
▁two	-359
ally	-360
ater	-361
ident	-362
ctor	-363
ance	-364
▁Un	-365
rit	-366
day	-367
▁sp	-368
▁As	-369
ade	-370
▁new	-371
▁ser	-372
ely	-373
▁would	-374
able	-375
vernment	-376
ren	-377
▁India	-378
▁ev	-379
ister	-380
old	-381
ople	-382
▁ro	-383
ens	-384
▁200	-385
ound	-386
vers	-387
ib	-388
▁you	-389
▁more	-390
ip	-391
▁Al	-392
oin	-393
ates	-394
ile	-395
vel	-396
▁do	-397
ts	-398
very	-399
▁about	-400
▁pre	-401
▁play	-402
▁work	-403
▁bec	-404
▁4	-405
uring	-406
ef	-407
amp	-408
ose	-409
▁she	-410
lud	-411
aw	-412
▁comm	-413
ah	-414
ark	-415
▁again	-416
aj	-417
ook	-418
▁qu	-419
▁inter	-420
▁people	-421
ild	-422
oll	-423
▁5	-424
ces	-425
ced	-426
ted	-427
ite	-428
▁time	-429
▁acc	-430
iss	-431
ents	-432
act	-433
ath	-434
ory	-435
we	-436
▁so	-437
man	-438
▁under	-439
fer	-440
▁when	-441
▁includ	-442
▁sec	-443
▁On	-444
▁Sh	-445
form	-446
▁government	-447
▁there	-448
lic	-449
▁spe	-450
urn	-451
ob	-452
▁them	-453
ings	-454
oy	-455
▁ra	-456
▁into	-457
ove	-458
ious	-459
ough	-460
hip	-461
wn	-462
ans	-463
▁An	-464
ased	-465
inister	-466
ec	-467
ied	-468
▁fil	-469
▁am	-470
ons	-471
▁him	-472
▁add	-473
▁dec	-474
▁tra	-475
▁18	-476
cted	-477
ool	-478
▁reg	-479
als	-480
ited	-481
rough	-482
ash	-483
▁count	-484
ike	-485
▁ele	-486
▁bet	-487
ved	-488
ities	-489
▁kn	-490
ck	-491
▁New	-492
▁cent	-493
▁against	-494
▁co	-495
▁lead	-496
▁than	-497
reat	-498
▁only	-499
ward	-500
▁some	-501
orn	-502
ors	-503
▁This	-504
▁Com	-505
land	-506
▁years	-507
ick	-508
aus	-509
▁ind	-510
ug	-511
▁6	-512
ood	-513
cial	-514
▁Ar	-515
round	-516
amil	-517
▁att	-518
end	-519
▁des	-520
▁fin	-521
les	-522
up	-523
ram	-524
▁offic	-525
gan	-526
▁loc	-527
ey	-528
▁film	-529
▁cons	-530
▁/	-531
red	-532
▁;	-533
▁stud	-534
▁fe	-535
▁rem	-536
ph	-537
▁ass	-538
▁any	-539
▁pres	-540
▁inv	-541
▁Mar	-542
▁We	-543
rad	-544
▁fl	-545
▁De	-546
ting	-547
▁no	-548
ai	-549
-1	-550
ating	-551
▁being	-552
ank	-553
oth	-554
▁team	-555
▁during	-556
▁act	-557
▁dist	-558
und	-559
▁rel	-560
▁where	-561
tern	-562
ince	-563
▁made	-564
rib	-565
oh	-566
ise	-567
▁three	-568
ever	-569
ft	-570
chool	-571
ife	-572
hen	-573
▁report	-574
▁most	-575
▁ac	-576
li	-577
▁supp	-578
▁state	-579
▁ear	-580
der	-581
arg	-582
▁pr	-583
▁mon	-584
ict	-585
▁Re	-586
ower	-587
▁bu	-588
▁Le	-589
▁7	-590
▁such	-591
▁through	-592
fore	-593
▁mem	-594
▁get	-595
ween	-596
ix	-597
ral	-598
▁med	-599
ollow	-600
ener	-601
▁bl	-602
ason	-603
▁pos	-604
▁last	-605
▁imp	-606
arm	-607
any	-608
aking	-609
▁form	-610
cy	-611
ublic	-612
▁while	-613
ual	-614
ann	-615
tain	-616
▁back	-617
ues	-618
olle	-619
ivers	-620
ular	-621
▁like	-622
▁set	-623
▁sub	-624
▁between	-625
▁produ	-626
▁well	-627
▁Indian	-628
▁En	-629
hes	-630
ision	-631
▁ent	-632
led	-633
ject	-634
air	-635
ock	-636
▁10	-637
ics	-638
▁ph	-639
▁She	-640
▁now	-641
▁prov	-642
way	-643
rans	-644
▁num	-645
other	-646
olog	-647
velop	-648
ron	-649
ek	-650
▁call	-651
▁Minister	-652
ven	-653
au	-654
ros	-655
▁show	-656
▁em	-657
▁199	-658
ments	-659
ific	-660
▁end	-661
▁rele	-662
▁could	-663
▁then	-664
▁many	-665
ative	-666
roup	-667
ged	-668
ines	-669
outh	-670
ause	-671
▁mat	-672
▁8	-673
ouse	-674
ures	-675
▁def	-676
rict	-677
000	-678
▁before	-679
▁dire	-680
erson	-681
az	-682
ctions	-683
▁ret	-684
oot	-685
▁famil	-686
▁follow	-687
row	-688
▁if	-689
ital	-690
▁just	-691
▁sy	-692
owever	-693
▁start	-694
▁202	-695
ement	-696
ised	-697
ution	-698
▁our	-699
▁second	-700
▁?	-701
elf	-702
stit	-703
▁%	-704
ared	-705
io	-706
▁four	-707
▁cap	-708
▁these	-709
▁high	-710
▁ter	-711
▁dif	-712
ourt	-713
▁sur	-714
pr	-715
▁including	-716
arn	-717
▁country	-718
▁hel	-719
mber	-720
▁sm	-721
ton	-722
uch	-723
pen	-724
cer	-725
▁9	-726
▁should	-727
▁ann	-728
▁need	-729
its	-730
ink	-731
iew	-732
ished	-733
inn	-734
ina	-735
▁Rs	-736
▁even	-737
meric	-738
ists	-739
▁found	-740
▁car	-741
▁Z	-742
alth	-743
▁trans	-744
▁Del	-745
▁day	-746
eng	-747
uss	-748
,000	-749
▁what	-750
ered	-751
▁For	-752
▁did	-753
▁official	-754
ty	-755
▁may	-756
ving	-757
▁Pro	-758
hief	-759
▁But	-760
▁my	-761
xt	-762
ters	-763
▁wom	-764
ants	-765
▁develop	-766
uc	-767
rid	-768
oci	-769
ission	-770
ather	-771
▁iss	-772
▁And	-773
▁police	-774
▁Pr	-775
ames	-776
ins	-777
▁Comm	-778
▁help	-779
▁min	-780
▁world	-781
ax	-782
ale	-783
▁used	-784
ording	-785
ross	-786
ful	-787
▁your	-788
ility	-789
▁Americ	-790
att	-791
▁Wor	-792
▁At	-793
iversity	-794
▁US	-795
▁take	-796
con	-797
ets	-798
▁There	-799
bers	-800
▁rep	-801
▁every	-802
esh	-803
ism	-804
▁number	-805
▁They	-806
ives	-807
▁own	-808
orth	-809
▁month	-810
▁make	-811
▁run	-812
▁ed	-813
▁Is	-814
▁15	-815
▁Go	-816
▁sign	-817
cess	-818
▁very	-819
▁Am	-820
iel	-821
ars	-822
▁group	-823
▁season	-824
▁exp	-825
▁12	-826
me	-827
pect	-828
▁both	-829
▁Con	-830
▁bel	-831
ave	-832
▁Delhi	-833
▁long	-834
▁eff	-835
▁pop	-836
ble	-837
uth	-838
▁school	-839
ible	-840
▁serv	-841
med	-842
▁child	-843
▁polit	-844
han	-845
▁down	-846
▁dem	-847
▁Ad	-848
une	-849
▁since	-850
▁family	-851
▁198	-852
ten	-853
▁cur	-854
▁Wh	-855
ling	-856
▁inf	-857
ha	-858
min	-859
▁look	-860
▁May	-861
ired	-862
▁contin	-863
rol	-864
▁rece	-865
▁disc	-866
▁support	-867
▁life	-868
ari	-869
▁mov	-870
stem	-871
tend	-872
▁later	-873
ork	-874
▁right	-875
ases	-876
▁main	-877
▁public	-878
▁because	-879
▁United	-880
▁sever	-881
illion	-882
▁open	-883
▁ins	-884
▁Jan	-885
ices	-886
ural	-887
▁post	-888
els	-889
ange	-890
▁same	-891
ept	-892
ats	-893
▁ob	-894
▁Eng	-895
ute	-896
▁Te	-897
▁around	-898
▁Cent	-899
ided	-900
▁comple	-901
▁mod	-902
▁Man	-903
▁After	-904
▁Sc	-905
▁cre	-906
▁..	-907
ull	-908
▁bus	-909
read	-910
▁bo	-911
▁hand	-912
▁care	-913
▁poin	-914
ret	-915
▁party	-916
▁prog	-917
imes	-918
▁dep	-919
ata	-920
ember	-921
ury	-922
ived	-923
▁Cong	-924
▁cor	-925
▁differ	-926
osed	-927
▁say	-928
▁met	-929
▁home	-930
riv	-931
▁person	-932
ature	-933
▁Mr	-934
com	-935
▁colle	-936
▁mus	-937
▁mark	-938
ys	-939
▁Cl	-940
ior	-941
▁oper	-942
▁Sing	-943
urs	-944
▁bro	-945
▁gu	-946
cept	-947
▁Me	-948
▁State	-949
▁Ass	-950
▁Pol	-951
ring	-952
▁place	-953
▁meet	-954
▁those	-955
erv	-956
▁World	-957
▁former	-958
▁vis	-959
▁pass	-960
▁gener	-961
▁city	-962
get	-963
ball	-964
ness	-965
▁det	-966
▁head	-967
▁conf	-968
▁good	-969
▁197	-970
▁organ	-971
▁inst	-972
▁stat	-973
-19	-974
▁Q	-975
▁near	-976
▁However	-977
eb	-978
▁11	-979
▁how	-980
▁air	-981
hile	-982
▁National	-983
▁17	-984
▁University	-985
ries	-986
▁prom	-987
ird	-988
ple	-989
ober	-990
▁opp	-991
▁way	-992
▁giv	-993
▁tak	-994
▁law	-995
▁tr	-996
▁commun	-997
▁Congress	-998
▁known	-999
ract	-1000
▁art	-1001
ency	-1002
▁...	-1003
iness	-1004
▁record	-1005
chn	-1006
▁mar	-1007
▁sing	-1008
▁sl	-1009
▁Bh	-1010
ention	-1011
ient	-1012
▁case	-1013
rent	-1014
arge	-1015
▁took	-1016
▁system	-1017
ued	-1018
ya	-1019
ier	-1020
ajor	-1021
▁power	-1022
▁cr	-1023
▁perform	-1024
▁game	-1025
▁remain	-1026
ience	-1027
▁result	-1028
alk	-1029
▁Ph	-1030
ield	-1031
▁writ	-1032
▁says	-1033
▁fac	-1034
▁la	-1035
ually	-1036
▁est	-1037
osp	-1038
aim	-1039
ms	-1040
pend	-1041
▁company	-1042
ody	-1043
umb	-1044
▁16	-1045
▁called	-1046
ague	-1047
eep	-1048
▁rest	-1049
▁here	-1050
▁invest	-1051
ana	-1052
ety	-1053
▁av	-1054
▁prev	-1055
▁build	-1056
ages	-1057
oor	-1058
ament	-1059
ee	-1060
▁several	-1061
▁days	-1062
▁Ju	-1063
▁won	-1064
▁announ	-1065
ried	-1066
istan	-1067
▁area	-1068
▁All	-1069
▁added	-1070
▁use	-1071
▁resp	-1072
▁partic	-1073
▁along	-1074
▁held	-1075
ently	-1076
▁due	-1077
uk	-1078
▁women	-1079
ional	-1080
▁incre	-1081
▁Par	-1082
▁South	-1083
ocial	-1084
▁exper	-1085
▁&	-1086
▁requ	-1087
rand	-1088
▁Aust	-1089
▁camp	-1090
ll	-1091
▁appro	-1092
▁want	-1093
▁know	-1094
▁return	-1095
▁five	-1096
▁adv	-1097
▁much	-1098
gg	-1099
▁top	-1100
▁ext	-1101
oss	-1102
▁next	-1103
▁each	-1104
▁join	-1105
inal	-1106
▁cro	-1107
▁became	-1108
▁told	-1109
▁land	-1110
ology	-1111
▁order	-1112
▁gl	-1113
▁ref	-1114
ized	-1115
iver	-1116
▁sim	-1117
ality	-1118
▁196	-1119
JP	-1120
rest	-1121
over	-1122
▁Af	-1123
▁Aug	-1124
ne	-1125
▁series	-1126
▁Bl	-1127
ration	-1128
▁week	-1129
ering	-1130
til	-1131
▁another	-1132
▁str	-1133
ilit	-1134
ump	-1135
▁$	-1136
▁district	-1137
▁see	-1138
▁March	-1139
▁Raj	-1140
▁hist	-1141
▁Pres	-1142
conom	-1143
▁intern	-1144
▁American	-1145
▁come	-1146
▁sit	-1147
▁import	-1148
▁members	-1149
▁major	-1150
▁Ex	-1151
ccess	-1152
▁Oct	-1153
▁14	-1154
▁attack	-1155
▁death	-1156
▁still	-1157
wards	-1158
▁few	-1159
▁Joh	-1160
▁Se	-1161
▁played	-1162
uthor	-1163
uro	-1164
▁Tr	-1165
▁name	-1166
▁water	-1167
ley	-1168
ours	-1169
line	-1170
▁best	-1171
▁30	-1172
▁BJP	-1173
▁Sp	-1174
▁!	-1175
▁Gu	-1176
▁ask	-1177
▁program	-1178
na	-1179
▁students	-1180
▁national	-1181
▁health	-1182
▁spec	-1183
▁Singh	-1184
▁cle	-1185
▁Pl	-1186
augh	-1187
lish	-1188
por	-1189
ium	-1190
▁del	-1191
▁six	-1192
▁June	-1193
▁allow	-1194
▁following	-1195
amed	-1196
▁13	-1197
year	-1198
▁prof	-1199
cent	-1200
▁stand	-1201
▁house	-1202
▁released	-1203
omet	-1204
▁Apr	-1205
▁test	-1206
▁different	-1207
▁vot	-1208
▁project	-1209
used	-1210
▁July	-1211
artment	-1212
ides	-1213
reen	-1214
▁Mus	-1215
tle	-1216
▁came	-1217
ala	-1218
lished	-1219
▁Ab	-1220
ically	-1221
▁States	-1222
ched	-1223
ured	-1224
▁design	-1225
oung	-1226
atch	-1227
▁leg	-1228
▁vill	-1229
urch	-1230
mit	-1231
ploy	-1232
▁aff	-1233
ulation	-1234
▁event	-1235
▁Sept	-1236
▁left	-1237
▁reported	-1238
son	-1239
uary	-1240
▁With	-1241
▁Brit	-1242
▁does	-1243
▁claim	-1244
▁April	-1245
▁August	-1246
▁book	-1247
ising	-1248
▁rev	-1249
ified	-1250
▁early	-1251
▁alle	-1252
▁children	-1253
▁fore	-1254
▁Acc	-1255
▁occ	-1256
▁minister	-1257
▁court	-1258
▁ve	-1259
ati	-1260
▁list	-1261
▁though	-1262
cl	-1263
ele	-1264
rick	-1265
▁manag	-1266
riend	-1267
▁big	-1268
▁Sec	-1269
▁among	-1270
my	-1271
▁inform	-1272
▁success	-1273
▁move	-1274
▁John	-1275
▁President	-1276
▁par	-1277
▁until	-1278
▁Mod	-1279
▁September	-1280
▁kill	-1281
▁sk	-1282
▁lit	-1283
▁song	-1284
▁che	-1285
▁Fran	-1286
▁given	-1287
▁25	-1288
▁local	-1289
▁present	-1290
akh	-1291
▁current	-1292
▁million	-1293
20	-1294
▁win	-1295
cing	-1296
▁Ger	-1297
▁social	-1298
▁taken	-1299
ately	-1300
▁today	-1301
▁October	-1302
▁His	-1303
▁small	-1304
▁turn	-1305
▁media	-1306
urther	-1307
ung	-1308
▁poss	-1309
▁If	-1310
▁within	-1311
▁Austral	-1312
▁process	-1313
tal	-1314
ined	-1315
▁char	-1316
▁level	-1317
▁January	-1318
▁When	-1319
▁happ	-1320
ampions	-1321
ences	-1322
▁business	-1323
ination	-1324
▁194	-1325
▁econom	-1326
ush	-1327
▁cases	-1328
ctors	-1329
▁final	-1330
▁laun	-1331
▁across	-1332
▁Euro	-1333
▁born	-1334
▁don	-1335
▁compet	-1336
▁activ	-1337
▁Be	-1338
resent	-1339
urity	-1340
▁const	-1341
▁consid	-1342
ves	-1343
▁Chief	-1344
▁going	-1345
▁foot	-1346
▁music	-1347
▁political	-1348
rat	-1349
▁deb	-1350
▁president	-1351
▁class	-1352
▁without	-1353
▁eng	-1354
to	-1355
gy	-1356
ner	-1357
▁cer	-1358
▁West	-1359
▁leaders	-1360
▁read	-1361
ovember	-1362
▁put	-1363
ored	-1364
itions	-1365
▁prot	-1366
cember	-1367
▁bre	-1368
▁195	-1369
ways	-1370
▁orig	-1371
▁too	-1372
ches	-1373
▁You	-1374
mp	-1375
ony	-1376
▁Su	-1377
har	-1378
ane	-1379
▁November	-1380
▁vide	-1381
▁China	-1382
▁announced	-1383
▁great	-1384
lier	-1385
▁December	-1386
▁special	-1387
▁One	-1388
▁Part	-1389
▁Pak	-1390
app	-1391
▁expl	-1392
by	-1393
▁Rep	-1394
▁2020	-1395
ards	-1396
ourn	-1397
▁grow	-1398
▁Feb	-1399
▁hum	-1400
▁techn	-1401
▁So	-1402
▁var	-1403
▁started	-1404
▁short	-1405
▁Can	-1406
ption	-1407
iol	-1408
alf	-1409
▁old	-1410
▁age	-1411
enn	-1412
▁author	-1413
ruct	-1414
▁seen	-1415
▁match	-1416
ams	-1417
▁interest	-1418
▁el	-1419
▁find	-1420
ery	-1421
▁third	-1422
▁Or	-1423
▁received	-1424
▁sen	-1425
▁educ	-1426
▁North	-1427
aren	-1428
▁tit	-1429
▁vac	-1430
▁young	-1431
side	-1432
▁School	-1433
▁According	-1434
rist	-1435
emb	-1436
▁col	-1437
▁While	-1438
▁dra	-1439
ances	-1440
▁German	-1441
▁Pakistan	-1442
ales	-1443
▁men	-1444
oad	-1445
cil	-1446
▁career	-1447
▁beh	-1448
▁news	-1449
▁Res	-1450
▁crit	-1451
▁bas	-1452
▁belie	-1453
ones	-1454
▁di	-1455
▁months	-1456
ern	-1457
▁Dep	-1458
▁equ	-1459
▁Co	-1460
▁X	-1461
▁commit	-1462
▁role	-1463
ID	-1464
▁Court	-1465
▁appear	-1466
▁began	-1467
irl	-1468
bum	-1469
self	-1470
iod	-1471
▁went	-1472
▁2019	-1473
▁Europe	-1474
idd	-1475
▁become	-1476
ospital	-1477
ti	-1478
nes	-1479
▁24	-1480
ively	-1481
oney	-1482
▁cond	-1483
par	-1484
▁got	-1485
▁avail	-1486
▁concer	-1487
▁indust	-1488
ator	-1489
ilt	-1490
hest	-1491
▁Count	-1492
ris	-1493
▁chief	-1494
ront	-1495
▁side	-1496
▁dri	-1497
▁Intern	-1498
▁development	-1499
.5	-1500
▁Sw	-1501
andid	-1502
▁further	-1503
hing	-1504
▁making	-1505
▁based	-1506
ily	-1507
▁Russ	-1508
raph	-1509
iving	-1510
ruary	-1511
ians	-1512
▁Car	-1513
▁milit	-1514
▁various	-1515
▁past	-1516
uation	-1517
▁meeting	-1518
▁far	-1519
amb	-1520
▁beg	-1521
▁keep	-1522
▁hig	-1523
▁High	-1524
▁ben	-1525
af	-1526
▁CO	-1527
pped	-1528
▁February	-1529
earch	-1530
▁Ge	-1531
▁init	-1532
▁total	-1533
▁effect	-1534
▁important	-1535
▁trad	-1536
▁No	-1537
▁press	-1538
itive	-1539
▁es	-1540
▁working	-1541
▁away	-1542
ani	-1543
▁real	-1544
▁Mah	-1545
▁prop	-1546
▁large	-1547
bs	-1548
less	-1549
▁town	-1550
▁crore	-1551
ining	-1552
▁Sat	-1553
pected	-1554
▁vict	-1555
aster	-1556
emic	-1557
ffic	-1558
▁pub	-1559
irus	-1560
▁sol	-1561
▁addition	-1562
▁War	-1563
▁chang	-1564
ke	-1565
inning	-1566
▁album	-1567
▁invol	-1568
▁quest	-1569
▁station	-1570
▁control	-1571
▁prote	-1572
▁line	-1573
▁think	-1574
rop	-1575
▁member	-1576
▁League	-1577
ouncil	-1578
▁sent	-1579
ential	-1580
▁Sy	-1581
▁international	-1582
que	-1583
▁asked	-1584
ara	-1585
▁tem	-1586
▁2018	-1587
▁Modi	-1588
ots	-1589
▁friend	-1590
▁Colle	-1591
▁let	-1592
ready	-1593
iting	-1594
▁must	-1595
▁val	-1596
let	-1597
▁Bar	-1598
▁charact	-1599
sh	-1600
▁Mond	-1601
▁officials	-1602
▁hold	-1603
crib	-1604
▁leader	-1605
▁period	-1606
▁fun	-1607
▁tri	-1608
▁road	-1609
▁led	-1610
▁market	-1611
▁21	-1612
▁election	-1613
▁City	-1614
co	-1615
▁larg	-1616
ror	-1617
▁Har	-1618
▁having	-1619
▁Cor	-1620
▁video	-1621
▁body	-1622
▁single	-1623
▁2021	-1624
rem	-1625
▁countries	-1626
▁estab	-1627
tee	-1628
▁profess	-1629
▁war	-1630
▁Prime	-1631
▁demand	-1632
aff	-1633
▁already	-1634
▁represent	-1635
▁pay	-1636
istry	-1637
▁non	-1638
▁priv	-1639
▁proble	-1640
▁died	-1641
minist	-1642
▁Ear	-1643
ott	-1644
▁club	-1645
▁farm	-1646
▁others	-1647
▁Her	-1648
▁service	-1649
▁fa	-1650
aign	-1651
ode	-1652
aid	-1653
▁Monday	-1654
▁Union	-1655
▁100	-1656
ying	-1657
▁Ag	-1658
▁193	-1659
▁div	-1660
▁Sund	-1661
▁Police	-1662
urg	-1663
▁candid	-1664
▁polic	-1665
▁never	-1666
▁viol	-1667
aced	-1668
▁arrest	-1669
ene	-1670
▁Act	-1671
▁Bo	-1672
▁inj	-1673
▁British	-1674
ning	-1675
ival	-1676
▁To	-1677
▁2016	-1678
▁Frid	-1679
ampionship	-1680
▁times	-1681
▁dev	-1682
▁Ne	-1683
▁view	-1684
inc	-1685
ained	-1686
▁50	-1687
▁San	-1688
▁York	-1689
▁sw	-1690
▁village	-1691
ille	-1692
▁release	-1693
▁include	-1694
idence	-1695
▁rul	-1696
▁somet	-1697
▁Air	-1698
▁condu	-1699
rodu	-1700
umar	-1701
ij	-1702
▁fund	-1703
▁lik	-1704
▁Friday	-1705
ilar	-1706
▁fail	-1707
ference	-1708
▁sour	-1709
ada	-1710
ached	-1711
▁Will	-1712
angu	-1713
▁available	-1714
tended	-1715
▁strong	-1716
▁areas	-1717
pecial	-1718
eal	-1719
▁Afric	-1720
▁2014	-1721
▁son	-1722
▁community	-1723
▁named	-1724
▁previous	-1725
umbai	-1726
▁employ	-1727
▁2017	-1728
▁ident	-1729
uted	-1730
ricket	-1731
be	-1732
▁Med	-1733
▁using	-1734
▁population	-1735
▁cost	-1736
AN	-1737
▁alleged	-1738
▁gr	-1739
▁try	-1740
▁Cup	-1741
▁building	-1742
ports	-1743
▁Dr	-1744
▁issue	-1745
VID	-1746
▁port	-1747
uty	-1748
▁hit	-1749
▁Pe	-1750
ened	-1751
ama	-1752
uck	-1753
▁ty	-1754
▁Wed	-1755
▁Mumbai	-1756
▁Fl	-1757
▁eas	-1758
amm	-1759
▁players	-1760
irc	-1761
▁Col	-1762
▁campaign	-1763
eleb	-1764
▁Party	-1765
▁give	-1766
▁lot	-1767
▁office	-1768
▁Mad	-1769
▁father	-1770
akes	-1771
▁2015	-1772
empt	-1773
▁full	-1774
▁director	-1775
▁better	-1776
▁less	-1777
ald	-1778
▁Tues	-1779
reet	-1780
▁During	-1781
▁according	-1782
▁toget	-1783
▁together	-1784
eder	-1785
▁COVID	-1786
▁deal	-1787
▁Tuesday	-1788
▁Min	-1789
▁Government	-1790
▁vacc	-1791
▁]	-1792
▁lost	-1793
▁taking	-1794
▁[	-1795
▁ens	-1796
ize	-1797
ops	-1798
-2	-1799
▁decision	-1800
▁security	-1801
▁action	-1802
retary	-1803
▁located	-1804
▁22	-1805
▁late	-1806
ories	-1807
eneral	-1808
iron	-1809
era	-1810
▁football	-1811
▁cover	-1812
though	-1813
rew	-1814
▁clear	-1815
ressed	-1816
▁cult	-1817
aly	-1818
▁statement	-1819
▁however	-1820
head	-1821
▁field	-1822
▁money	-1823
ler	-1824
▁Sunday	-1825
▁night	-1826
▁fight	-1827
▁repl	-1828
▁br	-1829
▁pat	-1830
▁host	-1831
▁Wednes	-1832
▁change	-1833
▁0	-1834
▁County	-1835
▁history	-1836
ests	-1837
ope	-1838
osition	-1839
ali	-1840
▁often	-1841
▁England	-1842
▁cou	-1843
▁half	-1844
▁able	-1845
▁proper	-1846
▁Christ	-1847
hers	-1848
▁Wednesday	-1849
▁Pat	-1850
▁International	-1851
embly	-1852
▁account	-1853
▁Bro	-1854
▁II	-1855
▁House	-1856
▁Dist	-1857
▁Ed	-1858
▁Thurs	-1859
ruction	-1860
▁ri	-1861
▁Sen	-1862
utes	-1863
elling	-1864
▁Mon	-1865
▁free	-1866
▁services	-1867
▁investig	-1868
▁popular	-1869
▁Thursday	-1870
▁Bang	-1871
▁Red	-1872
▁These	-1873
▁ide	-1874
omin	-1875
▁celeb	-1876
▁star	-1877
stand	-1878
▁fact	-1879
▁Prad	-1880
▁product	-1881
▁hard	-1882
▁tele	-1883
lim	-1884
▁saf	-1885
ization	-1886
wood	-1887
ected	-1888
▁earlier	-1889
▁Comp	-1890
▁particip	-1891
rab	-1892
▁23	-1893
▁fre	-1894
▁information	-1895
tt	-1896
▁saying	-1897
▁impro	-1898
▁games	-1899
rote	-1900
▁general	-1901
epend	-1902
▁plan	-1903
▁points	-1904
▁built	-1905
▁Commission	-1906
▁That	-1907
▁round	-1908
apan	-1909
pite	-1910
▁states	-1911
go	-1912
▁once	-1913
▁point	-1914
ortun	-1915
▁least	-1916
▁redu	-1917
bo	-1918
▁story	-1919
▁sum	-1920
▁Mc	-1921
ivil	-1922
▁treat	-1923
▁Cov	-1924
▁191	-1925
iding	-1926
ote	-1927
▁My	-1928
lect	-1929
▁region	-1930
▁visit	-1931
▁human	-1932
▁always	-1933
▁concern	-1934
▁feat	-1935
▁band	-1936
▁Reg	-1937
obal	-1938
abad	-1939
ma	-1940
ead	-1941
ze	-1942
▁effort	-1943
▁lim	-1944
avy	-1945
▁vers	-1946
▁Kh	-1947
ask	-1948
ondon	-1949
sc	-1950
▁Just	-1951
▁food	-1952
▁done	-1953
▁2011	-1954
▁elect	-1955
most	-1956
ison	-1957
▁cour	-1958
▁2013	-1959
▁2010	-1960
▁served	-1961
▁infl	-1962
aint	-1963
▁26	-1964
ograph	-1965
ivid	-1966
.1	-1967
▁light	-1968
▁low	-1969
▁mult	-1970
ware	-1971
▁London	-1972
▁pri	-1973
liament	-1974
ains	-1975
▁lakh	-1976
▁comes	-1977
stitution	-1978
▁sold	-1979
▁sus	-1980
▁foc	-1981
▁College	-1982
▁describ	-1983
▁2012	-1984
▁discuss	-1985
▁close	-1986
▁defe	-1987
ps	-1988
▁works	-1989
▁lat	-1990
itter	-1991
▁Mal	-1992
▁girl	-1993
ges	-1994
ateg	-1995
▁phot	-1996
▁net	-1997
▁soon	-1998
▁data	-1999
▁journ	-2000
▁Satur	-2001
estern	-2002
▁relations	-2003
▁English	-2004
▁fire	-2005
ociation	-2006
ta	-2007
ociety	-2008
▁King	-2009
▁Australia	-2010
▁miss	-2011
▁Japan	-2012
▁front	-2013
uture	-2014
▁job	-2015
▁chall	-2016
▁military	-2017
▁pract	-2018
▁education	-2019
rench	-2020
▁hours	-2021
▁administ	-2022
aces	-2023
▁appoin	-2024
hel	-2025
▁feel	-2026
▁decl	-2027
ably	-2028
▁included	-2029
attle	-2030
▁bring	-2031
▁Kumar	-2032
yle	-2033
chie	-2034
▁Saturday	-2035
▁percent	-2036
▁sugg	-2037
▁wrote	-2038
▁El	-2039
▁spok	-2040
ability	-2041
▁killed	-2042
▁exam	-2043
atic	-2044
▁elections	-2045
▁ball	-2046
▁Beng	-2047
ula	-2048
oon	-2049
▁Pradesh	-2050
▁published	-2051
▁decided	-2052
▁actor	-2053
aker	-2054
work	-2055
▁By	-2056
down	-2057
▁tre	-2058
▁Ram	-2059
ham	-2060
▁ep	-2061
▁aut	-2062
▁General	-2063
▁agre	-2064
▁respect	-2065
▁super	-2066
unic	-2067
▁mother	-2068
▁senior	-2069
▁common	-2070
▁learn	-2071
ises	-2072
hold	-2073
▁attempt	-2074
▁#	-2075
ills	-2076
mir	-2077
.3	-2078
ancial	-2079
▁face	-2080
stitute	-2081
▁cust	-2082
tra	-2083
ought	-2084
▁issues	-2085
▁ground	-2086
▁feature	-2087
itor	-2088
▁exc	-2089
▁north	-2090
▁28	-2091
▁Khan	-2092
▁expected	-2093
▁stop	-2094
▁might	-2095
ream	-2096
▁position	-2097
vision	-2098
irm	-2099
▁App	-2100
▁incident	-2101
▁provide	-2102
▁27	-2103
▁direct	-2104
▁stri	-2105
▁jud	-2106
▁langu	-2107
ested	-2108
▁bank	-2109
thing	-2110
▁character	-2111
▁award	-2112
▁What	-2113
▁accused	-2114
▁Char	-2115
alif	-2116
here	-2117
lam	-2118
▁woman	-2119
ger	-2120
fic	-2121
▁yet	-2122
▁seem	-2123
pur	-2124
▁similar	-2125
acy	-2126
▁century	-2127
abor	-2128
▁hospital	-2129
icle	-2130
▁pers	-2131
▁moved	-2132
▁individ	-2133
play	-2134
ese	-2135
▁playing	-2136
▁Home	-2137
▁refer	-2138
▁French	-2139
▁Department	-2140
▁love	-2141
▁caus	-2142
yn	-2143
▁Dh	-2144
▁Geor	-2145
▁title	-2146
▁private	-2147
▁tw	-2148
▁quar	-2149
ators	-2150
▁fall	-2151
▁particular	-2152
aring	-2153
aur	-2154
ogn	-2155
▁Dire	-2156
▁Council	-2157
▁capital	-2158
aka	-2159
asing	-2160
▁meas	-2161
▁vari	-2162
isc	-2163
▁Des	-2164
yl	-2165
▁tour	-2166
▁dou	-2167
▁Trump	-2168
▁Centre	-2169
men	-2170
isation	-2171
▁Covid	-2172
ither	-2173
▁enc	-2174
▁future	-2175
▁introdu	-2176
▁mot	-2177
▁player	-2178
view	-2179
▁East	-2180
ilities	-2181
sel	-2182
▁towards	-2183
ification	-2184
ae	-2185
▁poll	-2186
▁access	-2187
▁wife	-2188
▁live	-2189
iam	-2190
rated	-2191
▁industry	-2192
▁respons	-2193
▁Tw	-2194
▁40	-2195
▁mag	-2196
ging	-2197
rought	-2198
hib	-2199
▁aud	-2200
▁tal	-2201
uge	-2202
of	-2203
ington	-2204
iet	-2205
anies	-2206
inese	-2207
▁worked	-2208
▁192	-2209
reme	-2210
▁south	-2211
▁mid	-2212
▁entire	-2213
▁loss	-2214
ows	-2215
▁study	-2216
▁seven	-2217
▁Gl	-2218
▁tax	-2219
aughter	-2220
▁From	-2221
utions	-2222
▁District	-2223
▁production	-2224
▁possible	-2225
▁situation	-2226
▁conv	-2227
▁recent	-2228
▁signific	-2229
iber	-2230
▁Per	-2231
▁squ	-2232
▁2008	-2233
.2	-2234
▁question	-2235
urb	-2236
omm	-2237
▁Sm	-2238
▁things	-2239
▁benef	-2240
▁comb	-2241
▁behind	-2242
▁created	-2243
rain	-2244
▁sche	-2245
medi	-2246
▁cut	-2247
raft	-2248
▁Chinese	-2249
▁Bengal	-2250
cast	-2251
▁step	-2252
itiz	-2253
oms	-2254
olution	-2255
aper	-2256
▁little	-2257
udd	-2258
▁z	-2259
▁detail	-2260
▁Central	-2261
▁31	-2262
▁dest	-2263
▁research	-2264
▁News	-2265
▁Some	-2266
▁1,	-2267
▁ren	-2268
viron	-2269
▁circ	-2270
▁2009	-2271
▁reports	-2272
▁stay	-2273
order	-2274
ev	-2275
▁likely	-2276
▁bat	-2277
▁coll	-2278
▁eight	-2279
lement	-2280
▁resident	-2281
▁Gand	-2282
▁continue	-2283
▁workers	-2284
▁word	-2285
▁Im	-2286
ights	-2287
▁cast	-2288
▁key	-2289
▁i	-2290
▁reve	-2291
▁charg	-2292
▁emer	-2293
part	-2294
▁mass	-2295
rug	-2296
▁pot	-2297
oman	-2298
ibility	-2299
▁compl	-2300
▁performance	-2301
▁lo	-2302
▁Championship	-2303
atives	-2304
▁gave	-2305
▁Dav	-2306
▁Dem	-2307
▁po	-2308
utive	-2309
▁fav	-2310
▁cricket	-2311
▁Oly	-2312
▁TV	-2313
▁himself	-2314
▁Pal	-2315
▁terror	-2316
▁joined	-2317
▁aver	-2318
▁threat	-2319
▁suff	-2320
olly	-2321
▁Ang	-2322
imate	-2323
▁29	-2324
▁veh	-2325
▁brother	-2326
reg	-2327
▁space	-2328
ructure	-2329
▁species	-2330
▁rad	-2331
▁review	-2332
▁really	-2333
uf	-2334
▁Olymp	-2335
▁launched	-2336
▁Rec	-2337
▁pand	-2338
▁contrib	-2339
▁forces	-2340
▁recently	-2341
▁Roy	-2342
▁coming	-2343
▁Ser	-2344
lad	-2345
▁Sab	-2346
aul	-2347
▁movie	-2348
oice	-2349
▁engine	-2350
aged	-2351
▁gen	-2352
▁why	-2353
atory	-2354
▁arrested	-2355
▁grad	-2356
▁Day	-2357
▁prim	-2358
▁financial	-2359
iddle	-2360
off	-2361
▁teams	-2362
ense	-2363
▁Pet	-2364
▁Sal	-2365
ocu	-2366
▁hon	-2367
▁dr	-2368
▁runs	-2369
▁red	-2370
▁UK	-2371
▁neg	-2372
vironment	-2373
▁achie	-2374
▁heart	-2375
osing	-2376
onav	-2377
int	-2378
omen	-2379
▁companies	-2380
ample	-2381
▁Park	-2382
anks	-2383
▁European	-2384
▁leading	-2385
▁almost	-2386
sequ	-2387
▁dam	-2388
ape	-2389
▁Republic	-2390
▁enter	-2391
▁paren	-2392
▁Sam	-2393
▁targ	-2394
▁brought	-2395
▁rail	-2396
▁coun	-2397
ster	-2398
▁hous	-2399
omb	-2400
aled	-2401
▁policy	-2402
onavirus	-2403
▁written	-2404
aut	-2405
▁Army	-2406
ray	-2407
▁ever	-2408
▁applic	-2409
▁black	-2410
▁talk	-2411
▁pet	-2412
isl	-2413
▁Kar	-2414
mitted	-2415
▁regard	-2416
▁Bra	-2417
uel	-2418
▁reach	-2419
ergy	-2420
for	-2421
pecially	-2422
▁site	-2423
based	-2424
▁original	-2425
▁outside	-2426
▁whether	-2427
▁histor	-2428
▁continued	-2429
iance	-2430
▁pandemic	-2431
airs	-2432
▁getting	-2433
▁assist	-2434
▁2007	-2435
▁currently	-2436
ession	-2437
▁plann	-2438
▁board	-2439
▁global	-2440
▁schools	-2441
aps	-2442
band	-2443
ndra	-2444
▁Gandhi	-2445
▁foreign	-2446
ao	-2447
▁certain	-2448
▁relig	-2449
ids	-2450
agar	-2451
▁vol	-2452
▁rights	-2453
▁accept	-2454
▁mom	-2455
▁promot	-2456
eared	-2457
.4	-2458
▁coach	-2459
ceed	-2460
▁online	-2461
ridge	-2462
▁cann	-2463
▁debut	-2464
ensive	-2465
▁stated	-2466
▁followed	-2467
rish	-2468
▁break	-2469
▁course	-2470
ees	-2471
irth	-2472
▁exec	-2473
ficult	-2474
▁Fin	-2475
▁tradition	-2476
▁ris	-2477
▁issued	-2478
▁considered	-2479
▁bow	-2480
▁central	-2481
▁fem	-2482
BI	-2483
▁films	-2484
▁positive	-2485
▁significant	-2486
▁increase	-2487
elt	-2488
aries	-2489
▁opportun	-2490
▁difficult	-2491
▁involved	-2492
▁matter	-2493
time	-2494
LA	-2495
anc	-2496
▁inn	-2497
▁saw	-2498
▁separ	-2499
▁officer	-2500
▁2006	-2501
▁especially	-2502
▁exist	-2503
ex	-2504
▁deg	-2505
▁nation	-2506
▁mer	-2507
ipp	-2508
arat	-2509
eth	-2510
▁stage	-2511
▁shoot	-2512
BC	-2513
▁economic	-2514
▁bar	-2515
▁growth	-2516
▁pict	-2517
▁returned	-2518
ipal	-2519
▁opened	-2520
arch	-2521
▁Pun	-2522
▁cross	-2523
weet	-2524
rap	-2525
▁ago	-2526
▁travel	-2527
▁experience	-2528
▁Moh	-2529
▁mater	-2530
▁Hy	-2531
▁Not	-2532
▁something	-2533
▁results	-2534
▁Sa	-2535
▁mean	-2536
▁groups	-2537
50	-2538
▁share	-2539
▁claimed	-2540
▁successful	-2541
▁docu	-2542
▁Bank	-2543
▁address	-2544
▁Health	-2545
▁Road	-2546
▁obs	-2547
aving	-2548
estival	-2549
▁allowed	-2550
▁Div	-2551
▁recogn	-2552
▁rate	-2553
▁opt	-2554
▁plat	-2555
ford	-2556
▁Don	-2557
▁self	-2558
hern	-2559
now	-2560
▁shows	-2561
▁higher	-2562
▁medical	-2563
▁Wash	-2564
ole	-2565
CC	-2566
▁sex	-2567
▁living	-2568
▁forward	-2569
▁produced	-2570
▁Super	-2571
▁becom	-2572
▁phys	-2573
▁Ac	-2574
▁established	-2575
▁Iran	-2576
ological	-2577
▁Kash	-2578
emy	-2579
▁hy	-2580
▁conn	-2581
▁features	-2582
la	-2583
▁ru	-2584
ino	-2585
▁training	-2586
eks	-2587
ells	-2588
▁regular	-2589
▁enough	-2590
back	-2591
▁events	-2592
▁provided	-2593
▁Em	-2594
▁directed	-2595
▁rout	-2596
▁influ	-2597
ples	-2598
▁Tamil	-2599
▁Phil	-2600
▁Sup	-2601
▁civil	-2602
▁Pri	-2603
▁190	-2604
▁farmers	-2605
▁anti	-2606
▁gold	-2607
▁department	-2608
ude	-2609
▁Vir	-2610
▁Art	-2611
▁Mich	-2612
▁track	-2613
▁doing	-2614
ship	-2615
▁price	-2616
▁kind	-2617
▁Ker	-2618
ners	-2619
▁register	-2620
cle	-2621
▁independ	-2622
▁daughter	-2623
▁mob	-2624
ert	-2625
▁Now	-2626
oper	-2627
▁fell	-2628
▁amount	-2629
▁pain	-2630
ening	-2631
▁Group	-2632
▁pan	-2633
ander	-2634
onse	-2635
dy	-2636
▁coronavirus	-2637
uru	-2638
▁stru	-2639
▁married	-2640
▁described	-2641
▁norm	-2642
▁focus	-2643
▁arch	-2644
▁date	-2645
▁Association	-2646
▁Washington	-2647
nding	-2648
▁broad	-2649
▁shot	-2650
▁tourn	-2651
▁Director	-2652
▁dead	-2653
▁creat	-2654
▁launch	-2655
▁immedi	-2656
▁Br	-2657
ANS	-2658
▁recorded	-2659
orthern	-2660
▁maintain	-2661
ien	-2662
▁average	-2663
▁Qu	-2664
ney	-2665
▁signed	-2666
mar	-2667
▁lab	-2668
itness	-2669
oo	-2670
▁means	-2671
icles	-2672
orning	-2673
▁France	-2674
▁Tra	-2675
▁fig	-2676
▁mess	-2677
▁origin	-2678
▁den	-2679
ique	-2680
▁staff	-2681
▁Muslim	-2682
vi	-2683
ift	-2684
▁reached	-2685
▁ensure	-2686
▁spread	-2687
▁example	-2688
▁mention	-2689
war	-2690
ait	-2691
▁UN	-2692
▁initial	-2693
▁personal	-2694
▁deter	-2695
▁understand	-2696
sec	-2697
istic	-2698
ocrat	-2699
▁authorities	-2700
▁IANS	-2701
▁More	-2702
ollywood	-2703
hood	-2704
lex	-2705
▁Kore	-2706
.6	-2707
▁PM	-2708
▁Shah	-2709
▁Val	-2710
iles	-2711
ighb	-2712
▁technology	-2713
oph	-2714
▁fans	-2715
▁Since	-2716
▁Islam	-2717
▁wanted	-2718
▁language	-2719
▁parties	-2720
▁Stud	-2721
▁Serv	-2722
vent	-2723
▁needs	-2724
▁dig	-2725
▁Ministry	-2726
.7	-2727
selves	-2728
arma	-2729
▁lock	-2730
▁ship	-2731
▁imm	-2732
asons	-2733
ims	-2734
▁peace	-2735
▁hom	-2736
rate	-2737
▁consum	-2738
▁cred	-2739
▁disp	-2740
▁Chand	-2741
atural	-2742
▁How	-2743
▁weeks	-2744
▁Cap	-2745
▁Port	-2746
▁plant	-2747
▁cannot	-2748
ka	-2749
▁citiz	-2750
▁construction	-2751
▁force	-2752
▁platform	-2753
gu	-2754
▁Mor	-2755
▁shared	-2756
▁cam	-2757
▁pur	-2758
▁critic	-2759
▁parts	-2760
ufact	-2761
▁prem	-2762
▁till	-2763
▁Assembly	-2764
ores	-2765
▁developed	-2766
▁ahead	-2767
▁impact	-2768
▁above	-2769
▁La	-2770
▁ver	-2771
▁families	-2772
▁trying	-2773
-0	-2774
▁ten	-2775
▁acqu	-2776
▁dise	-2777
▁material	-2778
lands	-2779
▁America	-2780
▁looking	-2781
▁minutes	-2782
▁MP	-2783
▁Institute	-2784
cies	-2785
outher	-2786
▁plans	-2787
ares	-2788
▁watch	-2789
▁sil	-2790
▁appeared	-2791
▁boy	-2792
▁Test	-2793
oring	-2794
▁initi	-2795
▁Commit	-2796
hu	-2797
▁abs	-2798
oto	-2799
▁Africa	-2800
▁seek	-2801
▁ey	-2802
▁sector	-2803
▁screen	-2804
▁target	-2805
▁Supreme	-2806
▁completed	-2807
iment	-2808
▁spot	-2809
wal	-2810
▁lives	-2811
▁relationship	-2812
▁River	-2813
ped	-2814
ky	-2815
lin	-2816
ghan	-2817
▁Edu	-2818
▁Kashmir	-2819
▁reason	-2820
▁ple	-2821
▁anim	-2822
mission	-2823
van	-2824
▁Fore	-2825
▁whose	-2826
▁either	-2827
reng	-2828
outhern	-2829
mon	-2830
▁Rail	-2831
erve	-2832
▁version	-2833
▁wind	-2834
oura	-2835
▁--	-2836
▁function	-2837
▁sele	-2838
▁trade	-2839
▁associ	-2840
▁television	-2841
▁poor	-2842
▁Do	-2843
jab	-2844
while	-2845
▁mur	-2846
▁response	-2847
▁capt	-2848
vernor	-2849
▁custom	-2850
▁Rah	-2851
ension	-2852
▁Also	-2853
▁pric	-2854
▁hot	-2855
▁smart	-2856
▁goal	-2857
▁couple	-2858
▁birth	-2859
▁Spe	-2860
akers	-2861
▁teac	-2862
rast	-2863
aily	-2864
▁quick	-2865
▁Banglad	-2866
▁constit	-2867
▁_	-2868
▁largest	-2869
▁ste	-2870
▁Bel	-2871
▁oil	-2872
craft	-2873
▁create	-2874
▁term	-2875
▁neighb	-2876
▁protest	-2877
▁professional	-2878
overed	-2879
▁subject	-2880
atients	-2881
▁cy	-2882
olk	-2883
.0	-2884
▁movement	-2885
iers	-2886
▁itself	-2887
▁Board	-2888
▁Other	-2889
book	-2890
▁parents	-2891
▁implement	-2892
▁leave	-2893
▁modern	-2894
▁First	-2895
▁Sun	-2896
▁Bi	-2897
itch	-2898
▁candidates	-2899
.8	-2900
airman	-2901
▁Committee	-2902
▁189	-2903
▁indic	-2904
▁Che	-2905
▁ill	-2906
elled	-2907
▁op	-2908
▁problem	-2909
iple	-2910
pir	-2911
▁sources	-2912
▁thought	-2913
ena	-2914
▁lower	-2915
▁offer	-2916
ades	-2917
▁model	-2918
oved	-2919
▁streng	-2920
▁makes	-2921
▁increased	-2922
▁environment	-2923
▁Educ	-2924
▁Punjab	-2925
▁lack	-2926
alled	-2927
▁Sim	-2928
▁dom	-2929
▁carry	-2930
ox	-2931
▁appointed	-2932
▁Black	-2933
▁Tel	-2934
▁pick	-2935
▁despite	-2936
gar	-2937
▁problems	-2938
▁Two	-2939
▁centre	-2940
▁trib	-2941
▁didn	-2942
▁journal	-2943
▁mind	-2944
▁Bal	-2945
▁Secretary	-2946
▁People	-2947
▁white	-2948
▁administration	-2949
▁Net	-2950
▁billion	-2951
▁necess	-2952
rael	-2953
ned	-2954
▁2005	-2955
ection	-2956
▁highest	-2957
▁epis	-2958
▁required	-2959
▁transfer	-2960
▁elected	-2961
▁hop	-2962
▁nearly	-2963
▁arri	-2964
▁contract	-2965
▁reb	-2966
▁morning	-2967
▁range	-2968
val	-2969
▁potential	-2970
▁activities	-2971
▁base	-2972
oul	-2973
▁webs	-2974
▁occas	-2975
▁Jos	-2976
▁manufact	-2977
xic	-2978
▁drug	-2979
▁treatment	-2980
de	-2981
bed	-2982
▁patients	-2983
▁Met	-2984
▁Sri	-2985
▁distrib	-2986
▁Fil	-2987
ements	-2988
▁Ber	-2989
▁efforts	-2990
▁phone	-2991
▁serious	-2992
▁wid	-2993
▁Cont	-2994
inner	-2995
▁fourth	-2996
▁typ	-2997
imum	-2998
▁terms	-2999
▁clos	-3000
▁deep	-3001
▁Tur	-3002
▁Church	-3003
vey	-3004
oe	-3005
▁2000	-3006
▁Nad	-3007
▁conducted	-3008
▁60	-3009
▁Parliament	-3010
▁Inst	-3011
ify	-3012
▁tournament	-3013
tic	-3014
▁draw	-3015
field	-3016
▁interview	-3017
orters	-3018
▁latest	-3019
▁Afghan	-3020
▁Mahar	-3021
▁scored	-3022
▁God	-3023
ricult	-3024
▁William	-3025
▁display	-3026
▁Russian	-3027
cks	-3028
▁instead	-3029
▁IP	-3030
▁winning	-3031
▁college	-3032
▁Chen	-3033
▁student	-3034
ression	-3035
oid	-3036
▁Cons	-3037
▁sens	-3038
▁matches	-3039
▁tro	-3040
▁race	-3041
▁sem	-3042
▁Street	-3043
▁quarter	-3044
▁Russia	-3045
▁sat	-3046
▁officers	-3047
▁Australian	-3048
▁vote	-3049
▁prevent	-3050
gen	-3051
▁Israel	-3052
▁committee	-3053
▁expect	-3054
▁Hind	-3055
▁actress	-3056
▁inside	-3057
.9	-3058
▁failed	-3059
chan	-3060
▁Germany	-3061
▁Twitter	-3062
erous	-3063
sw	-3064
▁style	-3065
uled	-3066
▁Inter	-3067
▁km	-3068
eum	-3069
lying	-3070
▁formed	-3071
▁conc	-3072
iqu	-3073
▁friends	-3074
▁James	-3075
ites	-3076
▁quality	-3077
▁rather	-3078
▁pred	-3079
▁consider	-3080
imately	-3081
▁products	-3082
usband	-3083
inary	-3084
▁hands	-3085
▁victory	-3086
ranch	-3087
coming	-3088
▁improve	-3089
▁includes	-3090
ands	-3091
▁remained	-3092
oint	-3093
▁society	-3094
▁themselves	-3095
▁2004	-3096
▁Bangladesh	-3097
nel	-3098
▁management	-3099
▁places	-3100
▁Law	-3101
▁Even	-3102
▁Kap	-3103
▁room	-3104
uals	-3105
▁Dan	-3106
▁Company	-3107
▁programme	-3108
▁sure	-3109
▁sal	-3110
▁George	-3111
▁Many	-3112
aves	-3113
▁bad	-3114
ederal	-3115
▁seats	-3116
▁brand	-3117
▁below	-3118
▁cal	-3119
▁changes	-3120
▁Sabha	-3121
▁passed	-3122
▁opposition	-3123
▁fast	-3124
▁sound	-3125
▁block	-3126
che	-3127
▁via	-3128
▁Thom	-3129
▁surv	-3130
▁section	-3131
isions	-3132
▁related	-3133
▁ended	-3134
▁attend	-3135
hire	-3136
mercial	-3137
▁upon	-3138
▁opening	-3139
▁Bill	-3140
▁nov	-3141
▁ord	-3142
▁complete	-3143
▁vir	-3144
▁rank	-3145
▁energy	-3146
CA	-3147
▁Nare	-3148
▁Sch	-3149
▁David	-3150
indu	-3151
▁although	-3152
▁border	-3153
▁188	-3154
oses	-3155
▁Lok	-3156
▁prep	-3157
-3	-3158
▁league	-3159
▁Paul	-3160
▁complet	-3161
▁mis	-3162
▁running	-3163
ocratic	-3164
▁deliver	-3165
▁Calif	-3166
▁comment	-3167
▁throughout	-3168
avi	-3169
resh	-3170
▁letter	-3171
▁commission	-3172
▁Bu	-3173
irmed	-3174
▁filed	-3175
iction	-3176
ville	-3177
▁bi	-3178
ashtra	-3179
▁Ash	-3180
▁Women	-3181
use	-3182
▁giving	-3183
inet	-3184
▁competition	-3185
▁legal	-3186
onst	-3187
iences	-3188
aught	-3189
▁turned	-3190
▁economy	-3191
▁Division	-3192
▁violence	-3193
ael	-3194
▁cause	-3195
▁murder	-3196
▁raised	-3197
▁huge	-3198
▁Ak	-3199
▁Education	-3200
udget	-3201
▁Justice	-3202
▁pressure	-3203
rant	-3204
▁Narendra	-3205
▁Ste	-3206
▁Sub	-3207
ona	-3208
▁sym	-3209
▁instru	-3210
ras	-3211
▁Sur	-3212
▁Californ	-3213
▁prior	-3214
▁Que	-3215
▁Sum	-3216
▁Kerala	-3217
ja	-3218
▁moment	-3219
▁protect	-3220
▁Ma	-3221
erved	-3222
▁Ben	-3223
gest	-3224
▁ful	-3225
▁wick	-3226
rian	-3227
▁Karn	-3228
▁walk	-3229
▁White	-3230
▁active	-3231
▁mix	-3232
▁youth	-3233
poration	-3234
▁card	-3235
rong	-3236
▁conditions	-3237
▁husband	-3238
ita	-3239
▁check	-3240
▁IS	-3241
hod	-3242
▁Canada	-3243
▁purch	-3244
▁scient	-3245
rial	-3246
▁helped	-3247
▁dro	-3248
TI	-3249
▁California	-3250
▁whole	-3251
pper	-3252
joy	-3253
▁Add	-3254
▁minor	-3255
▁|	-3256
ires	-3257
▁Rober	-3258
▁remains	-3259
▁er	-3260
▁pack	-3261
▁nine	-3262
▁unit	-3263
▁Ter	-3264
▁Rich	-3265
▁grand	-3266
▁revealed	-3267
venue	-3268
ini	-3269
igned	-3270
▁emb	-3271
▁Royal	-3272
unt	-3273
▁Mark	-3274
▁projects	-3275
▁Son	-3276
▁ge	-3277
dom	-3278
mes	-3279
▁Pan	-3280
▁pen	-3281
light	-3282
▁prob	-3283
▁details	-3284
▁rock	-3285
▁church	-3286
▁believe	-3287
▁risk	-3288
▁Over	-3289
▁Mean	-3290
gal	-3291
▁closed	-3292
▁natural	-3293
▁additional	-3294
▁park	-3295
▁takes	-3296
▁citizens	-3297
▁finished	-3298
▁changed	-3299
▁sports	-3300
kar	-3301
▁gun	-3302
▁Offic	-3303
▁Acad	-3304
▁Under	-3305
▁operations	-3306
▁link	-3307
▁Most	-3308
▁conference	-3309
ommend	-3310
▁quite	-3311
erc	-3312
▁Prof	-3313
olic	-3314
▁network	-3315
anka	-3316
▁35	-3317
usion	-3318
▁Club	-3319
va	-3320
eds	-3321
▁candidate	-3322
▁Although	-3323
▁needed	-3324
estic	-3325
▁categ	-3326
ucle	-3327
▁users	-3328
▁san	-3329
▁Of	-3330
AS	-3331
▁consist	-3332
ishing	-3333
rim	-3334
icro	-3335
▁gra	-3336
▁formula	-3337
▁Mag	-3338
▁introduced	-3339
teg	-3340
anth	-3341
ida	-3342
itation	-3343
action	-3344
▁train	-3345
▁legisl	-3346
▁electric	-3347
▁Off	-3348
▁Hall	-3349
▁adding	-3350
ript	-3351
iled	-3352
▁Tod	-3353
▁box	-3354
▁website	-3355
▁ess	-3356
▁@	-3357
the	-3358
wide	-3359
ricts	-3360
▁liter	-3361
ground	-3362
▁Develop	-3363
apt	-3364
▁object	-3365
rag	-3366
▁tweet	-3367
aks	-3368
aya	-3369
▁Utt	-3370
▁cop	-3371
▁investigation	-3372
uated	-3373
▁wear	-3374
▁Di	-3375
▁grant	-3376
undred	-3377
▁establish	-3378
▁constitu	-3379
▁occur	-3380
▁safety	-3381
arily	-3382
▁Meanwhile	-3383
ivity	-3384
▁warn	-3385
▁basis	-3386
▁Big	-3387
▁designed	-3388
enge	-3389
▁registered	-3390
▁recommend	-3391
▁Trans	-3392
▁seat	-3393
illed	-3394
▁agency	-3395
▁conduct	-3396
▁extra	-3397
▁gre	-3398
▁contact	-3399
ria	-3400
▁evidence	-3401
▁showed	-3402
▁increasing	-3403
▁transport	-3404
▁songs	-3405
▁Techn	-3406
▁Pre	-3407
ume	-3408
▁partners	-3409
▁Gold	-3410
▁Sar	-3411
alls	-3412
▁heavy	-3413
▁idea	-3414
chest	-3415
▁chann	-3416
▁mount	-3417
▁confirmed	-3418
▁source	-3419
▁passeng	-3420
▁majority	-3421
▁vaccine	-3422
ources	-3423
▁Roman	-3424
pan	-3425
AR	-3426
ius	-3427
▁levels	-3428
▁strugg	-3429
ataka	-3430
▁household	-3431
▁charge	-3432
ties	-3433
come	-3434
amous	-3435
▁offered	-3436
▁spokes	-3437
▁worth	-3438
▁spent	-3439
▁mentioned	-3440
▁thing	-3441
heduled	-3442
ming	-3443
▁186	-3444
▁esc	-3445
▁Hindu	-3446
▁noted	-3447
phone	-3448
▁nar	-3449
▁enjoy	-3450
▁Face	-3451
adi	-3452
ulated	-3453
roy	-3454
▁daily	-3455
▁firm	-3456
▁commercial	-3457
▁persons	-3458
adium	-3459
riage	-3460
▁2003	-3461
▁Mart	-3462
▁kept	-3463
▁require	-3464
▁measures	-3465
▁Western	-3466
▁Maharashtra	-3467
▁capac	-3468
▁et	-3469
▁performed	-3470
▁Je	-3471
▁blood	-3472
itect	-3473
▁founded	-3474
▁Ah	-3475
owers	-3476
▁Both	-3477
▁Zeal	-3478
▁units	-3479
▁African	-3480
▁amb	-3481
▁politic	-3482
▁Play	-3483
▁except	-3484
▁cris	-3485
arian	-3486
rel	-3487
▁Ele	-3488
▁captain	-3489
▁numbers	-3490
▁FI	-3491
ki	-3492
▁approach	-3493
▁carried	-3494
cement	-3495
▁Karnataka	-3496
▁tried	-3497
▁forced	-3498
▁beginning	-3499
▁1990	-3500
▁river	-3501
face	-3502
miss	-3503
▁ur	-3504
uter	-3505
▁status	-3506
▁Ke	-3507
bre	-3508
reek	-3509
▁score	-3510
▁clean	-3511
▁Zealand	-3512
encies	-3513
ech	-3514
▁rain	-3515
▁middle	-3516
▁Grand	-3517
▁187	-3518
anda	-3519
▁Lou	-3520
▁laws	-3521
▁everyone	-3522
aging	-3523
▁opportunity	-3524
mark	-3525
▁Uttar	-3526
ensus	-3527
▁Center	-3528
▁contest	-3529
sy	-3530
▁east	-3531
▁caused	-3532
▁Mary	-3533
▁depend	-3534
AT	-3535
▁placed	-3536
iff	-3537
cel	-3538
▁dram	-3539
za	-3540
ault	-3541
▁culture	-3542
▁fif	-3543
going	-3544
▁property	-3545
▁adop	-3546
▁Def	-3547
▁individual	-3548
▁bur	-3549
ika	-3550
▁+	-3551
ental	-3552
▁districts	-3553
▁munic	-3554
fect	-3555
▁thous	-3556
▁virus	-3557
ugh	-3558
▁aware	-3559
iger	-3560
▁witness	-3561
ica	-3562
nai	-3563
▁Green	-3564
▁battle	-3565
edy	-3566
▁Hist	-3567
rief	-3568
▁Mo	-3569
▁secretary	-3570
▁Hospital	-3571
▁attended	-3572
gin	-3573
▁cities	-3574
▁Ob	-3575
▁32	-3576
▁Here	-3577
▁disease	-3578
▁religious	-3579
▁Bay	-3580
▁Tal	-3581
▁princ	-3582
▁counter	-3583
▁doesn	-3584
▁AI	-3585
▁doub	-3586
ervation	-3587
▁goals	-3588
▁biggest	-3589
▁hope	-3590
▁Angel	-3591
ago	-3592
▁summer	-3593
▁proposed	-3594
▁female	-3595
▁CE	-3596
▁aim	-3597
▁soft	-3598
▁Award	-3599
▁Nor	-3600
▁declared	-3601
ga	-3602
ota	-3603
▁condition	-3604
jee	-3605
uries	-3606
▁conne	-3607
▁contain	-3608
▁nothing	-3609
ston	-3610
▁MLA	-3611
▁Read	-3612
▁defend	-3613
▁traditional	-3614
ressive	-3615
▁west	-3616
▁2002	-3617
pping	-3618
ength	-3619
▁prison	-3620
ampion	-3621
▁Mexic	-3622
▁usually	-3623
▁cho	-3624
▁upd	-3625
▁managed	-3626
▁rules	-3627
▁Jack	-3628
▁complex	-3629
▁politics	-3630
▁ir	-3631
▁Prem	-3632
▁primary	-3633
▁paid	-3634
▁forest	-3635
urt	-3636
▁Alex	-3637
▁lif	-3638
rovers	-3639
▁Follow	-3640
change	-3641
DP	-3642
▁degree	-3643
▁Development	-3644
vest	-3645
▁eventually	-3646
▁necessary	-3647
▁books	-3648
rative	-3649
▁attention	-3650
SE	-3651
▁ready	-3652
iation	-3653
▁coast	-3654
▁Dis	-3655
▁residents	-3656
▁Our	-3657
▁Arab	-3658
wa	-3659
▁2001	-3660
▁crisis	-3661
▁arran	-3662
▁content	-3663
▁income	-3664
▁annual	-3665
▁supply	-3666
▁Hyder	-3667
▁challeng	-3668
▁touch	-3669
▁Games	-3670
▁method	-3671
▁immediately	-3672
▁sister	-3673
▁army	-3674
▁Bab	-3675
▁instit	-3676
▁joint	-3677
▁Turk	-3678
uclear	-3679
▁70	-3680
▁starting	-3681
▁purp	-3682
▁connect	-3683
SC	-3684
ny	-3685
ester	-3686
▁aircraft	-3687
▁Its	-3688
▁45	-3689
▁leadership	-3690
ief	-3691
▁UP	-3692
▁size	-3693
▁seems	-3694
▁lockdown	-3695
▁longer	-3696
▁Public	-3697
▁practice	-3698
▁mobile	-3699
rown	-3700
▁plays	-3701
▁expand	-3702
▁achieve	-3703
▁Hyderabad	-3704
▁Chennai	-3705
▁table	-3706
▁attacks	-3707
▁particularly	-3708
▁Rad	-3709
▁accom	-3710
▁prices	-3711
oud	-3712
▁belong	-3713
▁Od	-3714
▁surpr	-3715
isha	-3716
▁Today	-3717
-20	-3718
▁allegedly	-3719
▁multiple	-3720
wan	-3721
vert	-3722
▁Asia	-3723
atre	-3724
▁buy	-3725
▁felt	-3726
▁1980	-3727
▁Second	-3728
ellig	-3729
▁beat	-3730
▁Facebook	-3731
iy	-3732
▁novel	-3733
uit	-3734
▁compared	-3735
▁CM	-3736
▁document	-3737
ping	-3738
▁employees	-3739
▁Ital	-3740
▁estim	-3741
▁Gal	-3742
▁subsequ	-3743
▁80	-3744
▁capacity	-3745
▁respond	-3746
▁encoura	-3747
▁value	-3748
imb	-3749
▁gas	-3750
set	-3751
▁session	-3752
rival	-3753
▁sought	-3754
▁stra	-3755
▁acad	-3756
berg	-3757
▁rise	-3758
▁slow	-3759
road	-3760
▁drive	-3761
▁squad	-3762
▁withd	-3763
▁charges	-3764
▁fresh	-3765
edic	-3766
▁presence	-3767
▁injured	-3768
▁Another	-3769
ords	-3770
▁ap	-3771
▁repe	-3772
leg	-3773
▁sn	-3774
▁finally	-3775
▁railway	-3776
GB	-3777
▁communic	-3778
oted	-3779
▁identified	-3780
room	-3781
ems	-3782
▁safe	-3783
▁pie	-3784
▁occup	-3785
▁lay	-3786
▁hol	-3787
▁Rel	-3788
▁names	-3789
▁cru	-3790
▁factor	-3791
like	-3792
tar	-3793
ledge	-3794
ami	-3795
ols	-3796
▁du	-3797
▁words	-3798
▁Research	-3799
-4	-3800
▁systems	-3801
uing	-3802
▁camera	-3803
,5	-3804
▁center	-3805
iant	-3806
▁Tom	-3807
▁whom	-3808
▁Thomas	-3809
▁spir	-3810
▁previously	-3811
▁scheduled	-3812
▁suggest	-3813
▁scheme	-3814
rupt	-3815
rary	-3816
aug	-3817
▁talks	-3818
hra	-3819
▁awarded	-3820
▁favour	-3821
ogle	-3822
▁Corporation	-3823
▁Photo	-3824
▁domestic	-3825
▁Paris	-3826
▁hundred	-3827
▁overall	-3828
ables	-3829
▁Tri	-3830
odies	-3831
▁Christian	-3832
▁mach	-3833
inder	-3834
cis	-3835
▁gone	-3836
ography	-3837
och	-3838
▁Hen	-3839
▁Bollywood	-3840
▁2022	-3841
▁command	-3842
▁independent	-3843
▁exhib	-3844
▁pun	-3845
▁Asian	-3846
▁fear	-3847
▁fix	-3848
▁territ	-3849
person	-3850
▁Michael	-3851
▁becoming	-3852
▁limited	-3853
abinet	-3854
▁har	-3855
▁double	-3856
▁Force	-3857
▁claims	-3858
▁rule	-3859
▁Music	-3860
MC	-3861
▁cra	-3862
aches	-3863
▁mission	-3864
put	-3865
iter	-3866
astic	-3867
▁Sharma	-3868
▁36	-3869
▁shown	-3870
west	-3871
▁Class	-3872
▁Academy	-3873
ply	-3874
▁Following	-3875
itz	-3876
▁Early	-3877
▁collection	-3878
▁episode	-3879
ils	-3880
astern	-3881
▁Japanese	-3882
▁controvers	-3883
▁happy	-3884
AD	-3885
▁Rahul	-3886
itals	-3887
▁someone	-3888
▁flood	-3889
▁deaths	-3890
▁vehicles	-3891
▁Dal	-3892
▁coal	-3893
▁ut	-3894
▁Year	-3895
▁Mu	-3896
▁temper	-3897
▁believed	-3898
▁division	-3899
▁goes	-3900
▁Guj	-3901
▁depart	-3902
▁facilities	-3903
▁university	-3904
▁true	-3905
▁Hum	-3906
anta	-3907
▁Later	-3908
anj	-3909
▁Tex	-3910
▁manager	-3911
▁operation	-3912
▁artist	-3913
▁offers	-3914
▁gets	-3915
▁affected	-3916
▁expressed	-3917
inated	-3918
▁providing	-3919
rd	-3920
▁Nadu	-3921
▁WW	-3922
▁actually	-3923
▁Afghanistan	-3924
▁Mac	-3925
▁Olympics	-3926
▁houses	-3927
▁bound	-3928
▁evening	-3929
▁wide	-3930
board	-3931
▁sle	-3932
▁type	-3933
▁votes	-3934
▁everything	-3935
▁answ	-3936
▁frequ	-3937
asc	-3938
▁Google	-3939
▁Sir	-3940
▁bill	-3941
▁accident	-3942
orial	-3943
▁writing	-3944
▁appeal	-3945
mat	-3946
▁growing	-3947
▁Mer	-3948
ding	-3949
itude	-3950
▁Dev	-3951
▁famous	-3952
rin	-3953
▁unf	-3954
inem	-3955
▁Vij	-3956
▁Open	-3957
▁subs	-3958
▁temple	-3959
ider	-3960
ously	-3961
▁hor	-3962
▁Town	-3963
▁ille	-3964
TV	-3965
mi	-3966
▁leaving	-3967
urban	-3968
▁separate	-3969
▁integ	-3970
▁newsp	-3971
▁Mount	-3972
▁log	-3973
▁upcoming	-3974
ocks	-3975
▁Mem	-3976
hy	-3977
▁Great	-3978
zil	-3979
▁assembly	-3980
▁pil	-3981
▁stre	-3982
▁Scott	-3983
▁fr	-3984
▁Lat	-3985
▁Miss	-3986
▁crim	-3987
▁rural	-3988
▁specific	-3989
ruit	-3990
▁anything	-3991
▁agreement	-3992
▁Despite	-3993
▁Mel	-3994
▁Best	-3995
▁adj	-3996
▁wants	-3997
▁wa	-3998
enced	-3999
▁shop	-4000
▁nature	-4001
▁der	-4002
▁green	-4003
▁responsible	-4004
▁500	-4005
een	-4006
▁extrem	-4007
▁featured	-4008
uate	-4009
adian	-4010
azine	-4011
▁Film	-4012
▁Sl	-4013
▁budget	-4014
▁Mur	-4015
ikh	-4016
▁90	-4017
rastructure	-4018
▁digital	-4019
▁Times	-4020
▁agreed	-4021
▁disapp	-4022
▁Foot	-4023
idel	-4024
▁individuals	-4025
ux	-4026
▁ways	-4027
oes	-4028
chers	-4029
▁und	-4030
▁search	-4031
▁Earlier	-4032
▁surround	-4033
▁entered	-4034
oned	-4035
▁Exp	-4036
▁Society	-4037
▁flag	-4038
▁Gh	-4039
▁begin	-4040
▁occasion	-4041
▁chance	-4042
▁collabor	-4043
▁AP	-4044
▁Jew	-4045
▁brief	-4046
▁picture	-4047
▁fair	-4048
▁happened	-4049
▁executive	-4050
hab	-4051
▁funds	-4052
▁regional	-4053
▁replaced	-4054
ushed	-4055
▁weap	-4056
▁Island	-4057
porary	-4058
oti	-4059
nown	-4060
▁Virgin	-4061
edom	-4062
▁Mil	-4063
igation	-4064
▁propos	-4065
▁Italian	-4066
▁text	-4067
ruption	-4068
AP	-4069
▁Vict	-4070
ulations	-4071
udi	-4072
ett	-4073
▁Nar	-4074
▁Britain	-4075
▁Hol	-4076
▁marriage	-4077
▁1999	-4078
▁buildings	-4079
▁Smith	-4080
▁collect	-4081
▁radio	-4082
tery	-4083
▁bit	-4084
▁Every	-4085
agement	-4086
▁approx	-4087
▁Governor	-4088
▁questions	-4089
▁Robert	-4090
▁tru	-4091
▁parliament	-4092
▁Assam	-4093
▁council	-4094
▁agricult	-4095
▁Lord	-4096
▁paper	-4097
ancy	-4098
▁Their	-4099
alys	-4100
iring	-4101
plom	-4102
▁Az	-4103
tained	-4104
▁Apple	-4105
▁cerem	-4106
▁alleg	-4107
▁studies	-4108
inent	-4109
▁CP	-4110
than	-4111
▁image	-4112
oke	-4113
▁polls	-4114
▁extended	-4115
▁demonst	-4116
▁personnel	-4117
▁speed	-4118
▁message	-4119
▁festival	-4120
▁37	-4121
ashion	-4122
esides	-4123
yan	-4124
▁prime	-4125
ban	-4126
▁Cath	-4127
▁normal	-4128
nam	-4129
▁cat	-4130
ym	-4131
ented	-4132
cher	-4133
▁bal	-4134
▁sometimes	-4135
▁exerc	-4136
▁wel	-4137
▁Ali	-4138
▁ban	-4139
night	-4140
▁altern	-4141
▁informed	-4142
▁Brazil	-4143
▁presented	-4144
▁Inc	-4145
izing	-4146
▁length	-4147
ili	-4148
▁Star	-4149
▁standard	-4150
▁receive	-4151
▁Kapoor	-4152
rowd	-4153
▁Nov	-4154
▁MS	-4155
▁£	-4156
tered	-4157
▁originally	-4158
▁33	-4159
▁thus	-4160
▁Bus	-4161
hand	-4162
▁completely	-4163
ero	-4164
▁trial	-4165
▁settle	-4166
▁1970	-4167
▁Korea	-4168
▁audience	-4169
▁structure	-4170
▁remaining	-4171
▁Commun	-4172
▁Found	-4173
fort	-4174
aching	-4175
▁architect	-4176
vis	-4177
quar	-4178
zz	-4179
AM	-4180
▁sea	-4181
▁sales	-4182
▁petition	-4183
angana	-4184
▁investment	-4185
▁listed	-4186
▁sch	-4187
burg	-4188
▁stars	-4189
odes	-4190
▁qual	-4191
▁cooper	-4192
▁vehicle	-4193
▁challenge	-4194
▁Texas	-4195
▁mig	-4196
▁Inf	-4197
▁Out	-4198
▁wrong	-4199
▁reform	-4200
▁concept	-4201
▁planned	-4202
heast	-4203
▁anc	-4204
anish	-4205
▁mostly	-4206
▁celebr	-4207
▁Jay	-4208
▁troops	-4209
▁nuclear	-4210
antic	-4211
▁Medical	-4212
▁arrived	-4213
▁associated	-4214
lers	-4215
▁Up	-4216
▁Aff	-4217
ici	-4218
anced	-4219
▁Bec	-4220
agram	-4221
▁northern	-4222
▁Special	-4223
▁southern	-4224
▁corn	-4225
sych	-4226
vention	-4227
▁path	-4228
▁Arch	-4229
▁Democratic	-4230
▁physical	-4231
▁quickly	-4232
▁medic	-4233
▁progress	-4234
▁looks	-4235
▁Service	-4236
DA	-4237
eter	-4238
▁defeated	-4239
▁sense	-4240
▁airport	-4241
▁Los	-4242
gency	-4243
unk	-4244
▁traffic	-4245
▁Wil	-4246
▁floor	-4247
▁location	-4248
▁seeking	-4249
▁Kal	-4250
▁route	-4251
▁lines	-4252
▁ability	-4253
alore	-4254
▁sust	-4255
▁max	-4256
▁calls	-4257
10	-4258
▁easy	-4259
▁destroy	-4260
ola	-4261
▁posted	-4262
uters	-4263
▁sport	-4264
▁dedic	-4265
▁ran	-4266
ounder	-4267
▁device	-4268
elligence	-4269
▁Cur	-4270
▁Prov	-4271
▁science	-4272
▁reasons	-4273
ST	-4274
aval	-4275
enty	-4276
▁championship	-4277
▁mand	-4278
▁application	-4279
iling	-4280
▁1998	-4281
▁Francis	-4282
▁continues	-4283
▁serve	-4284
▁Charles	-4285
reland	-4286
nds	-4287
▁Ban	-4288
formation	-4289
▁Camp	-4290
apur	-4291
NA	-4292
▁Post	-4293
ora	-4294
ancing	-4295
▁defin	-4296
▁shooting	-4297
▁organization	-4298
▁ult	-4299
▁directly	-4300
▁sett	-4301
▁agg	-4302
▁Mat	-4303
▁Canadian	-4304
▁planning	-4305
▁supported	-4306
▁Pra	-4307
▁List	-4308
▁island	-4309
▁Though	-4310
▁ruling	-4311
oom	-4312
▁moving	-4313
uff	-4314
▁Lt	-4315
▁medal	-4316
▁etc	-4317
▁Hill	-4318
▁dang	-4319
▁resc	-4320
▁shut	-4321
▁Ver	-4322
▁Louis	-4323
▁banks	-4324
▁Ira	-4325
▁strike	-4326
▁Lad	-4327
▁climate	-4328
▁concerned	-4329
▁voice	-4330
▁girls	-4331
den	-4332
spe	-4333
▁domin	-4334
▁highly	-4335
▁Gujarat	-4336
,9	-4337
▁=	-4338
▁steps	-4339
FA	-4340
▁phase	-4341
▁bra	-4342
30	-4343
▁critical	-4344
ager	-4345
▁Italy	-4346
▁ministry	-4347
▁gives	-4348
▁lic	-4349
arent	-4350
star	-4351
▁autom	-4352
urance	-4353
▁heard	-4354
▁Vijay	-4355
▁selected	-4356
▁Ref	-4357
▁Rock	-4358
inals	-4359
▁Football	-4360
FC	-4361
▁flight	-4362
▁ordered	-4363
▁probably	-4364
▁institutions	-4365
▁Bas	-4366
▁Last	-4367
▁Spanish	-4368
▁Jun	-4369
▁cash	-4370
▁crowd	-4371
rec	-4372
▁WWE	-4373
▁ant	-4374
▁initially	-4375
▁Ann	-4376
iful	-4377
▁alone	-4378
▁singer	-4379
▁regarding	-4380
▁trust	-4381
▁crime	-4382
▁stations	-4383
hens	-4384
-6	-4385
▁prec	-4386
▁conflic	-4387
BA	-4388
ips	-4389
▁ones	-4390
▁connection	-4391
▁essential	-4392
▁1996	-4393
yer	-4394
inks	-4395
well	-4396
agh	-4397
▁ang	-4398
▁bab	-4399
▁Jamm	-4400
▁resear	-4401
▁34	-4402
▁Bre	-4403
ocal	-4404
▁pul	-4405
▁Profess	-4406
olf	-4407
▁bann	-4408
▁burn	-4409
▁fle	-4410
▁BBC	-4411
▁Sil	-4412
▁bey	-4413
▁pra	-4414
▁Mos	-4415
▁federal	-4416
▁stories	-4417
▁Kam	-4418
▁produce	-4419
▁prepar	-4420
▁withdra	-4421
▁suffered	-4422
orrow	-4423
▁Science	-4424
▁edition	-4425
▁fort	-4426
umn	-4427
RC	-4428
acing	-4429
▁subst	-4430
▁Roh	-4431
▁Shiv	-4432
▁beyond	-4433
▁weight	-4434
known	-4435
▁meaning	-4436
▁Far	-4437
▁activity	-4438
▁tick	-4439
DI	-4440
▁respectively	-4441
wing	-4442
▁Dec	-4443
▁scen	-4444
▁tested	-4445
▁larger	-4446
▁restrict	-4447
▁Commissioner	-4448
lied	-4449
▁inaug	-4450
▁committed	-4451
▁infrastructure	-4452
aram	-4453
▁Office	-4454
▁unique	-4455
▁1960	-4456
▁decades	-4457
▁delay	-4458
▁meant	-4459
▁Nep	-4460
▁tim	-4461
▁hearing	-4462
▁Step	-4463
▁scene	-4464
▁reportedly	-4465
▁mill	-4466
ira	-4467
level	-4468
▁direction	-4469
▁Jammu	-4470
▁Dut	-4471
▁characters	-4472
overy	-4473
▁effective	-4474
▁rap	-4475
▁fit	-4476
▁sides	-4477
▁cert	-4478
▁speech	-4479
▁Sand	-4480
▁king	-4481
▁appearance	-4482
▁Rob	-4483
▁Ireland	-4484
▁protests	-4485
▁Peter	-4486
▁transl	-4487
▁strength	-4488
▁Jud	-4489
▁>	-4490
▁Fort	-4491
▁chem	-4492
▁suggested	-4493
▁customers	-4494
▁provides	-4495
▁Cal	-4496
▁Richard	-4497
▁Let	-4498
▁Iraq	-4499
▁chairman	-4500
▁Ty	-4501
▁arg	-4502
▁Es	-4503
▁Mot	-4504
▁fully	-4505
ospitals	-4506
▁Indians	-4507
▁cong	-4508
▁ath	-4509
▁Indust	-4510
▁represented	-4511
▁constituency	-4512
ipur	-4513
▁owners	-4514
▁simply	-4515
▁Reddy	-4516
▁Ay	-4517
▁sexual	-4518
▁defeat	-4519
▁Then	-4520
▁Bur	-4521
▁185	-4522
▁Lab	-4523
istics	-4524
ureau	-4525
▁damage	-4526
icide	-4527
roid	-4528
▁Dub	-4529
▁Security	-4530
▁tell	-4531
▁avoid	-4532
▁thr	-4533
▁Organ	-4534
80	-4535
▁knowledge	-4536
ken	-4537
▁Bihar	-4538
▁faced	-4539
ishop	-4540
ellow	-4541
SP	-4542
▁Ven	-4543
▁sale	-4544
▁purs	-4545
da	-4546
ibly	-4547
eed	-4548
▁Wales	-4549
▁Nag	-4550
▁wood	-4551
run	-4552
▁injury	-4553
▁hero	-4554
▁defence	-4555
▁visited	-4556
▁jail	-4557
▁conclud	-4558
oj	-4559
pects	-4560
▁note	-4561
▁schol	-4562
▁Bet	-4563
orks	-4564
▁Railway	-4565
▁Lake	-4566
▁Team	-4567
▁Cast	-4568
▁convers	-4569
▁wat	-4570
▁concerns	-4571
▁thousands	-4572
ila	-4573
▁cultural	-4574
▁Festival	-4575
AC	-4576
▁Jag	-4577
▁communities	-4578
▁Real	-4579
▁fighting	-4580
etic	-4581
▁Rao	-4582
▁fat	-4583
bert	-4584
▁writer	-4585
▁villages	-4586
▁reject	-4587
▁holding	-4588
▁Lim	-4589
▁Deputy	-4590
▁Olympic	-4591
▁appears	-4592
▁proceed	-4593
▁western	-4594
▁emot	-4595
▁bodies	-4596
▁notice	-4597
▁consult	-4598
▁admitted	-4599
icted	-4600
ressing	-4601
king	-4602
▁1997	-4603
▁bench	-4604
▁Social	-4605
▁jobs	-4606
▁equip	-4607
▁Men	-4608
▁approximately	-4609
▁virt	-4610
▁records	-4611
▁facing	-4612
▁trou	-4613
▁reduce	-4614
▁diplom	-4615
▁diss	-4616
▁Gar	-4617
▁trav	-4618
▁fifth	-4619
▁Tor	-4620
▁Koh	-4621
▁spirit	-4622
▁request	-4623
apers	-4624
▁Shar	-4625
▁existing	-4626
▁massive	-4627
▁hour	-4628
▁Instagram	-4629
▁harm	-4630
▁pm	-4631
▁retired	-4632
▁IT	-4633
▁stock	-4634
▁Victor	-4635
▁credit	-4636
▁simple	-4637
▁store	-4638
agn	-4639
▁Cy	-4640
▁NC	-4641
right	-4642
▁broadcast	-4643
▁cell	-4644
▁losing	-4645
▁Scot	-4646
▁lived	-4647
eph	-4648
▁relief	-4649
▁markets	-4650
ias	-4651
▁Swed	-4652
▁1995	-4653
▁determin	-4654
▁facility	-4655
gn	-4656
ulate	-4657
▁Carol	-4658
▁perfect	-4659
pro	-4660
icks	-4661
▁refused	-4662
ios	-4663
▁latter	-4664
tainment	-4665
▁eth	-4666
▁removed	-4667
▁Rev	-4668
bon	-4669
▁channel	-4670
▁influence	-4671
▁Aj	-4672
adav	-4673
▁Hot	-4674
▁looked	-4675
▁soldiers	-4676
▁Madh	-4677
▁option	-4678
clus	-4679
▁deploy	-4680
▁owned	-4681
▁Museum	-4682
ube	-4683
▁anyone	-4684
▁choice	-4685
▁mechan	-4686
▁journey	-4687
▁jun	-4688
▁forms	-4689
▁extend	-4690
load	-4691
autiful	-4692
phy	-4693
▁Cricket	-4694
▁roles	-4695
▁strateg	-4696
house	-4697
▁bats	-4698
▁Abd	-4699
itable	-4700
▁approved	-4701
TE	-4702
▁nomin	-4703
ipality	-4704
▁creating	-4705
▁sequ	-4706
antly	-4707
▁clin	-4708
▁ongoing	-4709
▁Vill	-4710
▁184	-4711
▁Are	-4712
▁protection	-4713
racy	-4714
▁Valley	-4715
▁65	-4716
▁Main	-4717
acific	-4718
▁Navy	-4719
▁champion	-4720
▁resol	-4721
▁spoke	-4722
▁serving	-4723
▁industrial	-4724
TA	-4725
▁gain	-4726
arden	-4727
▁generation	-4728
▁Awards	-4729
ked	-4730
▁Krish	-4731
▁teachers	-4732
▁Oper	-4733
▁Three	-4734
rey	-4735
▁wild	-4736
itt	-4737
▁reduced	-4738
▁greater	-4739
▁Old	-4740
▁Virginia	-4741
▁replace	-4742
▁motor	-4743
▁remember	-4744
▁rare	-4745
▁Premier	-4746
▁testing	-4747
▁Catholic	-4748
▁older	-4749
▁amid	-4750
▁Foreign	-4751
▁dark	-4752
▁Liber	-4753
▁Brown	-4754
▁task	-4755
▁Angeles	-4756
xy	-4757
▁Mexico	-4758
aming	-4759
▁learning	-4760
▁cancer	-4761
▁Child	-4762
▁bul	-4763
▁Lanka	-4764
orough	-4765
▁overs	-4766
isted	-4767
▁Engine	-4768
▁variety	-4769
▁Prog	-4770
▁referred	-4771
▁Ms	-4772
▁hair	-4773
ockey	-4774
,4	-4775
▁Ros	-4776
▁Tour	-4777
▁govern	-4778
▁complaint	-4779
oured	-4780
▁victims	-4781
▁chart	-4782
▁numerous	-4783
stitutional	-4784
▁estimated	-4785
▁benefit	-4786
▁Opp	-4787
SS	-4788
▁Andhra	-4789
▁justice	-4790
fully	-4791
▁affect	-4792
unch	-4793
▁rob	-4794
aked	-4795
▁master	-4796
▁Henry	-4797
▁illegal	-4798
▁vent	-4799
▁IPL	-4800
▁rates	-4801
▁winner	-4802
▁partner	-4803
▁Us	-4804
▁Sports	-4805
▁1994	-4806
▁Flor	-4807
▁male	-4808
inct	-4809
ronic	-4810
ogue	-4811
rance	-4812
▁Feder	-4813
rog	-4814
▁shall	-4815
▁Championships	-4816
▁wed	-4817
▁doctor	-4818
▁missing	-4819
lor	-4820
▁Rajas	-4821
▁Affairs	-4822
eful	-4823
▁sell	-4824
▁Chic	-4825
ibrary	-4826
▁restaur	-4827
▁fashion	-4828
▁crew	-4829
▁secret	-4830
pond	-4831
▁Head	-4832
▁figure	-4833
▁AN	-4834
▁earned	-4835
▁campus	-4836
▁seg	-4837
▁dance	-4838
▁generally	-4839
▁Den	-4840
▁criminal	-4841
tty	-4842
ially	-4843
▁CEO	-4844
▁roads	-4845
body	-4846
lo	-4847
▁Mass	-4848
▁category	-4849
▁1992	-4850
▁nearby	-4851
▁Johnson	-4852
▁Bad	-4853
pired	-4854
▁Frank	-4855
▁multi	-4856
▁Northern	-4857
▁weak	-4858
▁Mas	-4859
▁killing	-4860
▁prepared	-4861
▁operating	-4862
▁organised	-4863
▁resources	-4864
▁Spain	-4865
▁Pad	-4866
▁Four	-4867
▁feet	-4868
▁appoint	-4869
▁union	-4870
▁setting	-4871
▁doctors	-4872
▁equipment	-4873
,2	-4874
IC	-4875
▁*	-4876
▁Sol	-4877
▁Squ	-4878
▁broke	-4879
▁Atl	-4880
▁analys	-4881
▁pros	-4882
▁smartphone	-4883
▁studio	-4884
▁entry	-4885
▁magazine	-4886
▁Fer	-4887
▁surface	-4888
▁ceremony	-4889
uri	-4890
▁driver	-4891
▁dog	-4892
▁fine	-4893
▁NE	-4894
▁arm	-4895
ker	-4896
▁cars	-4897
▁skin	-4898
▁corpor	-4899
igan	-4900
ashed	-4901
▁Foundation	-4902
orter	-4903
inger	-4904
grad	-4905
▁dismiss	-4906
▁Kingdom	-4907
▁Odisha	-4908
▁save	-4909
▁Author	-4910
haps	-4911
▁opin	-4912
▁Sov	-4913
chester	-4914
imal	-4915
▁bag	-4916
orage	-4917
ishes	-4918
▁figures	-4919
▁homes	-4920
iller	-4921
rants	-4922
▁alongside	-4923
▁responsibility	-4924
▁dial	-4925
▁survey	-4926
▁doll	-4927
▁urban	-4928
▁organis	-4929
▁happen	-4930
▁spl	-4931
▁Technology	-4932
▁Ve	-4933
▁Gra	-4934
ternal	-4935
▁nom	-4936
▁Leg	-4937
▁push	-4938
bour	-4939
▁Ba	-4940
▁300	-4941
fall	-4942
▁hospitals	-4943
▁powerful	-4944
▁Ur	-4945
▁1991	-4946
▁Ja	-4947
▁qualif	-4948
▁Good	-4949
▁straight	-4950
▁partnership	-4951
▁suspend	-4952
▁Islamic	-4953
ont	-4954
ela	-4955
▁loan	-4956
▁mor	-4957
▁benefits	-4958
▁Among	-4959
▁mainly	-4960
▁Uk	-4961
vant	-4962
▁Ten	-4963
▁CBI	-4964
▁Cr	-4965
etball	-4966
▁experts	-4967
▁bomb	-4968
▁advant	-4969
▁artists	-4970
efore	-4971
▁victim	-4972
▁eye	-4973
▁Civil	-4974
atively	-4975
▁organiz	-4976
FL	-4977
▁75	-4978
▁maximum	-4979
▁freedom	-4980
▁reality	-4981
▁street	-4982
▁Pand	-4983
ception	-4984
▁photo	-4985
▁acting	-4986
long	-4987
▁Amb	-4988
▁Elect	-4989
▁keeping	-4990
▁fuel	-4991
ador	-4992
▁assess	-4993
▁Rajasthan	-4994
itan	-4995
uting	-4996
▁adult	-4997
▁covered	-4998
▁Bengaluru	-4999
▁1993	-5000
▁44	-5001
▁becomes	-5002
▁urged	-5003
▁allegations	-5004
zy	-5005
▁argu	-5006
▁bird	-5007
▁uses	-5008
▁Yadav	-5009
▁judge	-5010
▁Invest	-5011
▁classes	-5012
ounds	-5013
▁Arts	-5014
▁extremely	-5015
▁Muk	-5016
▁boost	-5017
onic	-5018
▁voters	-5019
▁innings	-5020
▁drop	-5021
anna	-5022
▁hab	-5023
▁assault	-5024
▁Ev	-5025
alty	-5026
▁producer	-5027
▁iP	-5028
▁skills	-5029
▁pictures	-5030
▁passengers	-5031
oni	-5032
▁Mir	-5033
▁beautiful	-5034
then	-5035
▁caught	-5036
▁FC	-5037
▁Amit	-5038
▁calling	-5039
▁Telangana	-5040
▁Sk	-5041
▁Donald	-5042
het	-5043
elfare	-5044
▁Mand	-5045
▁vice	-5046
iban	-5047
law	-5048
▁manner	-5049
idelines	-5050
▁Former	-5051
iously	-5052
▁storm	-5053
▁developing	-5054
▁48	-5055
gend	-5056
▁dropped	-5057
▁Hel	-5058
▁orders	-5059
▁complain	-5060
▁Enter	-5061
▁attacked	-5062
illing	-5063
▁Ra	-5064
▁pray	-5065
▁shares	-5066
▁elements	-5067
▁analy	-5068
▁basic	-5069
▁newspaper	-5070
▁Kolk	-5071
▁Power	-5072
▁eastern	-5073
II	-5074
▁Ham	-5075
▁cinem	-5076
▁Before	-5077
▁Lu	-5078
▁Mont	-5079
▁professor	-5080
power	-5081
▁apart	-5082
▁Gul	-5083
▁reporters	-5084
▁importance	-5085
▁granted	-5086
▁wickets	-5087
▁univers	-5088
▁purpose	-5089
▁Mang	-5090
▁Econom	-5091
▁duty	-5092
ano	-5093
▁Jer	-5094
▁wond	-5095
ocracy	-5096
-5	-5097
hik	-5098
osh	-5099
▁38	-5100
▁rat	-5101
▁uns	-5102
▁psych	-5103
onents	-5104
▁Nations	-5105
▁syn	-5106
▁suc	-5107
▁Summer	-5108
▁drink	-5109
▁gather	-5110
▁emergency	-5111
▁Amaz	-5112
▁governments	-5113
▁marg	-5114
▁twice	-5115
▁bridge	-5116
▁finish	-5117
▁tests	-5118
▁accepted	-5119
▁Kolkata	-5120
▁studied	-5121
▁Boy	-5122
▁42	-5123
▁Why	-5124
▁send	-5125
lies	-5126
fit	-5127
▁39	-5128
▁documents	-5129
ructed	-5130
▁native	-5131
iders	-5132
▁Sever	-5133
▁plants	-5134
quarters	-5135
▁accounts	-5136
standing	-5137
▁McC	-5138
▁rally	-5139
▁offering	-5140
▁Int	-5141
▁Deep	-5142
▁drama	-5143
▁succeed	-5144
▁options	-5145
▁retail	-5146
▁Saint	-5147
▁Ltd	-5148
▁Georg	-5149
▁advoc	-5150
cont	-5151
▁Lead	-5152
▁code	-5153
▁owner	-5154
ava	-5155
IM	-5156
▁models	-5157
▁shock	-5158
▁county	-5159
icit	-5160
▁leaves	-5161
,6	-5162
ooth	-5163
▁jump	-5164
▁Chicago	-5165
rie	-5166
anes	-5167
▁Stadium	-5168
▁Young	-5169
▁editor	-5170
ura	-5171
,1	-5172
▁carrying	-5173
▁dedicated	-5174
▁actions	-5175
ighter	-5176
▁spect	-5177
▁mil	-5178
▁weekend	-5179
TC	-5180
▁sets	-5181
▁article	-5182
▁Ha	-5183
rect	-5184
▁Water	-5185
▁negoti	-5186
▁semi	-5187
▁hotel	-5188
▁exact	-5189
▁effects	-5190
▁Independ	-5191
▁negative	-5192
rees	-5193
▁Ro	-5194
▁IC	-5195
▁Life	-5196
▁Officer	-5197
▁discovered	-5198
,7	-5199
inter	-5200
▁academic	-5201
gypt	-5202
aped	-5203
▁1989	-5204
nic	-5205
tw	-5206
▁Soviet	-5207
▁wave	-5208
▁Wood	-5209
▁Bid	-5210
▁Penn	-5211
▁Senate	-5212
▁1950	-5213
▁newly	-5214
rep	-5215
▁census	-5216
▁phil	-5217
gent	-5218
▁costs	-5219
▁Kohli	-5220
▁comments	-5221
▁distance	-5222
term	-5223
▁innov	-5224
▁proposal	-5225
▁earth	-5226
ingu	-5227
cean	-5228
isher	-5229
▁weather	-5230
▁computer	-5231
▁Love	-5232
▁Florida	-5233
▁Cam	-5234
▁storage	-5235
▁Var	-5236
▁recovered	-5237
▁Middle	-5238
ayan	-5239
▁termin	-5240
▁Republican	-5241
▁historic	-5242
▁Tele	-5243
kes	-5244
▁monitor	-5245
▁Wal	-5246
▁association	-5247
▁policies	-5248
▁denied	-5249
▁Once	-5250
▁SC	-5251
▁Addition	-5252
iced	-5253
▁64	-5254
▁bed	-5255
▁pair	-5256
▁rear	-5257
▁Earth	-5258
-7	-5259
▁ton	-5260
▁province	-5261
born	-5262
ji	-5263
▁canc	-5264
▁Os	-5265
▁Produ	-5266
▁therefore	-5267
▁programs	-5268
▁stream	-5269
▁Conference	-5270
hat	-5271
▁gar	-5272
ennis	-5273
▁bask	-5274
▁politician	-5275
▁ven	-5276
▁PTI	-5277
▁stopped	-5278
▁suicide	-5279
▁Ran	-5280
▁Joseph	-5281
▁perman	-5282
wise	-5283
▁tweeted	-5284
igg	-5285
▁Finance	-5286
ado	-5287
▁Express	-5288
▁neighbour	-5289
isf	-5290
▁micro	-5291
▁silver	-5292
▁observed	-5293
▁poet	-5294
▁Queen	-5295
iversary	-5296
ns	-5297
▁Ahmed	-5298
▁Services	-5299
▁Fre	-5300
▁Manchester	-5301
athan	-5302
▁Egypt	-5303
IS	-5304
▁Hon	-5305
jun	-5306
▁Taliban	-5307
▁Represent	-5308
▁panel	-5309
▁submitted	-5310
▁SP	-5311
▁Emp	-5312
▁conver	-5313
▁exchange	-5314
equ	-5315
▁showing	-5316
▁Max	-5317
▁mut	-5318
▁eyes	-5319
RA	-5320
ih	-5321
▁Station	-5322
▁fan	-5323
awa	-5324
▁scoring	-5325
▁receiving	-5326
win	-5327
▁teacher	-5328
▁Land	-5329
▁struct	-5330
▁kil	-5331
▁musical	-5332
▁Human	-5333
IA	-5334
dule	-5335
▁bringing	-5336
▁ministers	-5337
▁sort	-5338
rade	-5339
▁alliance	-5340
▁distribution	-5341
▁150	-5342
ivery	-5343
je	-5344
yo	-5345
▁Tem	-5346
▁resolution	-5347
phas	-5348
▁mist	-5349
ima	-5350
▁Hary	-5351
inations	-5352
▁Vice	-5353
▁corruption	-5354
▁baby	-5355
▁devices	-5356
▁largely	-5357
▁contains	-5358
▁software	-5359
▁raise	-5360
▁colon	-5361
▁rapid	-5362
▁actors	-5363
▁colour	-5364
▁liqu	-5365
▁revenue	-5366
inners	-5367
▁Martin	-5368
ule	-5369
▁EU	-5370
▁incor	-5371
▁highlight	-5372
▁views	-5373
eld	-5374
urd	-5375
▁comfort	-5376
▁door	-5377
▁bott	-5378
▁allows	-5379
ipl	-5380
writ	-5381
▁Tok	-5382
▁interesting	-5383
▁feed	-5384
▁Jul	-5385
▁Android	-5386
▁internal	-5387
ipped	-5388
▁heav	-5389
▁Person	-5390
iny	-5391
▁repeated	-5392
▁liber	-5393
▁authority	-5394
▁warm	-5395
▁easily	-5396
▁confidence	-5397
▁attract	-5398
pet	-5399
inch	-5400
▁enfor	-5401
▁sites	-5402
▁businesses	-5403
,3	-5404
pri	-5405
mas	-5406
avan	-5407
▁advis	-5408
▁technical	-5409
iry	-5410
▁tow	-5411
itage	-5412
ograp	-5413
actions	-5414
▁animals	-5415
▁Dar	-5416
▁400	-5417
▁script	-5418
▁Lee	-5419
▁Top	-5420
▁agencies	-5421
▁CB	-5422
▁throw	-5423
▁injuries	-5424
onom	-5425
▁conflict	-5426
unte	-5427
▁cook	-5428
▁wall	-5429
▁Fire	-5430
▁Kong	-5431
,8	-5432
sen	-5433
▁user	-5434
▁participated	-5435
axy	-5436
▁cas	-5437
▁background	-5438
▁stone	-5439
▁asking	-5440
▁Sud	-5441
friend	-5442
▁immig	-5443
▁weapons	-5444
▁acquired	-5445
bit	-5446
▁Battle	-5447
▁presidential	-5448
▁historical	-5449
▁probe	-5450
▁upper	-5451
▁Prince	-5452
▁Joe	-5453
▁speak	-5454
▁Muslims	-5455
-18	-5456
▁Nepal	-5457
▁symb	-5458
▁batt	-5459
ammad	-5460
▁strate	-5461
▁measure	-5462
uke	-5463
▁Vis	-5464
▁Scotland	-5465
▁strategy	-5466
▁coord	-5467
▁Wind	-5468
▁seasons	-5469
▁Southern	-5470
▁occurred	-5471
▁Obama	-5472
▁trains	-5473
▁strengthen	-5474
▁Haryana	-5475
▁rich	-5476
▁Further	-5477
▁Speaking	-5478
▁residence	-5479
▁initiative	-5480
▁shif	-5481
▁Hong	-5482
▁titled	-5483
▁49	-5484
▁Er	-5485
agon	-5486
▁Tim	-5487
▁pic	-5488
▁grew	-5489
▁<	-5490
▁Book	-5491
▁pal	-5492
▁flow	-5493
▁demanded	-5494
▁hear	-5495
▁else	-5496
▁page	-5497
▁square	-5498
▁officially	-5499
▁Hindi	-5500
▁prominent	-5501
abh	-5502
more	-5503
▁veter	-5504
▁experien	-5505
▁Pacific	-5506
aling	-5507
▁elim	-5508
▁wait	-5509
life	-5510
▁email	-5511
▁athlet	-5512
iven	-5513
▁sun	-5514
▁territory	-5515
icial	-5516
▁severe	-5517
▁Long	-5518
▁quoted	-5519
illa	-5520
▁ce	-5521
▁talking	-5522
▁challenges	-5523
oration	-5524
▁resign	-5525
▁exercise	-5526
▁solution	-5527
▁Cat	-5528
▁kids	-5529
▁movies	-5530
▁Several	-5531
▁wasn	-5532
▁operated	-5533
▁Amazon	-5534
▁prin	-5535
▁sleep	-5536
▁pattern	-5537
▁ign	-5538
▁advert	-5539
▁interests	-5540
▁Band	-5541
▁prosec	-5542
▁slight	-5543
▁Greek	-5544
▁younger	-5545
▁Aut	-5546
▁Hu	-5547
rier	-5548
▁shel	-5549
▁Sams	-5550
▁fellow	-5551
▁discussion	-5552
▁Cro	-5553
▁Report	-5554
ensity	-5555
▁returning	-5556
▁favor	-5557
▁Histor	-5558
▁stands	-5559
▁Ka	-5560
enth	-5561
▁prefer	-5562
lig	-5563
▁smaller	-5564
▁Belg	-5565
▁announcement	-5566
▁tough	-5567
▁awards	-5568
▁adopted	-5569
▁Lal	-5570
▁contem	-5571
▁widely	-5572
▁expert	-5573
▁Line	-5574
▁minute	-5575
▁failure	-5576
▁applications	-5577
▁Business	-5578
met	-5579
▁items	-5580
▁express	-5581
▁decade	-5582
▁difference	-5583
fl	-5584
▁allowing	-5585
opal	-5586
▁gang	-5587
▁labour	-5588
▁centres	-5589
▁chap	-5590
▁encoun	-5591
▁kid	-5592
▁identity	-5593
▁Jim	-5594
▁subsequently	-5595
▁41	-5596
athi	-5597
▁Only	-5598
▁About	-5599
amily	-5600
▁helps	-5601
▁researchers	-5602
▁performances	-5603
-9	-5604
esterday	-5605
▁Administ	-5606
▁Ap	-5607
▁Bah	-5608
▁Som	-5609
respond	-5610
▁blue	-5611
▁housing	-5612
▁promote	-5613
azz	-5614
apore	-5615
▁format	-5616
▁unable	-5617
▁recording	-5618
▁charged	-5619
▁opportunities	-5620
AF	-5621
▁limit	-5622
▁answer	-5623
▁assistant	-5624
▁Sea	-5625
▁scale	-5626
▁restrictions	-5627
▁proced	-5628
▁marks	-5629
▁Bob	-5630
▁debate	-5631
▁gained	-5632
itar	-5633
▁era	-5634
▁1984	-5635
▁faith	-5636
▁involve	-5637
▁arms	-5638
iverse	-5639
iah	-5640
pass	-5641
umed	-5642
▁lies	-5643
▁posts	-5644
▁Card	-5645
▁pointed	-5646
▁stood	-5647
care	-5648
inate	-5649
▁dyn	-5650
▁1988	-5651
▁isol	-5652
▁susp	-5653
ste	-5654
▁Goa	-5655
anging	-5656
▁herself	-5657
▁intelligence	-5658
▁Av	-5659
▁speaking	-5660
▁advantage	-5661
iams	-5662
▁retire	-5663
▁Polit	-5664
▁guard	-5665
ription	-5666
▁roll	-5667
▁43	-5668
▁55	-5669
udden	-5670
▁Matt	-5671
▁cry	-5672
▁Airport	-5673
▁emphas	-5674
▁transferred	-5675
▁aid	-5676
ctoral	-5677
ukh	-5678
▁wedding	-5679
bur	-5680
▁Korean	-5681
▁fish	-5682
▁Chairman	-5683
▁Bangalore	-5684
▁Pu	-5685
▁adm	-5686
▁rising	-5687
eless	-5688
▁concent	-5689
oga	-5690
▁Kir	-5691
▁Eastern	-5692
▁Major	-5693
itors	-5694
▁CD	-5695
▁veget	-5696
lets	-5697
▁waiting	-5698
▁Charl	-5699
▁Forest	-5700
▁invited	-5701
▁Pras	-5702
▁rival	-5703
▁kick	-5704
hew	-5705
▁Gen	-5706
▁undert	-5707
▁Bhar	-5708
▁Saudi	-5709
▁shar	-5710
▁nations	-5711
lus	-5712
yal	-5713
▁organisation	-5714
uv	-5715
▁mas	-5716
▁helping	-5717
▁isn	-5718
▁patient	-5719
oz	-5720
▁resist	-5721
▁organized	-5722
▁Mun	-5723
▁bail	-5724
▁assistance	-5725
▁amend	-5726
▁Senior	-5727
ucky	-5728
bar	-5729
▁Kat	-5730
▁compos	-5731
▁corner	-5732
▁Samsung	-5733
ammed	-5734
break	-5735
merce	-5736
▁apply	-5737
▁constructed	-5738
icy	-5739
▁Sant	-5740
▁arrang	-5741
▁funding	-5742
▁Att	-5743
▁subsid	-5744
▁achieved	-5745
▁minimum	-5746
▁tend	-5747
▁suspended	-5748
▁fra	-5749
rison	-5750
▁birthday	-5751
▁examination	-5752
OS	-5753
▁types	-5754
▁profession	-5755
ounded	-5756
▁Williams	-5757
add	-5758
▁Dou	-5759
▁rose	-5760
▁refuge	-5761
amy	-5762
▁Vik	-5763
▁Philipp	-5764
▁divided	-5765
arsh	-5766
▁Those	-5767
rav	-5768
place	-5769
sp	-5770
itely	-5771
▁1986	-5772
▁mixed	-5773
▁Records	-5774
▁healthy	-5775
▁Haw	-5776
▁anniversary	-5777
▁administrative	-5778
onent	-5779
ourses	-5780
▁Na	-5781
fficient	-5782
▁Your	-5783
class	-5784
▁tack	-5785
▁Blue	-5786
▁dream	-5787
▁wrest	-5788
▁ancient	-5789
▁collected	-5790
▁follows	-5791
▁museum	-5792
▁Bul	-5793
▁Because	-5794
▁Const	-5795
▁Series	-5796
ankar	-5797
▁Each	-5798
▁Irish	-5799
▁Common	-5800
▁hundreds	-5801
ba	-5802
▁183	-5803
awan	-5804
xygen	-5805
-8	-5806
osen	-5807
maker	-5808
▁infection	-5809
▁combined	-5810
▁notes	-5811
▁religion	-5812
▁positions	-5813
▁1,000	-5814
ugu	-5815
▁Like	-5816
▁sac	-5817
▁resulted	-5818
range	-5819
▁standing	-5820
▁delivery	-5821
▁inspired	-5822
ella	-5823
ource	-5824
▁headed	-5825
▁opinion	-5826
▁analysis	-5827
▁46	-5828
sk	-5829
▁rom	-5830
▁absol	-5831
dd	-5832
▁bid	-5833
▁Control	-5834
▁supporting	-5835
▁Pen	-5836
▁rum	-5837
▁rough	-5838
▁advance	-5839
▁Management	-5840
SA	-5841
uous	-5842
▁Ath	-5843
▁apprec	-5844
▁Constitution	-5845
gi	-5846
▁Press	-5847
▁Bharat	-5848
▁branch	-5849
▁bought	-5850
▁laid	-5851
▁Sin	-5852
▁catch	-5853
emen	-5854
oles	-5855
▁promoted	-5856
▁explained	-5857
▁unp	-5858
using	-5859
▁rejected	-5860
IN	-5861
▁deputy	-5862
19	-5863
▁1987	-5864
▁Broad	-5865
▁winter	-5866
▁equal	-5867
chen	-5868
▁awareness	-5869
anga	-5870
▁write	-5871
ijing	-5872
▁Fund	-5873
▁regions	-5874
▁armed	-5875
▁clar	-5876
▁inaugur	-5877
▁Spr	-5878
▁supporters	-5879
▁Vol	-5880
▁featuring	-5881
▁temperature	-5882
▁hall	-5883
ette	-5884
ersey	-5885
orders	-5886
▁Columb	-5887
▁Americans	-5888
▁Show	-5889
▁Coast	-5890
essions	-5891
▁founder	-5892
▁selling	-5893
▁theory	-5894
▁languages	-5895
▁driving	-5896
▁connected	-5897
▁destroyed	-5898
▁primarily	-5899
,0	-5900
▁Jones	-5901
▁wicket	-5902
▁municipality	-5903
▁ruled	-5904
▁meetings	-5905
▁municipal	-5906
ologies	-5907
▁Carolina	-5908
▁sections	-5909
▁miles	-5910
▁Ray	-5911
▁deleg	-5912
▁Gre	-5913
▁drugs	-5914
▁educational	-5915
ules	-5916
▁Bat	-5917
▁Bow	-5918
▁wish	-5919
▁cells	-5920
▁videos	-5921
▁solid	-5922
▁Argent	-5923
▁exclus	-5924
iar	-5925
▁crucial	-5926
▁ment	-5927
ansion	-5928
▁internet	-5929
oma	-5930
▁lose	-5931
▁choose	-5932
▁tracks	-5933
▁composed	-5934
▁overse	-5935
▁proved	-5936
▁circum	-5937
▁tom	-5938
eline	-5939
▁engineering	-5940
ni	-5941
uls	-5942
▁piece	-5943
▁Portug	-5944
▁Tro	-5945
▁Carl	-5946
▁file	-5947
▁Nagar	-5948
▁goods	-5949
▁install	-5950
▁offices	-5951
▁criticism	-5952
▁Biden	-5953
▁holds	-5954
▁Lit	-5955
rich	-5956
ED	-5957
▁Kim	-5958
▁battery	-5959
▁Trib	-5960
▁color	-5961
▁Singapore	-5962
▁System	-5963
▁Beijing	-5964
▁streets	-5965
▁inqu	-5966
▁governor	-5967
▁immediate	-5968
▁basketball	-5969
roud	-5970
▁cooperation	-5971
ingly	-5972
▁decide	-5973
▁Time	-5974
▁picked	-5975
▁ec	-5976
▁materials	-5977
araj	-5978
▁web	-5979
▁imag	-5980
▁stake	-5981
▁Mid	-5982
▁lad	-5983
IL	-5984
▁Internet	-5985
athe	-5986
▁pit	-5987
▁memory	-5988
MA	-5989
▁consec	-5990
▁perhaps	-5991
works	-5992
▁Tai	-5993
▁compr	-5994
▁Galaxy	-5995
▁apparent	-5996
rah	-5997
idae	-5998
▁Est	-5999
▁conte	-6000
▁Pakistani	-6001
▁Ul	-6002
▁heat	-6003
▁wearing	-6004
▁Sanj	-6005
▁trail	-6006
▁purchase	-6007
▁earn	-6008
MP	-6009
igen	-6010
▁marked	-6011
▁colleges	-6012
eler	-6013
▁guidelines	-6014
▁headquarters	-6015
▁₹	-6016
▁Who	-6017
RS	-6018
▁Project	-6019
ua	-6020
arks	-6021
▁coin	-6022
▁Ol	-6023
▁Munic	-6024
aired	-6025
▁fest	-6026
orney	-6027
▁row	-6028
▁Program	-6029
▁Radio	-6030
18	-6031
sex	-6032
▁knew	-6033
▁intended	-6034
▁focused	-6035
▁urg	-6036
▁Reuters	-6037
▁households	-6038
▁NH	-6039
▁trip	-6040
▁trees	-6041
makers	-6042
▁properties	-6043
▁Election	-6044
▁paint	-6045
▁lawyer	-6046
▁spokesperson	-6047
aza	-6048
mine	-6049
▁Syd	-6050
▁Media	-6051
▁spons	-6052
ifying	-6053
▁powers	-6054
▁Ken	-6055
▁Chris	-6056
▁approval	-6057
▁Jac	-6058
pective	-6059
▁suffering	-6060
▁dry	-6061
▁Micro	-6062
▁180	-6063
▁cards	-6064
▁1985	-6065
▁Journ	-6066
redit	-6067
▁engaged	-6068
12	-6069
▁advanced	-6070
▁Labour	-6071
▁flu	-6072
▁Fred	-6073
▁mountain	-6074
▁spending	-6075
▁magn	-6076
▁begins	-6077
▁recovery	-6078
mond	-6079
▁pregn	-6080
▁sixth	-6081
▁stret	-6082
▁attempts	-6083
▁labor	-6084
▁Michigan	-6085
▁bond	-6086
▁fram	-6087
▁Turkey	-6088
▁standards	-6089
▁Fe	-6090
▁sustain	-6091
▁Well	-6092
▁Dutch	-6093
▁Guard	-6094
▁reflect	-6095
▁teaching	-6096
▁manufacturing	-6097
▁tells	-6098
▁Professor	-6099
▁starts	-6100
▁warned	-6101
▁nor	-6102
▁clearly	-6103
rif	-6104
▁Ly	-6105
▁AT	-6106
rics	-6107
▁Bureau	-6108
▁comedy	-6109
▁estate	-6110
▁creation	-6111
▁PC	-6112
▁Rout	-6113
▁sudden	-6114
oir	-6115
▁scholars	-6116
▁ice	-6117
▁zone	-6118
phones	-6119
▁honor	-6120
chay	-6121
ulty	-6122
60	-6123
▁Van	-6124
▁split	-6125
MK	-6126
▁surg	-6127
▁appropri	-6128
▁alternative	-6129
▁passing	-6130
▁seeing	-6131
otic	-6132
▁Tokyo	-6133
▁competed	-6134
IT	-6135
▁clubs	-6136
▁vs	-6137
▁feels	-6138
▁Kan	-6139
▁schedule	-6140
under	-6141
▁tree	-6142
▁47	-6143
▁Det	-6144
▁cold	-6145
▁appearances	-6146
urer	-6147
▁waste	-6148
▁ic	-6149
▁hosted	-6150
ko	-6151
rehens	-6152
zen	-6153
▁52	-6154
rage	-6155
agues	-6156
ients	-6157
▁Authority	-6158
ropol	-6159
▁Budd	-6160
▁Pune	-6161
teen	-6162
▁hyd	-6163
▁elig	-6164
▁discussed	-6165
▁Ron	-6166
lines	-6167
▁spend	-6168
▁sympt	-6169
▁assets	-6170
▁Defence	-6171
antine	-6172
pool	-6173
▁strict	-6174
▁correspond	-6175
obile	-6176
▁USA	-6177
ensions	-6178
▁maintained	-6179
▁wing	-6180
weight	-6181
▁vaccination	-6182
nce	-6183
▁excell	-6184
ico	-6185
▁DC	-6186
▁Tay	-6187
▁depos	-6188
ocation	-6189
▁Global	-6190
▁x	-6191
▁contra	-6192
▁mental	-6193
▁Pop	-6194
▁Ill	-6195
▁sand	-6196
taining	-6197
▁Rem	-6198
▁sitting	-6199
▁animal	-6200
▁applied	-6201
▁successfully	-6202
arh	-6203
oli	-6204
▁Janata	-6205
▁cabinet	-6206
▁Palest	-6207
▁consequ	-6208
▁yesterday	-6209
kins	-6210
▁Tre	-6211
▁toll	-6212
▁brain	-6213
▁Salman	-6214
▁titles	-6215
▁Sydney	-6216
▁Has	-6217
▁Trust	-6218
▁Syria	-6219
▁secure	-6220
▁theatre	-6221
▁consists	-6222
▁Information	-6223
▁organizations	-6224
uan	-6225
iano	-6226
▁linked	-6227
▁understanding	-6228
▁Viet	-6229
▁worst	-6230
▁formation	-6231
abled	-6232
▁treated	-6233
▁brothers	-6234
▁Jo	-6235
▁images	-6236
▁BC	-6237
ears	-6238
iti	-6239
▁factors	-6240
▁captured	-6241
bl	-6242
The	-6243
cow	-6244
▁core	-6245
ilding	-6246
▁franch	-6247
▁scientific	-6248
▁chosen	-6249
▁Besides	-6250
▁....	-6251
▁pace	-6252
othes	-6253
owned	-6254
ilater	-6255
▁decisions	-6256
▁impl	-6257
▁investors	-6258
▁guest	-6259
▁Wild	-6260
▁interested	-6261
▁opposed	-6262
▁1979	-6263
▁Trin	-6264
bury	-6265
▁elev	-6266
▁aband	-6267
▁communication	-6268
RE	-6269
▁sam	-6270
▁holid	-6271
▁wealth	-6272
▁journalist	-6273
▁participate	-6274
HO	-6275
▁wins	-6276
▁Srin	-6277
▁regul	-6278
▁Indones	-6279
esters	-6280
▁Fa	-6281
▁concluded	-6282
▁Exec	-6283
▁boys	-6284
▁fal	-6285
▁cool	-6286
▁celebrated	-6287
▁IN	-6288
▁Limited	-6289
▁Champions	-6290
▁Dam	-6291
▁Poland	-6292
ipe	-6293
▁remov	-6294
▁singles	-6295
▁delivered	-6296
ugg	-6297
▁fought	-6298
▁stress	-6299
ials	-6300
▁obtained	-6301
iri	-6302
▁Jewish	-6303
▁1971	-6304
▁emerged	-6305
▁locations	-6306
verse	-6307
▁regime	-6308
▁Opposition	-6309
▁settlement	-6310
▁dies	-6311
▁surrounding	-6312
▁kit	-6313
intend	-6314
▁metal	-6315
▁activists	-6316
▁1972	-6317
▁selection	-6318
rum	-6319
▁iPh	-6320
▁explos	-6321
▁RE	-6322
▁glob	-6323
▁ring	-6324
▁label	-6325
▁Wall	-6326
twitter	-6327
▁feeling	-6328
iscal	-6329
alle	-6330
▁compens	-6331
▁believes	-6332
▁worldwide	-6333
adh	-6334
▁causing	-6335
▁Daniel	-6336
▁habit	-6337
▁courses	-6338
▁Agency	-6339
▁Krishna	-6340
▁permanent	-6341
yard	-6342
▁environmental	-6343
▁Vid	-6344
▁Cross	-6345
erjee	-6346
90	-6347
▁Das	-6348
▁machine	-6349
▁experiment	-6350
▁fields	-6351
▁requested	-6352
▁Ret	-6353
▁implementation	-6354
▁sevent	-6355
▁ideas	-6356
▁glass	-6357
▁demands	-6358
▁Province	-6359
▁photograph	-6360
aud	-6361
▁chair	-6362
▁philos	-6363
▁AM	-6364
▁hal	-6365
▁satisf	-6366
▁Andrew	-6367
▁formal	-6368
▁Ok	-6369
aji	-6370
▁1983	-6371
▁Anton	-6372
▁1975	-6373
▁1982	-6374
atures	-6375
▁Federal	-6376
▁Stand	-6377
▁ships	-6378
▁Federation	-6379
▁spokesman	-6380
▁Cle	-6381
▁lands	-6382
▁oxygen	-6383
hips	-6384
▁Jon	-6385
▁Kent	-6386
ervative	-6387
▁volunte	-6388
▁Telugu	-6389
▁Camb	-6390
▁sharing	-6391
,500	-6392
▁employment	-6393
▁Kab	-6394
▁Moscow	-6395
▁improved	-6396
auty	-6397
onym	-6398
iana	-6399
▁Arun	-6400
▁theat	-6401
osis	-6402
▁AC	-6403
▁legend	-6404
▁programmes	-6405
rene	-6406
▁aimed	-6407
▁tun	-6408
▁iron	-6409
aksh	-6410
▁Sidd	-6411
▁select	-6412
izes	-6413
▁theme	-6414
▁Gall	-6415
uten	-6416
ologist	-6417
▁Patel	-6418
amin	-6419
▁ODI	-6420
▁Bach	-6421
▁attra	-6422
▁leads	-6423
hio	-6424
▁CC	-6425
hem	-6426
▁fly	-6427
related	-6428
▁affairs	-6429
▁visitors	-6430
▁Pay	-6431
▁renew	-6432
pa	-6433
amps	-6434
▁visiting	-6435
▁Through	-6436
▁Bor	-6437
▁Back	-6438
▁ANI	-6439
▁Apart	-6440
▁acts	-6441
▁thinking	-6442
asi	-6443
▁1981	-6444
▁Stan	-6445
▁Family	-6446
▁Students	-6447
▁reaching	-6448
ylvan	-6449
▁genus	-6450
▁determined	-6451
▁Scottish	-6452
▁democracy	-6453
▁SE	-6454
▁ends	-6455
▁platforms	-6456
▁duo	-6457
▁Hung	-6458
mann	-6459
▁III	-6460
ronze	-6461
▁Captain	-6462
PC	-6463
irt	-6464
▁Ir	-6465
▁talent	-6466
▁permission	-6467
▁ast	-6468
▁Cult	-6469
▁knock	-6470
▁Banerjee	-6471
▁correct	-6472
aken	-6473
outs	-6474
▁Latin	-6475
▁terrorist	-6476
osite	-6477
▁expansion	-6478
▁Watch	-6479
▁Legisl	-6480
▁remark	-6481
▁reserv	-6482
▁reading	-6483
▁ly	-6484
▁load	-6485
▁afford	-6486
▁Empire	-6487
▁balance	-6488
rations	-6489
▁chemical	-6490
▁foundation	-6491
noon	-6492
▁vul	-6493
▁draft	-6494
▁Christmas	-6495
eries	-6496
▁abroad	-6497
40	-6498
▁mode	-6499
▁joining	-6500
11	-6501
arant	-6502
▁resulting	-6503
amber	-6504
ocated	-6505
▁truth	-6506
▁fer	-6507
ommod	-6508
rig	-6509
▁Vin	-6510
▁Malays	-6511
▁rein	-6512
▁History	-6513
▁Rod	-6514
▁Bost	-6515
▁guitar	-6516
▁vision	-6517
cers	-6518
▁vess	-6519
▁Conf	-6520
▁edge	-6521
▁prompt	-6522
▁changing	-6523
▁Nav	-6524
▁variant	-6525
▁agriculture	-6526
▁conven	-6527
▁Francisco	-6528
▁Form	-6529
▁rescue	-6530
iro	-6531
▁Ox	-6532
▁promised	-6533
jan	-6534
▁medium	-6535
▁Kann	-6536
▁taught	-6537
▁finding	-6538
kh	-6539
▁calc	-6540
▁Prote	-6541
▁recover	-6542
▁nut	-6543
▁batting	-6544
▁Front	-6545
▁Jh	-6546
▁handed	-6547
▁Georgia	-6548
▁Personal	-6549
▁recommended	-6550
▁window	-6551
▁Free	-6552
▁experienced	-6553
▁organisations	-6554
pta	-6555
▁quant	-6556
▁Edward	-6557
▁greatest	-6558
eria	-6559
▁Hard	-6560
▁Executive	-6561
▁scientists	-6562
▁Supp	-6563
▁Cabinet	-6564
▁narrow	-6565
▁degrees	-6566
osure	-6567
▁Such	-6568
ylvania	-6569
▁Highway	-6570
▁ranked	-6571
▁Mam	-6572
▁accompan	-6573
▁passenger	-6574
▁Sush	-6575
▁struck	-6576
ls	-6577
itled	-6578
▁statements	-6579
▁vaccines	-6580
▁EC	-6581
▁Sah	-6582
▁mal	-6583
▁1976	-6584
▁Conn	-6585
▁appointment	-6586
▁Theatre	-6587
▁condem	-6588
▁Israeli	-6589
▁closely	-6590
▁supposed	-6591
▁footballer	-6592
▁Id	-6593
▁values	-6594
▁outbreak	-6595
cript	-6596
▁possibility	-6597
▁ble	-6598
overty	-6599
▁ending	-6600
▁defense	-6601
▁shape	-6602
▁purchased	-6603
21	-6604
▁onto	-6605
▁courts	-6606
▁independence	-6607
▁aged	-6608
▁prove	-6609
▁update	-6610
▁behavi	-6611
ortheast	-6612
▁accommod	-6613
▁Stat	-6614
▁expanded	-6615
look	-6616
▁phones	-6617
▁Ari	-6618
cknow	-6619
▁Route	-6620
▁surprise	-6621
▁putting	-6622
iable	-6623
atever	-6624
▁1974	-6625
▁combat	-6626
▁incidents	-6627
ye	-6628
▁incorpor	-6629
▁1978	-6630
▁inspir	-6631
▁Week	-6632
▁graduated	-6633
eral	-6634
▁Ohio	-6635
▁voted	-6636
uster	-6637
▁circumst	-6638
▁instrument	-6639
▁hopes	-6640
▁instance	-6641
▁Brad	-6642
▁Jackson	-6643
▁Dig	-6644
cription	-6645
ilateral	-6646
bu	-6647
▁Game	-6648
▁Work	-6649
▁fixed	-6650
▁Farm	-6651
▁Due	-6652
▁shi	-6653
▁Prasad	-6654
▁proud	-6655
▁penalty	-6656
▁certainly	-6657
▁Code	-6658
▁Journal	-6659
essed	-6660
▁trend	-6661
▁Boston	-6662
▁51	-6663
agers	-6664
▁Transport	-6665
▁transform	-6666
irms	-6667
▁van	-6668
▁banned	-6669
ET	-6670
▁Six	-6671
▁Girl	-6672
▁regist	-6673
▁performing	-6674
▁reviews	-6675
▁Lew	-6676
▁definitely	-6677
Americ	-6678
uses	-6679
▁flo	-6680
▁dangerous	-6681
▁god	-6682
▁indu	-6683
▁soul	-6684
▁10,000	-6685
▁stadium	-6686
water	-6687
▁MLAs	-6688
▁critics	-6689
▁interp	-6690
▁reference	-6691
▁kg	-6692
▁Clin	-6693
▁dress	-6694
▁1930	-6695
▁height	-6696
▁unl	-6697
▁seed	-6698
▁Lo	-6699
▁portray	-6700
bal	-6701
▁CA	-6702
▁Bell	-6703
▁losses	-6704
▁Food	-6705
▁principal	-6706
▁CS	-6707
▁flat	-6708
iat	-6709
▁damaged	-6710
▁convention	-6711
bor	-6712
illy	-6713
▁spring	-6714
▁substant	-6715
▁plot	-6716
▁thanks	-6717
▁kilomet	-6718
▁matters	-6719
pers	-6720
▁Mic	-6721
▁rape	-6722
IP	-6723
town	-6724
where	-6725
▁representatives	-6726
▁Pa	-6727
▁celebrate	-6728
▁relatively	-6729
ova	-6730
▁afternoon	-6731
▁confident	-6732
athy	-6733
rence	-6734
▁facilit	-6735
.30	-6736
mosp	-6737
▁Rog	-6738
▁eat	-6739
▁yards	-6740
raine	-6741
▁controversy	-6742
▁sole	-6743
▁interact	-6744
▁demanding	-6745
stone	-6746
▁remove	-6747
▁voting	-6748
rang	-6749
abilities	-6750
▁som	-6751
▁fiscal	-6752
▁insurance	-6753
▁imposed	-6754
▁slightly	-6755
iga	-6756
▁commitment	-6757
▁acknow	-6758
▁missed	-6759
▁certific	-6760
▁secondary	-6761
alam	-6762
▁Penns	-6763
achel	-6764
▁cinema	-6765
▁uncle	-6766
▁bowling	-6767
▁attempted	-6768
ugby	-6769
▁Tir	-6770
▁Sn	-6771
▁RBI	-6772
ewhere	-6773
▁Kn	-6774
▁symptoms	-6775
ching	-6776
uties	-6777
▁causes	-6778
▁600	-6779
enses	-6780
▁1940	-6781
charge	-6782
▁nominated	-6783
▁installed	-6784
anning	-6785
earing	-6786
▁seconds	-6787
▁54	-6788
▁Circ	-6789
▁reop	-6790
▁Credit	-6791
▁Gov	-6792
▁1973	-6793
▁Mike	-6794
▁Dhaka	-6795
▁metres	-6796
▁Little	-6797
▁Mit	-6798
▁heads	-6799
▁Reserve	-6800
▁coalition	-6801
bi	-6802
ansas	-6803
point	-6804
▁wake	-6805
▁corporate	-6806
▁mos	-6807
umber	-6808
iture	-6809
▁Down	-6810
▁Priy	-6811
▁pretty	-6812
▁busy	-6813
▁couldn	-6814
▁harass	-6815
▁chain	-6816
▁recognition	-6817
▁finance	-6818
raj	-6819
▁1968	-6820
▁iPhone	-6821
▁Agricult	-6822
▁watching	-6823
▁threatened	-6824
▁Rav	-6825
▁lod	-6826
▁1920	-6827
▁significantly	-6828
▁Meh	-6829
▁Sid	-6830
▁Minn	-6831
▁entrance	-6832
▁Niger	-6833
▁adapt	-6834
▁terrorism	-6835
▁Any	-6836
chi	-6837
▁shops	-6838
una	-6839
▁fired	-6840
▁methods	-6841
iments	-6842
▁explain	-6843
▁56	-6844
▁util	-6845
▁promotion	-6846
umes	-6847
erted	-6848
▁Rang	-6849
assador	-6850
▁consecutive	-6851
▁broken	-6852
▁involving	-6853
▁fee	-6854
▁1977	-6855
▁teen	-6856
ieuten	-6857
▁argued	-6858
rency	-6859
▁Section	-6860
appa	-6861
▁false	-6862
▁premi	-6863
▁custody	-6864
▁literature	-6865
▁dim	-6866
▁bright	-6867
jri	-6868
▁Jam	-6869
stream	-6870
ophy	-6871
▁Alexander	-6872
▁trained	-6873
▁declined	-6874
OC	-6875
▁Pennsylvania	-6876
ON	-6877
burgh	-6878
ifically	-6879
▁heavily	-6880
▁Space	-6881
▁faces	-6882
▁Milit	-6883
▁blast	-6884
▁diagn	-6885
▁scenes	-6886
▁Engineering	-6887
▁electricity	-6888
coh	-6889
▁Abb	-6890
▁Put	-6891
ullah	-6892
▁photos	-6893
rats	-6894
▁peak	-6895
▁terrorists	-6896
▁ties	-6897
▁pitch	-6898
▁yellow	-6899
▁Madrid	-6900
ato	-6901
▁contributed	-6902
▁compar	-6903
▁nob	-6904
ighters	-6905
MS	-6906
▁Cra	-6907
▁viral	-6908
▁gender	-6909
▁1967	-6910
▁fulf	-6911
▁distinct	-6912
azi	-6913
▁abuse	-6914
▁schemes	-6915
▁Hollywood	-6916
▁Master	-6917
▁opposite	-6918
▁combination	-6919
-17	-6920
▁struggle	-6921
mal	-6922
▁BS	-6923
▁Thir	-6924
▁wonder	-6925
▁rid	-6926
▁dates	-6927
▁parish	-6928
bourne	-6929
▁contrast	-6930
▁tight	-6931
▁Similar	-6932
▁Ins	-6933
ections	-6934
ksh	-6935
▁Nic	-6936
jriwal	-6937
▁typically	-6938
▁Born	-6939
▁strategic	-6940
▁retirement	-6941
ulpt	-6942
▁Order	-6943
▁Bharati	-6944
▁Get	-6945
▁swe	-6946
▁subsequent	-6947
acc	-6948
▁Sha	-6949
▁judg	-6950
▁absence	-6951
▁settled	-6952
▁possibly	-6953
RI	-6954
antry	-6955
15	-6956
▁53	-6957
▁Cop	-6958
▁signs	-6959
▁filled	-6960
▁Jr	-6961
▁AAP	-6962
▁participants	-6963
▁cart	-6964
Ind	-6965
▁provision	-6966
▁accompanied	-6967
▁vulner	-6968
▁Bol	-6969
▁Rights	-6970
▁respective	-6971
▁PS	-6972
▁Jeff	-6973
▁shortly	-6974
nda	-6975
▁Kenn	-6976
▁Saf	-6977
▁1969	-6978
▁giant	-6979
▁dismissed	-6980
▁Ast	-6981
▁id	-6982
▁decre	-6983
▁chose	-6984
certain	-6985
▁Mission	-6986
ecess	-6987
▁adds	-6988
▁notable	-6989
▁assigned	-6990
ashi	-6991
▁fake	-6992
▁hur	-6993
▁implemented	-6994
asa	-6995
ighth	-6996
▁witnessed	-6997
▁recognized	-6998
▁letters	-6999
▁Sus	-7000
▁Liver	-7001
▁payment	-7002
▁attrib	-7003
▁bottom	-7004
▁graph	-7005
▁Sciences	-7006
▁Kejriwal	-7007
▁deployed	-7008
▁Children	-7009
can	-7010
▁diet	-7011
▁1.5	-7012
▁commonly	-7013
adel	-7014
▁YouT	-7015
▁honour	-7016
▁identify	-7017
▁regularly	-7018
hus	-7019
▁Rome	-7020
▁ticket	-7021
▁franchise	-7022
▁universities	-7023
▁none	-7024
▁suggests	-7025
cend	-7026
▁AF	-7027
▁End	-7028
▁provin	-7029
▁57	-7030
▁Ky	-7031
▁exhibition	-7032
▁appropriate	-7033
▁serves	-7034
▁Bridge	-7035
sea	-7036
▁Song	-7037
▁Talk	-7038
▁considering	-7039
▁unknown	-7040
rane	-7041
icious	-7042
▁crack	-7043
▁loved	-7044
▁atmosp	-7045
▁steel	-7046
ieutenant	-7047
oi	-7048
▁1945	-7049
▁effic	-7050
▁Golden	-7051
▁junior	-7052
▁collaboration	-7053
eeper	-7054
▁sons	-7055
▁millions	-7056
▁controversial	-7057
▁mort	-7058
▁seized	-7059
▁agricultural	-7060
aded	-7061
aste	-7062
ixel	-7063
▁Vish	-7064
▁debt	-7065
▁Li	-7066
▁Dun	-7067
ropical	-7068
▁champions	-7069
gl	-7070
▁decor	-7071
▁contemporary	-7072
▁Berlin	-7073
▁handle	-7074
▁representing	-7075
▁Ep	-7076
▁Care	-7077
▁sugar	-7078
▁pollution	-7079
▁institution	-7080
▁Steve	-7081
▁flights	-7082
▁segment	-7083
▁belief	-7084
▁1964	-7085
▁poverty	-7086
▁trading	-7087
▁eligible	-7088
▁neighbor	-7089
▁00	-7090
chang	-7091
▁politicians	-7092
▁excess	-7093
vin	-7094
▁suit	-7095
▁grounds	-7096
▁Eliz	-7097
▁walls	-7098
▁discipl	-7099
PS	-7100
▁context	-7101
▁detailed	-7102
▁tor	-7103
▁Night	-7104
▁relevant	-7105
▁strongly	-7106
▁Abh	-7107
▁Shi	-7108
ups	-7109
▁boat	-7110
▁contribution	-7111
-10	-7112
oty	-7113
▁solo	-7114
▁affili	-7115
▁Gur	-7116
peror	-7117
▁Victoria	-7118
▁download	-7119
ez	-7120
▁balls	-7121
▁element	-7122
▁Fox	-7123
olved	-7124
▁circumstances	-7125
▁pieces	-7126
▁legislation	-7127
▁diseases	-7128
▁exams	-7129
▁Taylor	-7130
▁papers	-7131
▁complic	-7132
uz	-7133
▁plea	-7134
▁Current	-7135
▁Da	-7136
▁Lef	-7137
▁brings	-7138
▁mechanism	-7139
akar	-7140
▁journalists	-7141
▁summit	-7142
▁reaction	-7143
iya	-7144
▁Bern	-7145
▁shift	-7146
▁highway	-7147
dict	-7148
▁Temple	-7149
▁actual	-7150
▁motion	-7151
▁differences	-7152
lu	-7153
▁mm	-7154
stein	-7155
▁portion	-7156
▁Akh	-7157
abeth	-7158
▁decline	-7159
nan	-7160
eman	-7161
▁ultimately	-7162
▁Bomb	-7163
▁elder	-7164
▁protesters	-7165
▁resort	-7166
17	-7167
▁Way	-7168
▁Sep	-7169
▁obv	-7170
▁Warn	-7171
▁Instead	-7172
▁arrival	-7173
▁qualified	-7174
▁pilot	-7175
▁mining	-7176
outheast	-7177
▁requires	-7178
eli	-7179
aved	-7180
othing	-7181
▁Jersey	-7182
▁Rom	-7183
▁Field	-7184
▁Ren	-7185
reprene	-7186
▁Command	-7187
▁Yes	-7188
▁tank	-7189
▁tea	-7190
▁Avenue	-7191
▁submit	-7192
▁HD	-7193
hana	-7194
ione	-7195
AE	-7196
▁Prot	-7197
▁Adv	-7198
▁Qual	-7199
▁welfare	-7200
▁ethnic	-7201
▁Mess	-7202
▁bear	-7203
▁escape	-7204
▁advised	-7205
▁practices	-7206
IV	-7207
thi	-7208
▁Live	-7209
▁Dhoni	-7210
▁Columbia	-7211
▁rub	-7212
uction	-7213
▁turns	-7214
▁bronze	-7215
▁loans	-7216
▁Brook	-7217
▁episodes	-7218
▁Athlet	-7219
▁electoral	-7220
aman	-7221
atra	-7222
▁races	-7223
▁designated	-7224
ocol	-7225
▁compete	-7226
▁Mi	-7227
▁drawn	-7228
▁painting	-7229
▁beauty	-7230
▁satell	-7231
hatt	-7232
owed	-7233
▁pool	-7234
▁capable	-7235
▁Luck	-7236
▁seemed	-7237
▁stores	-7238
iform	-7239
▁Princ	-7240
iser	-7241
▁1965	-7242
▁Plan	-7243
▁doubt	-7244
▁mayor	-7245
▁operate	-7246
▁Administration	-7247
ogan	-7248
▁Him	-7249
▁tie	-7250
▁inhab	-7251
▁revolution	-7252
soft	-7253
▁cul	-7254
apse	-7255
▁otherwise	-7256
▁Assist	-7257
▁participation	-7258
▁roof	-7259
▁stating	-7260
▁extension	-7261
pton	-7262
▁CPI	-7263
mates	-7264
▁finds	-7265
▁willing	-7266
kin	-7267
▁copy	-7268
▁Youth	-7269
▁Liverpool	-7270
▁Gi	-7271
ilty	-7272
▁functions	-7273
ón	-7274
box	-7275
cious	-7276
▁factory	-7277
▁Environment	-7278
▁sty	-7279
▁Nether	-7280
sters	-7281
▁prepare	-7282
▁frequently	-7283
ori	-7284
▁Po	-7285
▁royal	-7286
▁batsman	-7287
▁restaurant	-7288
▁requirements	-7289
▁vo	-7290
▁Thus	-7291
▁agree	-7292
▁consumers	-7293
▁Nat	-7294
▁profit	-7295
▁favourite	-7296
EL	-7297
rete	-7298
wick	-7299
▁ICC	-7300
▁towns	-7301
▁Tar	-7302
kash	-7303
▁Pass	-7304
▁pull	-7305
▁fraud	-7306
▁Turkish	-7307
aga	-7308
sey	-7309
▁FIR	-7310
▁lov	-7311
▁Ocean	-7312
▁valid	-7313
abet	-7314
▁Corn	-7315
andal	-7316
lease	-7317
▁knows	-7318
ropolitan	-7319
▁raising	-7320
▁tourism	-7321
itzer	-7322
usted	-7323
▁buses	-7324
▁Polish	-7325
▁Nit	-7326
▁plane	-7327
▁toward	-7328
▁Iranian	-7329
▁aspects	-7330
▁Harry	-7331
eras	-7332
▁Shri	-7333
▁females	-7334
onn	-7335
▁demol	-7336
▁Madhya	-7337
▁starring	-7338
▁milk	-7339
▁Metro	-7340
ca	-7341
▁250	-7342
▁Lady	-7343
▁surge	-7344
▁illust	-7345
▁lect	-7346
▁punish	-7347
▁concert	-7348
▁turning	-7349
▁medicine	-7350
▁appreci	-7351
-16	-7352
alling	-7353
▁shr	-7354
▁Coll	-7355
▁72	-7356
▁Aad	-7357
▁cycl	-7358
▁Barcel	-7359
▁symbol	-7360
▁drivers	-7361
▁Sena	-7362
▁120	-7363
▁representative	-7364
▁NG	-7365
▁links	-7366
▁volume	-7367
▁library	-7368
ipper	-7369
▁sculpt	-7370
▁extensive	-7371
▁stun	-7372
▁happens	-7373
▁involvement	-7374
▁Set	-7375
▁unve	-7376
▁extent	-7377
▁resigned	-7378
▁entertainment	-7379
▁unc	-7380
▁agent	-7381
▁Univers	-7382
▁exactly	-7383
▁entering	-7384
clusion	-7385
▁Oxford	-7386
hemat	-7387
▁Marsh	-7388
▁buried	-7389
▁venue	-7390
▁tur	-7391
▁conspir	-7392
▁ham	-7393
▁Kings	-7394
uration	-7395
▁flying	-7396
RO	-7397
▁gram	-7398
▁crores	-7399
▁claiming	-7400
▁182	-7401
eller	-7402
▁Chap	-7403
▁antic	-7404
▁column	-7405
▁egg	-7406
rating	-7407
▁behaviour	-7408
▁motiv	-7409
▁showc	-7410
▁continuing	-7411
estyle	-7412
▁Ukraine	-7413
▁stayed	-7414
▁experiences	-7415
CCI	-7416
▁Hor	-7417
▁Tan	-7418
▁Pers	-7419
▁falling	-7420
▁dual	-7421
▁guarant	-7422
▁questioned	-7423
onto	-7424
▁crimes	-7425
▁versions	-7426
liest	-7427
▁drum	-7428
▁tourists	-7429
▁distributed	-7430
▁Nik	-7431
▁surgery	-7432
▁formerly	-7433
▁Serb	-7434
▁Dubai	-7435
▁pushed	-7436
▁renamed	-7437
▁tag	-7438
holders	-7439
▁besides	-7440
▁Mys	-7441
▁Corps	-7442
▁AD	-7443
▁garden	-7444
▁Islands	-7445
▁tot	-7446
▁Note	-7447
▁soil	-7448
▁oldest	-7449
ifications	-7450
▁approached	-7451
14	-7452
▁publish	-7453
▁winners	-7454
▁Economic	-7455
asy	-7456
▁remarks	-7457
▁Microsoft	-7458
ture	-7459
▁Revolution	-7460
70	-7461
▁YouTube	-7462
▁suspected	-7463
▁Les	-7464
▁rounds	-7465
▁Community	-7466
▁CN	-7467
▁virtual	-7468
ails	-7469
▁eval	-7470
ashes	-7471
▁moder	-7472
▁export	-7473
▁admission	-7474
▁producing	-7475
▁Han	-7476
▁1966	-7477
▁tied	-7478
▁prize	-7479
▁makers	-7480
▁Barcelona	-7481
▁coverage	-7482
▁Therefore	-7483
▁commander	-7484
▁Luc	-7485
▁healthcare	-7486
▁inspe	-7487
▁swim	-7488
▁alcoh	-7489
▁rooms	-7490
▁pulled	-7491
▁defined	-7492
▁establishment	-7493
▁Die	-7494
▁tall	-7495
rives	-7496
▁Left	-7497
▁Sanjay	-7498
▁welcome	-7499
▁59	-7500
asion	-7501
▁postp	-7502
▁transition	-7503
▁nurs	-7504
lected	-7505
▁caste	-7506
▁entirely	-7507
▁priority	-7508
▁construct	-7509
▁departments	-7510
▁adopt	-7511
▁consumer	-7512
rut	-7513
▁62	-7514
▁Ta	-7515
▁hat	-7516
ellor	-7517
▁arts	-7518
▁accur	-7519
▁sad	-7520
▁situated	-7521
16	-7522
▁ST	-7523
▁soc	-7524
▁Indies	-7525
▁Taiwan	-7526
▁ped	-7527
▁manage	-7528
▁66	-7529
▁Five	-7530
unting	-7531
▁channels	-7532
▁Having	-7533
▁inquiry	-7534
▁SR	-7535
utation	-7536
▁determine	-7537
▁activist	-7538
▁excellent	-7539
ishe	-7540
ographer	-7541
▁hosts	-7542
▁Pur	-7543
▁Mill	-7544
▁waters	-7545
▁confirm	-7546
▁employed	-7547
▁surve	-7548
▁amaz	-7549
itarian	-7550
▁See	-7551
▁jur	-7552
rates	-7553
utely	-7554
ambig	-7555
▁Chel	-7556
▁complaints	-7557
asty	-7558
▁publication	-7559
▁Der	-7560
▁die	-7561
▁1962	-7562
▁advice	-7563
▁Network	-7564
inson	-7565
▁scores	-7566
▁Ant	-7567
▁birds	-7568
▁doses	-7569
▁solar	-7570
state	-7571
▁returns	-7572
▁targeted	-7573
▁militants	-7574
SR	-7575
-12	-7576
▁plastic	-7577
▁Ott	-7578
▁Fair	-7579
▁index	-7580
▁Netherlands	-7581
▁Chann	-7582
▁veteran	-7583
▁pu	-7584
▁Cooper	-7585
▁warning	-7586
akk	-7587
▁Light	-7588
▁Capital	-7589
▁tomorrow	-7590
▁parliamentary	-7591
▁rot	-7592
▁Rohit	-7593
▁analyst	-7594
▁chances	-7595
▁cancelled	-7596
agan	-7597
▁phen	-7598
▁begun	-7599
▁stages	-7600
▁roughly	-7601
▁marketing	-7602
etts	-7603
ether	-7604
▁hits	-7605
▁hockey	-7606
▁Bharatiya	-7607
▁emotional	-7608
▁succeeded	-7609
▁structures	-7610
ading	-7611
▁Anth	-7612
▁Stephen	-7613
▁intention	-7614
▁Mayor	-7615
▁Mohan	-7616
▁Creek	-7617
▁tennis	-7618
▁camps	-7619
▁centuries	-7620
athered	-7621
▁industries	-7622
▁gri	-7623
▁judges	-7624
igade	-7625
▁Ball	-7626
igious	-7627
fire	-7628
utor	-7629
▁Sav	-7630
▁cycle	-7631
▁median	-7632
▁minority	-7633
ho	-7634
▁Staff	-7635
▁react	-7636
uations	-7637
▁sectors	-7638
▁challenging	-7639
aki	-7640
▁Ku	-7641
▁Chall	-7642
▁electronic	-7643
-15	-7644
ahar	-7645
▁Nick	-7646
▁Wrest	-7647
roll	-7648
▁rice	-7649
▁map	-7650
▁Boss	-7651
▁1948	-7652
▁refere	-7653
▁Energy	-7654
▁Jes	-7655
achal	-7656
▁58	-7657
▁Rab	-7658
▁temporary	-7659
▁gap	-7660
▁Tata	-7661
▁thick	-7662
inth	-7663
▁Gupta	-7664
Ch	-7665
▁Myan	-7666
▁guilty	-7667
▁Military	-7668
▁Communist	-7669
charg	-7670
utt	-7671
▁Vide	-7672
▁shots	-7673
▁surre	-7674
tenance	-7675
▁Cub	-7676
rolled	-7677
▁Vietnam	-7678
▁compensation	-7679
▁premises	-7680
▁85	-7681
igenous	-7682
▁percentage	-7683
▁apps	-7684
oked	-7685
▁1944	-7686
▁1947	-7687
▁Bishop	-7688
American	-7689
▁whereas	-7690
▁effectively	-7691
▁specifically	-7692
▁reign	-7693
▁recruit	-7694
▁encounter	-7695
▁EP	-7696
▁Ever	-7697
▁neither	-7698
▁fundament	-7699
▁Tax	-7700
▁casual	-7701
▁MPs	-7702
▁resistance	-7703
▁Melbourne	-7704
▁addressed	-7705
▁rol	-7706
▁73	-7707
▁grown	-7708
▁trouble	-7709
▁attached	-7710
uma	-7711
▁NAS	-7712
▁drinking	-7713
▁Gan	-7714
▁competitive	-7715
acked	-7716
▁Sweden	-7717
▁dispute	-7718
▁converted	-7719
arya	-7720
▁htt	-7721
▁Color	-7722
▁smooth	-7723
▁Elizabeth	-7724
atar	-7725
urers	-7726
▁Whe	-7727
▁Imp	-7728
▁Pict	-7729
▁provisions	-7730
▁increasingly	-7731
▁stick	-7732
▁sessions	-7733
garh	-7734
▁discussions	-7735
▁registration	-7736
aidu	-7737
comm	-7738
▁Anand	-7739
▁Memorial	-7740
HA	-7741
atically	-7742
▁Priyanka	-7743
rapy	-7744
▁Toronto	-7745
achus	-7746
▁myself	-7747
▁announce	-7748
▁infections	-7749
▁likes	-7750
thur	-7751
igarh	-7752
▁praised	-7753
BS	-7754
oyal	-7755
▁fruit	-7756
▁Myanmar	-7757
▁Sche	-7758
cles	-7759
▁moves	-7760
▁paying	-7761
▁occupied	-7762
St	-7763
▁Jean	-7764
▁diam	-7765
▁prohib	-7766
▁existence	-7767
▁reforms	-7768
▁179	-7769
▁mel	-7770
ician	-7771
rehensive	-7772
▁vital	-7773
▁occasions	-7774
▁Fern	-7775
▁Gree	-7776
▁Virat	-7777
▁Junior	-7778
▁accord	-7779
▁Gr	-7780
▁anticip	-7781
▁illness	-7782
▁Palestin	-7783
▁articles	-7784
EC	-7785
▁Short	-7786
▁audio	-7787
▁creative	-7788
▁Ki	-7789
▁covers	-7790
iques	-7791
ss	-7792
▁Hay	-7793
eties	-7794
▁Crit	-7795
▁lake	-7796
▁dece	-7797
aughters	-7798
▁package	-7799
▁heritage	-7800
bing	-7801
gers	-7802
ework	-7803
▁subjects	-7804
pay	-7805
▁Ravi	-7806
▁snow	-7807
▁happening	-7808
▁auth	-7809
▁Image	-7810
▁closer	-7811
month	-7812
▁violent	-7813
▁protected	-7814
cha	-7815
vard	-7816
▁NFL	-7817
organ	-7818
onda	-7819
▁passes	-7820
▁welcom	-7821
▁disambig	-7822
▁Municipal	-7823
omer	-7824
wealth	-7825
▁Local	-7826
▁carbon	-7827
▁signing	-7828
ivic	-7829
isition	-7830
rows	-7831
▁gall	-7832
▁unus	-7833
encing	-7834
▁polling	-7835
▁1963	-7836
awn	-7837
▁disambiguation	-7838
▁diesel	-7839
▁athletes	-7840
ortunately	-7841
intendent	-7842
▁messages	-7843
▁controlled	-7844
perial	-7845
▁Stock	-7846
▁masks	-7847
▁coastal	-7848
▁disaster	-7849
▁sufficient	-7850
asw	-7851
employ	-7852
▁dialogue	-7853
13	-7854
onet	-7855
onia	-7856
▁guns	-7857
▁ward	-7858
▁protein	-7859
▁Rash	-7860
▁Sach	-7861
▁Aud	-7862
▁Ford	-7863
▁Marg	-7864
▁rating	-7865
▁sending	-7866
▁residential	-7867
▁Heart	-7868
▁Refer	-7869
▁assured	-7870
▁celebrations	-7871
omi	-7872
uts	-7873
ache	-7874
inois	-7875
▁recip	-7876
▁detect	-7877
▁Swedish	-7878
▁Where	-7879
▁gathering	-7880
In	-7881
▁Sad	-7882
▁margin	-7883
▁neighborhood	-7884
▁IM	-7885
▁travelling	-7886
▁74	-7887
▁Citiz	-7888
▁Lewis	-7889
▁memor	-7890
▁seventh	-7891
achusetts	-7892
▁gathered	-7893
▁seriously	-7894
▁impressive	-7895
▁Rat	-7896
▁firms	-7897
▁holiday	-7898
▁99	-7899
ania	-7900
▁fill	-7901
▁vocal	-7902
key	-7903
▁Syrian	-7904
▁jew	-7905
▁proc	-7906
▁vast	-7907
▁crash	-7908
▁hence	-7909
▁advent	-7910
▁twenty	-7911
▁Massachusetts	-7912
rical	-7913
▁1961	-7914
RP	-7915
▁aw	-7916
▁Kel	-7917
▁Rural	-7918
door	-7919
▁UNI	-7920
member	-7921
▁convin	-7922
▁humans	-7923
▁finishing	-7924
▁Arm	-7925
▁atmosphere	-7926
▁popularity	-7927
asure	-7928
eding	-7929
uddin	-7930
▁density	-7931
avior	-7932
chayat	-7933
▁Design	-7934
▁67	-7935
▁relax	-7936
elve	-7937
▁bigger	-7938
▁nomination	-7939
▁voc	-7940
ossible	-7941
▁responded	-7942
▁constitution	-7943
▁explo	-7944
▁belonging	-7945
▁Sher	-7946
▁Wilson	-7947
▁shifted	-7948
▁distingu	-7949
▁singing	-7950
di	-7951
▁Sang	-7952
▁horse	-7953
▁telling	-7954
▁monitoring	-7955
turn	-7956
▁Final	-7957
▁duties	-7958
▁dollars	-7959
▁Moreover	-7960
finals	-7961
▁equival	-7962
▁excited	-7963
ario	-7964
yers	-7965
▁coff	-7966
▁Illinois	-7967
oking	-7968
▁mask	-7969
▁solutions	-7970
ER	-7971
▁aims	-7972
▁fant	-7973
▁Hotel	-7974
▁grass	-7975
▁trials	-7976
▁borders	-7977
▁Amar	-7978
▁Rand	-7979
▁Market	-7980
▁encourage	-7981
rome	-7982
▁Actor	-7983
▁infected	-7984
▁expensive	-7985
▁entreprene	-7986
-21	-7987
▁68	-7988
▁Maj	-7989
▁1956	-7990
▁surf	-7991
▁mouth	-7992
▁farmer	-7993
▁Register	-7994
▁managing	-7995
▁initiated	-7996
▁administer	-7997
▁Walk	-7998
▁Region	-7999
ohan	-8000
▁Naidu	-8001
AL	-8002
election	-8003
soon	-8004
▁rupe	-8005
▁extreme	-8006
▁bom	-8007
▁documentary	-8008
▁evac	-8009
▁cited	-8010
▁behalf	-8011
▁accompl	-8012
▁aspir	-8013
▁Queens	-8014
▁Baj	-8015
▁Hou	-8016
▁rainfall	-8017
▁consumption	-8018
▁Bru	-8019
▁neck	-8020
▁Motor	-8021
lete	-8022
▁Patna	-8023
▁discrim	-8024
▁acknowled	-8025
fe	-8026
phia	-8027
▁sharp	-8028
▁directors	-8029
indra	-8030
▁monu	-8031
▁Anna	-8032
▁Prab	-8033
▁Commonwealth	-8034
▁architecture	-8035
riff	-8036
eg	-8037
▁secured	-8038
▁Political	-8039
▁sed	-8040
▁engineer	-8041
▁containing	-8042
▁Prize	-8043
▁cameras	-8044
▁Take	-8045
▁hung	-8046
▁Lib	-8047
▁Regional	-8048
▁whatever	-8049
▁Orig	-8050
inating	-8051
issions	-8052
▁Mountain	-8053
▁relatives	-8054
▁BCCI	-8055
▁Article	-8056
▁threats	-8057
▁studying	-8058
▁plus	-8059
▁worker	-8060
▁Brother	-8061
▁samples	-8062
▁aer	-8063
▁hyp	-8064
▁learned	-8065
▁yourself	-8066
▁Dri	-8067
▁Clark	-8068
cts	-8069
▁fab	-8070
▁enthus	-8071
▁Duke	-8072
▁stable	-8073
▁Atlantic	-8074
▁conversation	-8075
▁Gil	-8076
pread	-8077
▁passion	-8078
▁powered	-8079
▁Indonesia	-8080
ocrats	-8081
▁Again	-8082
▁Around	-8083
▁offensive	-8084
▁colleagues	-8085
▁Base	-8086
▁exit	-8087
rivals	-8088
▁Mohammad	-8089
▁supplies	-8090
laim	-8091
▁Norm	-8092
▁falls	-8093
▁Jord	-8094
▁Malaysia	-8095
▁Poll	-8096
App	-8097
ourse	-8098
▁agenda	-8099
adelphia	-8100
▁Between	-8101
DF	-8102
awar	-8103
idden	-8104
▁promise	-8105
▁useful	-8106
▁males	-8107
▁Arabia	-8108
▁moments	-8109
▁entitled	-8110
▁completion	-8111
▁Dil	-8112
▁Fle	-8113
▁walking	-8114
▁Communic	-8115
▁disappoin	-8116
▁playoff	-8117
▁Alliance	-8118
▁Aam	-8119
▁exped	-8120
▁Om	-8121
inity	-8122
▁acid	-8123
▁uncertain	-8124
roc	-8125
atur	-8126
apped	-8127
▁limits	-8128
asan	-8129
eing	-8130
▁Mish	-8131
▁possession	-8132
free	-8133
iece	-8134
▁NBA	-8135
▁pip	-8136
▁hurt	-8137
▁brill	-8138
alion	-8139
▁transp	-8140
▁Studies	-8141
▁childhood	-8142
▁AS	-8143
▁folk	-8144
▁beach	-8145
▁worksh	-8146
▁spotted	-8147
▁Philadelphia	-8148
▁Sky	-8149
etary	-8150
▁displ	-8151
col	-8152
▁Ts	-8153
▁truck	-8154
▁usual	-8155
▁Bhatt	-8156
▁easier	-8157
▁Lucknow	-8158
▁constant	-8159
▁sanctions	-8160
▁Entertainment	-8161
worth	-8162
▁Anil	-8163
▁tower	-8164
▁allies	-8165
▁desire	-8166
▁landsc	-8167
US	-8168
▁wides	-8169
ogether	-8170
lyn	-8171
ingham	-8172
▁verdict	-8173
▁Look	-8174
ques	-8175
heim	-8176
▁Mov	-8177
▁currency	-8178
▁clothes	-8179
▁customer	-8180
▁abandoned	-8181
▁enable	-8182
itha	-8183
▁Davis	-8184
▁1946	-8185
▁Brah	-8186
▁Buddh	-8187
▁Trade	-8188
▁addressing	-8189
▁Hal	-8190
▁Rio	-8191
▁Mall	-8192
ographic	-8193
▁surn	-8194
▁Marc	-8195
ogen	-8196
iples	-8197
▁maintenance	-8198
usal	-8199
▁1942	-8200
century	-8201
▁adults	-8202
EN	-8203
▁Ho	-8204
▁Haz	-8205
▁Hur	-8206
▁Raw	-8207
▁Maria	-8208
▁sweet	-8209
▁banking	-8210
▁Bachchan	-8211
▁comprising	-8212
icate	-8213
▁clash	-8214
▁frame	-8215
▁overseas	-8216
oting	-8217
ielder	-8218
▁Along	-8219
▁ideal	-8220
▁teach	-8221
western	-8222
▁aspect	-8223
iang	-8224
▁Santa	-8225
▁RAM	-8226
▁alive	-8227
▁forget	-8228
▁signal	-8229
▁resolve	-8230
emet	-8231
▁cab	-8232
▁contained	-8233
▁Gun	-8234
cribed	-8235
LC	-8236
▁Sony	-8237
▁bath	-8238
inding	-8239
▁Whats	-8240
▁Prakash	-8241
▁delayed	-8242
▁restric	-8243
inda	-8244
▁findings	-8245
rator	-8246
▁Judge	-8247
▁Medic	-8248
▁venture	-8249
▁sentence	-8250
▁resignation	-8251
Is	-8252
▁Gulf	-8253
▁routes	-8254
▁pure	-8255
▁tail	-8256
▁zero	-8257
▁Roll	-8258
▁rushed	-8259
▁breaking	-8260
▁covering	-8261
zech	-8262
▁Rajya	-8263
▁Swiss	-8264
▁Speaker	-8265
▁forg	-8266
▁manif	-8267
▁acres	-8268
▁purposes	-8269
▁categories	-8270
unal	-8271
▁Writ	-8272
▁tact	-8273
▁citing	-8274
▁conducting	-8275
▁Pot	-8276
aria	-8277
▁pump	-8278
▁Mamata	-8279
▁Kath	-8280
▁struggling	-8281
rs	-8282
▁63	-8283
olid	-8284
▁Sikh	-8285
▁furn	-8286
▁festiv	-8287
▁vulnerable	-8288
▁mir	-8289
▁expression	-8290
▁capture	-8291
▁1943	-8292
▁stead	-8293
▁visual	-8294
▁Clinton	-8295
▁earliest	-8296
▁quit	-8297
▁crossed	-8298
▁Anderson	-8299
-200	-8300
final	-8301
▁IF	-8302
▁enemy	-8303
▁writers	-8304
▁Gro	-8305
▁1941	-8306
▁forth	-8307
▁Argentina	-8308
▁Assistant	-8309
▁operational	-8310
▁viewers	-8311
vt	-8312
▁Joint	-8313
▁reserve	-8314
▁indicated	-8315
assy	-8316
okes	-8317
▁Pul	-8318
▁Arjun	-8319
▁ratio	-8320
▁spoken	-8321
▁	-8322
owing	-8323
▁buying	-8324
▁exposed	-8325
▁Turn	-8326
▁fled	-8327
▁Additional	-8328
▁introduction	-8329
▁indeed	-8330
▁Abu	-8331
▁Exam	-8332
▁external	-8333
iner	-8334
▁merch	-8335
emetery	-8336
▁classic	-8337
force	-8338
hance	-8339
▁Harris	-8340
ads	-8341
hour	-8342
▁800	-8343
▁Mrs	-8344
▁cup	-8345
▁Chop	-8346
▁Ross	-8347
▁Sain	-8348
ellect	-8349
▁Czech	-8350
▁defensive	-8351
bro	-8352
aret	-8353
▁1949	-8354
▁Area	-8355
endra	-8356
▁Domin	-8357
▁tools	-8358
▁widespread	-8359
reams	-8360
iciency	-8361
▁guests	-8362
aro	-8363
▁ND	-8364
▁Gab	-8365
▁Exper	-8366
aser	-8367
othe	-8368
▁Kaz	-8369
▁Priv	-8370
jection	-8371
▁switch	-8372
▁Philippines	-8373
rators	-8374
▁Bombay	-8375
▁Forces	-8376
▁alcohol	-8377
▁improving	-8378
▁paintings	-8379
otten	-8380
▁Pope	-8381
▁copies	-8382
bec	-8383
▁2.5	-8384
▁Emer	-8385
▁enforcement	-8386
lan	-8387
▁incom	-8388
▁Historic	-8389
▁daughters	-8390
▁negotiations	-8391
▁Bigg	-8392
▁haven	-8393
▁disrupt	-8394
▁1959	-8395
▁cleared	-8396
▁Rh	-8397
▁mart	-8398
▁uniform	-8399
ogy	-8400
▁2,000	-8401
▁Kev	-8402
▁Neh	-8403
▁clim	-8404
▁petrol	-8405
▁arrangements	-8406
▁1957	-8407
ounced	-8408
▁dynam	-8409
ulating	-8410
▁diplomatic	-8411
▁MC	-8412
erving	-8413
▁Cru	-8414
▁asks	-8415
▁brown	-8416
▁SS	-8417
▁Library	-8418
▁friendly	-8419
▁appearing	-8420
▁promoting	-8421
▁proceedings	-8422
▁Right	-8423
▁reduction	-8424
acker	-8425
▁norms	-8426
▁Mohammed	-8427
▁Labor	-8428
▁incred	-8429
▁Holy	-8430
▁reven	-8431
▁interior	-8432
bh	-8433
▁soci	-8434
▁equipped	-8435
▁judicial	-8436
emble	-8437
▁ster	-8438
▁shopping	-8439
▁Raf	-8440
▁breath	-8441
▁enjoyed	-8442
▁Gram	-8443
▁unless	-8444
▁graduate	-8445
GP	-8446
isa	-8447
▁Dra	-8448
▁Adam	-8449
▁Pant	-8450
▁Beach	-8451
▁adequ	-8452
▁truly	-8453
▁depth	-8454
▁phenomen	-8455
CAA	-8456
▁1952	-8457
▁Shan	-8458
▁Abdul	-8459
▁remote	-8460
▁attending	-8461
real	-8462
▁Prior	-8463
▁aired	-8464
▁clinical	-8465
▁celebration	-8466
pm	-8467
▁Colon	-8468
▁worry	-8469
▁driven	-8470
▁welcomed	-8471
▁95	-8472
▁Castle	-8473
▁Country	-8474
▁counsel	-8475
ragon	-8476
▁ease	-8477
▁5,000	-8478
▁thousand	-8479
bell	-8480
▁McG	-8481
▁string	-8482
▁flowers	-8483
resents	-8484
▁behavior	-8485
▁educated	-8486
▁opponents	-8487
ju	-8488
▁trigg	-8489
ouri	-8490
▁poly	-8491
▁thank	-8492
▁Never	-8493
▁faculty	-8494
▁beating	-8495
▁supports	-8496
▁displayed	-8497
▁1958	-8498
▁Adity	-8499
▁inflation	-8500
▁Legislative	-8501
▁Switzer	-8502
▁classical	-8503
▁contributions	-8504
produ	-8505
▁formally	-8506
▁comfortable	-8507
▁fitness	-8508
eta	-8509
▁sight	-8510
▁Candid	-8511
▁Similarly	-8512
▁spiritual	-8513
▁initiatives	-8514
▁Ru	-8515
▁reply	-8516
▁medals	-8517
▁Bush	-8518
▁Happ	-8519
▁backed	-8520
▁dating	-8521
▁Organization	-8522
▁bran	-8523
urches	-8524
▁crown	-8525
▁absolutely	-8526
▁commissioned	-8527
pal	-8528
▁incl	-8529
▁deals	-8530
▁Member	-8531
▁enhance	-8532
▁represents	-8533
▁frag	-8534
▁citizen	-8535
odh	-8536
ndered	-8537
▁amongst	-8538
▁Ell	-8539
▁Web	-8540
▁input	-8541
▁enterpr	-8542
▁boundary	-8543
▁notification	-8544
▁stab	-8545
▁enhan	-8546
▁survived	-8547
▁commissioner	-8548
▁cultiv	-8549
▁conspiracy	-8550
▁Pit	-8551
▁Vas	-8552
▁Territ	-8553
▁transmission	-8554
▁Switzerland	-8555
▁yield	-8556
▁Spring	-8557
▁democratic	-8558
▁Leon	-8559
▁hill	-8560
rition	-8561
▁Peace	-8562
▁immun	-8563
iveness	-8564
▁Square	-8565
▁reception	-8566
▁Crime	-8567
achelor	-8568
▁faster	-8569
▁parking	-8570
▁smartphones	-8571
▁expectations	-8572
oster	-8573
▁1939	-8574
▁keen	-8575
▁Hindus	-8576
▁targets	-8577
apuram	-8578
▁proof	-8579
▁apparently	-8580
ić	-8581
gas	-8582
hua	-8583
▁Daily	-8584
▁doors	-8585
ibilities	-8586
▁cricketer	-8587
do	-8588
▁Sr	-8589
▁Television	-8590
▁unn	-8591
▁1955	-8592
ceived	-8593
▁tries	-8594
▁priest	-8595
▁refugees	-8596
▁sees	-8597
▁Chandra	-8598
99	-8599
▁pled	-8600
▁wire	-8601
aution	-8602
▁gross	-8603
▁employee	-8604
▁Democrats	-8605
Le	-8606
tha	-8607
asts	-8608
▁fleet	-8609
▁procedure	-8610
▁Py	-8611
▁Soon	-8612
amilton	-8613
▁Arthur	-8614
▁amazing	-8615
ito	-8616
thy	-8617
▁Mann	-8618
▁depending	-8619
adow	-8620
▁Run	-8621
ikely	-8622
▁meat	-8623
▁liquid	-8624
▁equivalent	-8625
▁processes	-8626
▁producers	-8627
▁Review	-8628
▁disturb	-8629
▁detained	-8630
▁Channel	-8631
▁acceler	-8632
▁pending	-8633
▁ju	-8634
▁GST	-8635
▁gradu	-8636
▁helic	-8637
▁objective	-8638
▁encouraged	-8639
▁influenced	-8640
▁constitutional	-8641
▁77	-8642
olec	-8643
▁repeatedly	-8644
cho	-8645
▁Du	-8646
called	-8647
▁PP	-8648
beat	-8649
roke	-8650
▁lyrics	-8651
▁paralle	-8652
▁output	-8653
▁baseball	-8654
ifer	-8655
▁spark	-8656
▁Trophy	-8657
▁tonnes	-8658
▁Ent	-8659
▁Key	-8660
▁scam	-8661
▁Associ	-8662
▁lowest	-8663
▁fighter	-8664
abi	-8665
▁Kon	-8666
▁Rub	-8667
▁drew	-8668
▁valley	-8669
▁auction	-8670
▁violation	-8671
▁counterpart	-8672
ocese	-8673
▁surname	-8674
▁Representatives	-8675
▁178	-8676
▁thir	-8677
▁juris	-8678
▁composition	-8679
▁Ut	-8680
▁Burn	-8681
▁tenure	-8682
▁Champion	-8683
father	-8684
▁quarantine	-8685
▁neighbouring	-8686
▁76	-8687
oral	-8688
▁lob	-8689
enged	-8690
▁Move	-8691
▁examples	-8692
▁contribute	-8693
▁divor	-8694
▁booked	-8695
▁retain	-8696
▁concrete	-8697
▁sensitive	-8698
▁Independent	-8699
▁lux	-8700
▁Start	-8701
▁wounded	-8702
▁recalled	-8703
▁romantic	-8704
no	-8705
▁weapon	-8706
▁objects	-8707
▁exclusive	-8708
hedral	-8709
▁Ranj	-8710
ailand	-8711
▁taxes	-8712
▁Jordan	-8713
▁designer	-8714
ruits	-8715
▁suffer	-8716
▁Chelsea	-8717
▁liv	-8718
▁WhatsApp	-8719
pes	-8720
▁mine	-8721
▁Policy	-8722
▁Independence	-8723
Plus	-8724
▁dub	-8725
▁visible	-8726
▁Bhag	-8727
▁Malay	-8728
▁fighters	-8729
▁promises	-8730
▁sustained	-8731
▁technologies	-8732
▁Wels	-8733
▁crop	-8734
aze	-8735
▁Ashok	-8736
▁Mexican	-8737
▁albums	-8738
▁reporting	-8739
pire	-8740
▁Mao	-8741
▁Sel	-8742
▁alt	-8743
ultane	-8744
▁Houston	-8745
▁Windows	-8746
▁Hamilton	-8747
▁ensuring	-8748
after	-8749
▁neut	-8750
▁discl	-8751
▁listen	-8752
▁hired	-8753
▁finals	-8754
▁tribal	-8755
▁Additionally	-8756
reens	-8757
▁Railways	-8758
▁literary	-8759
▁Palace	-8760
▁competitions	-8761
enez	-8762
etime	-8763
▁wheel	-8764
▁intent	-8765
▁Deb	-8766
▁Secret	-8767
▁reducing	-8768
▁Ib	-8769
▁Cook	-8770
aments	-8771
▁familiar	-8772
▁grab	-8773
▁followers	-8774
ema	-8775
▁Batt	-8776
▁Kevin	-8777
▁allot	-8778
▁helicop	-8779
▁satellite	-8780
▁restaurants	-8781
▁Prim	-8782
▁confer	-8783
▁bowlers	-8784
▁dealing	-8785
whel	-8786
▁Arv	-8787
▁Camer	-8788
▁shortage	-8789
▁Nam	-8790
▁UAE	-8791
▁publ	-8792
▁deliber	-8793
▁Amend	-8794
▁saved	-8795
▁worse	-8796
▁Talking	-8797
▁Thailand	-8798
▁Ext	-8799
▁participating	-8800
osa	-8801
▁Barb	-8802
▁drawing	-8803
acks	-8804
▁weekly	-8805
▁impossible	-8806
pat	-8807
▁Ga	-8808
pura	-8809
▁Mobile	-8810
raf	-8811
▁sup	-8812
▁occurs	-8813
▁Kannada	-8814
▁communal	-8815
▁investments	-8816
rell	-8817
▁Moon	-8818
▁mile	-8819
▁Financial	-8820
25	-8821
▁odd	-8822
▁Mishra	-8823
▁brilliant	-8824
▁recognised	-8825
oyd	-8826
wah	-8827
▁Bry	-8828
icking	-8829
▁investigating	-8830
▁Ti	-8831
hess	-8832
▁ing	-8833
▁Building	-8834
opher	-8835
▁acted	-8836
▁tool	-8837
lix	-8838
▁fold	-8839
▁crossing	-8840
zh	-8841
▁Hun	-8842
▁Tony	-8843
▁Tam	-8844
▁Leader	-8845
▁Minnes	-8846
▁Colorado	-8847
▁arranged	-8848
aine	-8849
ishi	-8850
▁Xia	-8851
tical	-8852
▁rains	-8853
▁agents	-8854
▁efficient	-8855
▁prisoners	-8856
stan	-8857
▁techniques	-8858
season	-8859
▁revol	-8860
▁reputation	-8861
▁1954	-8862
▁Hills	-8863
▁replacement	-8864
oys	-8865
▁meters	-8866
oa	-8867
omot	-8868
otal	-8869
▁vig	-8870
mate	-8871
▁unt	-8872
lights	-8873
argo	-8874
race	-8875
▁cad	-8876
▁arrive	-8877
▁outfit	-8878
graduate	-8879
xi	-8880
▁Bed	-8881
▁cloud	-8882
▁blocks	-8883
▁tackle	-8884
▁Scient	-8885
acent	-8886
▁gift	-8887
▁ride	-8888
▁Winter	-8889
resident	-8890
▁emerging	-8891
▁regulations	-8892
▁10-	-8893
▁gro	-8894
▁Ariz	-8895
▁Regiment	-8896
▁improvement	-8897
▁Mother	-8898
▁motorcy	-8899
▁exception	-8900
▁sentenced	-8901
▁bass	-8902
illery	-8903
▁defending	-8904
▁outstanding	-8905
▁TDP	-8906
▁Hold	-8907
▁Welsh	-8908
▁Disney	-8909
▁nationwide	-8910
▁Dor	-8911
▁Yet	-8912
▁FIFA	-8913
▁adap	-8914
▁Members	-8915
▁processing	-8916
oda	-8917
hesh	-8918
▁Greece	-8919
▁statue	-8920
▁Minnesota	-8921
alli	-8922
▁Jacob	-8923
▁Fac	-8924
▁networks	-8925
▁relative	-8926
irts	-8927
▁Phys	-8928
▁optim	-8929
▁Rose	-8930
▁Kamal	-8931
▁trailer	-8932
hit	-8933
▁Hig	-8934
amesh	-8935
▁Anti	-8936
▁tickets	-8937
▁Ministers	-8938
alo	-8939
▁drag	-8940
▁rebu	-8941
ardens	-8942
▁lodged	-8943
▁advocate	-8944
▁institute	-8945
▁Barn	-8946
▁Hans	-8947
making	-8948
▁facts	-8949
▁DNA	-8950
▁1951	-8951
▁Hart	-8952
▁fundamental	-8953
iary	-8954
mouth	-8955
▁hydro	-8956
India	-8957
▁founding	-8958
▁increases	-8959
▁Agriculture	-8960
OL	-8961
▁Rain	-8962
▁cuts	-8963
▁preced	-8964
OR	-8965
▁ho	-8966
▁plate	-8967
▁colours	-8968
▁Township	-8969
án	-8970
▁auto	-8971
▁obst	-8972
▁planet	-8973
▁peaceful	-8974
▁intellect	-8975
▁rit	-8976
▁skipper	-8977
▁underst	-8978
▁technique	-8979
▁personality	-8980
DC	-8981
▁Inn	-8982
▁ramp	-8983
▁crops	-8984
▁recon	-8985
-14	-8986
▁Bhub	-8987
▁bare	-8988
▁suspect	-8989
▁touchdown	-8990
▁vaccinated	-8991
apes	-8992
khar	-8993
ults	-8994
▁Somet	-8995
▁delegation	-8996
iva	-8997
mail	-8998
▁upl	-8999
▁danger	-9000
▁professionals	-9001
tario	-9002
▁hoping	-9003
▁racing	-9004
▁staying	-9005
idency	-9006
▁withdraw	-9007
heastern	-9008
mm	-9009
▁Hand	-9010
orship	-9011
▁Belgium	-9012
▁farming	-9013
▁qualifying	-9014
▁RC	-9015
▁Nob	-9016
▁78	-9017
▁myth	-9018
▁prest	-9019
▁maintaining	-9020
▁Hop	-9021
▁1953	-9022
▁Wars	-9023
▁ancest	-9024
▁Brazilian	-9025
▁admit	-9026
▁dated	-9027
▁inhabit	-9028
▁restored	-9029
▁Eric	-9030
▁eating	-9031
▁unemploy	-9032
olas	-9033
uable	-9034
▁Squad	-9035
▁earthqu	-9036
mo	-9037
▁Third	-9038
▁landing	-9039
▁deceased	-9040
▁conservation	-9041
▁intervention	-9042
arkhand	-9043
pson	-9044
▁Low	-9045
▁Chak	-9046
▁Austria	-9047
▁movements	-9048
isan	-9049
▁Prom	-9050
▁Action	-9051
orous	-9052
▁Treat	-9053
▁poetry	-9054
▁fishing	-9055
▁kitchen	-9056
▁publicly	-9057
HI	-9058
▁°	-9059
▁Andre	-9060
▁Arizona	-9061
▁comprom	-9062
▁representation	-9063
anguage	-9064
liminary	-9065
▁AR	-9066
▁af	-9067
▁Greg	-9068
▁brut	-9069
▁designs	-9070
▁rapidly	-9071
▁payments	-9072
▁Il	-9073
▁Alf	-9074
▁parent	-9075
▁Anthony	-9076
▁Cost	-9077
track	-9078
▁https	-9079
▁Chi	-9080
▁Naval	-9081
▁Miller	-9082
▁hasn	-9083
▁Sonia	-9084
▁branches	-9085
acle	-9086
▁nav	-9087
acher	-9088
▁empt	-9089
▁typical	-9090
▁relationships	-9091
utors	-9092
ridges	-9093
▁Sport	-9094
▁missile	-9095
▁regarded	-9096
wari	-9097
▁NGO	-9098
▁failing	-9099
▁recommendations	-9100
gr	-9101
▁Va	-9102
ovic	-9103
▁honest	-9104
▁Shankar	-9105
▁closing	-9106
▁bilateral	-9107
▁Chandigarh	-9108
▁Season	-9109
rooms	-9110
aneswar	-9111
▁criticised	-9112
iac	-9113
▁Aksh	-9114
▁refers	-9115
▁Ontario	-9116
▁stressed	-9117
▁contested	-9118
▁MSU	-9119
▁bowler	-9120
OA	-9121
▁Pil	-9122
▁risks	-9123
▁OnePlus	-9124
▁unveiled	-9125
▁Silver	-9126
▁patrol	-9127
▁cow	-9128
▁Koch	-9129
▁tort	-9130
ronics	-9131
▁guide	-9132
▁Morgan	-9133
uese	-9134
▁Gang	-9135
▁sanction	-9136
▁Jharkhand	-9137
▁preparation	-9138
▁Rai	-9139
▁Nand	-9140
▁reveals	-9141
▁survive	-9142
▁tourist	-9143
▁Amendment	-9144
▁Protection	-9145
pex	-9146
writer	-9147
▁Commerce	-9148
car	-9149
▁tech	-9150
▁Simon	-9151
▁Stone	-9152
▁machines	-9153
▁preparing	-9154
▁consequences	-9155
fol	-9156
▁File	-9157
apping	-9158
chestra	-9159
▁Rest	-9160
▁SA	-9161
▁Arvind	-9162
▁borrow	-9163
▁intense	-9164
▁proport	-9165
▁69	-9166
▁shell	-9167
▁unlikely	-9168
▁generated	-9169
▁civic	-9170
▁Fernand	-9171
▁Ale	-9172
▁explains	-9173
▁inspiration	-9174
lick	-9175
▁sick	-9176
▁Hockey	-9177
▁commem	-9178
▁rivers	-9179
▁slowly	-9180
▁stretch	-9181
▁integrated	-9182
▁Gill	-9183
ortion	-9184
▁challenged	-9185
▁membership	-9186
▁restricted	-9187
bir	-9188
▁dose	-9189
▁rush	-9190
▁profile	-9191
▁Dom	-9192
▁sav	-9193
▁touc	-9194
inar	-9195
▁Brand	-9196
▁observ	-9197
▁connectivity	-9198
▁pod	-9199
▁monthly	-9200
▁stepped	-9201
olis	-9202
▁Equ	-9203
▁Austin	-9204
▁Budget	-9205
▁flower	-9206
▁learnt	-9207
▁gradually	-9208
▁Upon	-9209
▁RT	-9210
bound	-9211
▁sensor	-9212
▁Recently	-9213
▁Reliance	-9214
▁Billboard	-9215
owa	-9216
▁diver	-9217
▁Warner	-9218
▁staged	-9219
▁unusual	-9220
uct	-9221
▁Nap	-9222
▁tally	-9223
▁Cambridge	-9224
▁Jain	-9225
▁Video	-9226
▁print	-9227
▁Norway	-9228
▁updated	-9229
▁properly	-9230
▁volunteers	-9231
osl	-9232
icts	-9233
minute	-9234
▁spaces	-9235
▁strikes	-9236
▁convicted	-9237
▁mandatory	-9238
▁assessment	-9239
vy	-9240
▁Cer	-9241
▁clock	-9242
▁flash	-9243
▁exceed	-9244
▁obtain	-9245
▁briefly	-9246
EE	-9247
▁wal	-9248
herry	-9249
▁Thak	-9250
▁Friend	-9251
▁empower	-9252
▁constantly	-9253
▁Op	-9254
iest	-9255
▁beaten	-9256
▁Portuguese	-9257
▁mo	-9258
▁rac	-9259
▁Ronald	-9260
▁attitude	-9261
▁comprehensive	-9262
▁Jama	-9263
▁Rana	-9264
▁Tenness	-9265
▁Village	-9266
▁civilian	-9267
▁villagers	-9268
▁conclusion	-9269
▁situations	-9270
▁Rap	-9271
ulous	-9272
▁firing	-9273
▁opponent	-9274
▁Leban	-9275
▁Tiger	-9276
▁remind	-9277
▁northeast	-9278
▁forests	-9279
▁Citizens	-9280
▁philosophy	-9281
JD	-9282
▁Bos	-9283
▁spin	-9284
▁marry	-9285
▁Sheikh	-9286
▁highlighted	-9287
22	-9288
asp	-9289
gap	-9290
atri	-9291
atern	-9292
▁wouldn	-9293
▁cutting	-9294
▁islands	-9295
▁Bhubaneswar	-9296
▁transportation	-9297
▁RSS	-9298
▁50,000	-9299
▁Chopra	-9300
▁dominated	-9301
▁suspension	-9302
weg	-9303
▁rig	-9304
▁Maryland	-9305
▁overwhel	-9306
▁defeating	-9307
GA	-9308
arr	-9309
▁JD	-9310
▁Diw	-9311
riers	-9312
▁Pier	-9313
▁handling	-9314
▁referring	-9315
cut	-9316
erb	-9317
▁Kul	-9318
▁composer	-9319
▁discover	-9320
▁61	-9321
away	-9322
izer	-9323
▁frust	-9324
▁Connect	-9325
▁heading	-9326
▁argument	-9327
▁Currently	-9328
▁governance	-9329
▁Box	-9330
▁ere	-9331
▁writes	-9332
wara	-9333
▁1936	-9334
ignment	-9335
▁thoughts	-9336
▁FA	-9337
▁Tib	-9338
▁engines	-9339
▁exposure	-9340
hum	-9341
▁Nich	-9342
▁pregnant	-9343
▁apartment	-9344
LE	-9345
rase	-9346
▁Sem	-9347
▁Near	-9348
▁Point	-9349
▁radical	-9350
▁Nehru	-9351
▁fatal	-9352
▁Jal	-9353
▁upset	-9354
▁appealed	-9355
achi	-9356
▁Lyn	-9357
▁Bagh	-9358
▁equity	-9359
▁ED	-9360
ancellor	-9361
▁tribute	-9362
fted	-9363
▁AFP	-9364
▁Xin	-9365
atter	-9366
▁Check	-9367
lock	-9368
▁Ped	-9369
ailed	-9370
missions	-9371
▁exciting	-9372
▁Tennessee	-9373
▁inaugurated	-9374
▁FM	-9375
▁summ	-9376
▁alert	-9377
▁Emperor	-9378
▁screens	-9379
▁autonom	-9380
▁interim	-9381
▁suitable	-9382
▁simultane	-9383
▁airline	-9384
▁Next	-9385
▁hang	-9386
▁describes	-9387
▁acquisition	-9388
▁racial	-9389
▁windows	-9390
▁sustainable	-9391
akrish	-9392
fielder	-9393
▁deeply	-9394
▁Exchange	-9395
▁Industry	-9396
▁attorney	-9397
▁components	-9398
▁IV	-9399
▁Prin	-9400
hal	-9401
▁Osc	-9402
▁finger	-9403
▁doubles	-9404
▁Wat	-9405
▁landed	-9406
▁pursue	-9407
▁attacking	-9408
▁aggressive	-9409
ei	-9410
▁Plus	-9411
imp	-9412
eign	-9413
▁1918	-9414
arest	-9415
rapped	-9416
gor	-9417
▁SU	-9418
ders	-9419
eland	-9420
▁gate	-9421
▁talked	-9422
▁substantial	-9423
erg	-9424
▁Dur	-9425
▁GDP	-9426
▁tar	-9427
▁sheet	-9428
▁forecast	-9429
▁ownership	-9430
▁Wisc	-9431
▁symp	-9432
▁descend	-9433
▁spreading	-9434
uda	-9435
▁1938	-9436
▁wishes	-9437
▁Digital	-9438
▁functioning	-9439
▁developments	-9440
▁Fr	-9441
wich	-9442
▁Kas	-9443
▁seeds	-9444
▁hub	-9445
achment	-9446
▁civilians	-9447
agen	-9448
rait	-9449
▁IIT	-9450
▁Karan	-9451
▁coaches	-9452
▁competing	-9453
▁interaction	-9454
▁88	-9455
▁avo	-9456
onsin	-9457
▁Indo	-9458
▁circuit	-9459
▁Investigation	-9460
eded	-9461
▁skill	-9462
GC	-9463
▁Jews	-9464
▁speaker	-9465
mohan	-9466
▁Chow	-9467
▁credited	-9468
▁criticized	-9469
▁Rak	-9470
illance	-9471
▁Freder	-9472
▁fallen	-9473
▁walked	-9474
▁worried	-9475
▁associate	-9476
uj	-9477
▁1919	-9478
▁certificate	-9479
▁Ryan	-9480
▁availability	-9481
▁98	-9482
ilst	-9483
▁simpl	-9484
▁consisted	-9485
iami	-9486
▁Schools	-9487
rific	-9488
rities	-9489
▁Electric	-9490
▁NS	-9491
▁Cape	-9492
▁Croat	-9493
▁eleph	-9494
▁premium	-9495
▁Wisconsin	-9496
▁beds	-9497
▁pione	-9498
▁upgrad	-9499
▁constituencies	-9500
▁Pas	-9501
▁ranks	-9502
▁lawyers	-9503
umin	-9504
ateur	-9505
▁cous	-9506
▁aside	-9507
▁177	-9508
endar	-9509
eda	-9510
mont	-9511
▁aren	-9512
elihood	-9513
▁blocked	-9514
▁Slov	-9515
▁grade	-9516
▁Kansas	-9517
▁visits	-9518
ES	-9519
▁awa	-9520
▁blog	-9521
aration	-9522
asha	-9523
▁twe	-9524
otton	-9525
orious	-9526
▁dollar	-9527
▁outcome	-9528
▁Init	-9529
▁absor	-9530
▁eighth	-9531
▁Welfare	-9532
yam	-9533
ultan	-9534
▁devast	-9535
▁temperatures	-9536
zo	-9537
▁Ek	-9538
▁gym	-9539
▁Advis	-9540
▁quiet	-9541
▁renov	-9542
▁brands	-9543
▁surprised	-9544
▁bot	-9545
ailing	-9546
▁Brian	-9547
▁toile	-9548
▁boss	-9549
▁innoc	-9550
▁footage	-9551
▁Muh	-9552
▁mini	-9553
▁reveal	-9554
▁derived	-9555
▁considerable	-9556
▁Jane	-9557
▁Mach	-9558
estone	-9559
▁Urban	-9560
▁posit	-9561
▁Within	-9562
▁legacy	-9563
▁totally	-9564
otes	-9565
▁von	-9566
▁NCAA	-9567
▁blamed	-9568
actor	-9569
▁Wy	-9570
▁WHO	-9571
▁monsoon	-9572
▁consistent	-9573
▁mood	-9574
▁Being	-9575
atha	-9576
▁Ern	-9577
▁Chile	-9578
▁Unlike	-9579
▁noticed	-9580
Hz	-9581
▁dogs	-9582
▁memorial	-9583
▁boundaries	-9584
▁mathemat	-9585
alg	-9586
ulf	-9587
aska	-9588
idance	-9589
▁Death	-9590
▁propag	-9591
▁predict	-9592
▁Raja	-9593
▁liquor	-9594
ello	-9595
▁joy	-9596
▁Diego	-9597
▁coaching	-9598
hyth	-9599
▁Madras	-9600
eneration	-9601
▁consisting	-9602
▁harassment	-9603
▁Tun	-9604
regon	-9605
▁collaps	-9606
▁fiction	-9607
▁adequate	-9608
▁merged	-9609
▁Kentucky	-9610
▁Whit	-9611
▁Modern	-9612
▁repair	-9613
▁Ajay	-9614
▁legs	-9615
▁meets	-9616
▁unlike	-9617
▁frequent	-9618
▁businessman	-9619
▁toler	-9620
▁suddenly	-9621
-13	-9622
▁Tag	-9623
▁charging	-9624
top	-9625
▁1000	-9626
▁Call	-9627
▁Meet	-9628
▁Sind	-9629
▁keeps	-9630
▁assass	-9631
▁filmmaker	-9632
▁sky	-9633
▁Miami	-9634
▁coffee	-9635
▁batsmen	-9636
▁donated	-9637
▁migrants	-9638
▁significance	-9639
▁Chem	-9640
▁Coun	-9641
▁indigenous	-9642
▁Hit	-9643
▁Honor	-9644
▁bands	-9645
▁lights	-9646
PA	-9647
▁ww	-9648
▁rang	-9649
▁poster	-9650
▁Sources	-9651
▁assumed	-9652
▁retained	-9653
▁Candidates	-9654
ellers	-9655
▁incorporated	-9656
▁Say	-9657
▁Babu	-9658
▁Trad	-9659
▁pron	-9660
▁divide	-9661
▁locals	-9662
▁rivals	-9663
▁hitting	-9664
▁watched	-9665
▁isolated	-9666
24	-9667
▁Anne	-9668
▁Jesus	-9669
▁Shak	-9670
▁vary	-9671
▁expend	-9672
▁liberal	-9673
▁revised	-9674
▁narrative	-9675
▁punishment	-9676
aph	-9677
tees	-9678
▁Bon	-9679
asant	-9680
▁Know	-9681
itched	-9682
▁Milan	-9683
▁bureau	-9684
▁Manager	-9685
▁painted	-9686
▁stability	-9687
▁1,5	-9688
▁Beg	-9689
ordon	-9690
viation	-9691
▁caption	-9692
iciary	-9693
▁UC	-9694
▁NDA	-9695
▁Win	-9696
▁Plot	-9697
▁Oregon	-9698
▁Operation	-9699
erts	-9700
▁Obs	-9701
▁www	-9702
▁Indiana	-9703
▁globally	-9704
▁Lieutenant	-9705
▁collective	-9706
ME	-9707
cia	-9708
omy	-9709
▁sequence	-9710
▁directions	-9711
▁Metropolitan	-9712
▁Tit	-9713
▁Armen	-9714
▁blind	-9715
▁surviv	-9716
des	-9717
▁da	-9718
eling	-9719
▁Kish	-9720
▁Ukrain	-9721
▁wrestling	-9722
▁filing	-9723
▁salary	-9724
▁sisters	-9725
▁External	-9726
▁86	-9727
foot	-9728
▁1.2	-9729
▁160	-9730
▁Steel	-9731
▁departure	-9732
▁surrounded	-9733
▁Nas	-9734
▁anywhere	-9735
▁interpret	-9736
▁Professional	-9737
▁ordinary	-9738
▁distancing	-9739
▁DV	-9740
▁guys	-9741
▁executed	-9742
bles	-9743
▁Based	-9744
▁Ramesh	-9745
▁shelter	-9746
▁XI	-9747
▁stim	-9748
▁centers	-9749
▁churches	-9750
▁congrat	-9751
▁musicians	-9752
▁Gor	-9753
▁Mul	-9754
▁AL	-9755
urga	-9756
incol	-9757
▁opener	-9758
▁Patrick	-9759
▁colonial	-9760
anti	-9761
▁1917	-9762
▁Tech	-9763
▁longest	-9764
▁Ahmedabad	-9765
pled	-9766
▁Alb	-9767
mad	-9768
▁Prix	-9769
▁fees	-9770
▁depression	-9771
▁photographs	-9772
▁Intelligence	-9773
osy	-9774
otte	-9775
▁lapt	-9776
itious	-9777
▁Sinha	-9778
▁rescued	-9779
▁TMC	-9780
▁gif	-9781
ilation	-9782
▁license	-9783
▁parallel	-9784
▁practical	-9785
▁87	-9786
ctic	-9787
▁1937	-9788
▁alarm	-9789
▁Akshay	-9790
▁authors	-9791
▁equally	-9792
▁invasion	-9793
▁perspective	-9794
▁ID	-9795
▁MD	-9796
olen	-9797
▁Ach	-9798
▁Lah	-9799
▁Devi	-9800
▁tropical	-9801
▁withdrawal	-9802
▁Aw	-9803
▁Hous	-9804
▁dign	-9805
▁maid	-9806
ulam	-9807
▁Finn	-9808
▁Venez	-9809
▁updates	-9810
▁annually	-9811
ovo	-9812
iors	-9813
▁comic	-9814
▁explore	-9815
▁normally	-9816
▁83	-9817
umer	-9818
▁please	-9819
rity	-9820
▁Secondary	-9821
▁Industries	-9822
▁newspapers	-9823
agg	-9824
▁bills	-9825
▁Norweg	-9826
▁deadly	-9827
ribution	-9828
▁continu	-9829
▁routine	-9830
▁programming	-9831
▁Vo	-9832
anya	-9833
▁privacy	-9834
▁potentially	-9835
▁Nath	-9836
▁Sound	-9837
▁Defense	-9838
▁Portugal	-9839
▁Srinagar	-9840
▁84	-9841
▁recre	-9842
ums	-9843
▁Zh	-9844
▁Bulgar	-9845
▁priced	-9846
▁Miz	-9847
▁pad	-9848
▁moral	-9849
▁collapse	-9850
▁operates	-9851
▁principles	-9852
▁Non	-9853
▁salt	-9854
▁Training	-9855
▁engagement	-9856
▁destruction	-9857
▁manufacturers	-9858
ng	-9859
ée	-9860
fers	-9861
▁UPA	-9862
▁fame	-9863
hester	-9864
▁Father	-9865
▁diverse	-9866
▁starred	-9867
▁Convention	-9868
▁vegetables	-9869
▁Bull	-9870
▁.....	-9871
▁marine	-9872
▁portfol	-9873
▁Reception	-9874
▁inaugural	-9875
▁completing	-9876
▁Ric	-9877
▁nick	-9878
▁pharm	-9879
charged	-9880
▁Clevel	-9881
▁Lincol	-9882
▁golden	-9883
▁Actress	-9884
reced	-9885
▁Jenn	-9886
▁Mars	-9887
habilit	-9888
▁Mukher	-9889
▁consolid	-9890
itis	-9891
▁Deepika	-9892
▁collections	-9893
hol	-9894
▁Kl	-9895
▁1933	-9896
▁Round	-9897
▁Marine	-9898
▁separated	-9899
▁inhabitants	-9900
esc	-9901
▁Exc	-9902
▁Michel	-9903
▁Cleveland	-9904
▁festivals	-9905
▁Cas	-9906
▁apolog	-9907
▁reward	-9908
▁celebrities	-9909
aba	-9910
▁musician	-9911
▁releases	-9912
po	-9913
▁Ye	-9914
cket	-9915
randed	-9916
▁Shetty	-9917
▁astron	-9918
▁stronger	-9919
▁Queensland	-9920
23	-9921
isi	-9922
▁trem	-9923
▁inner	-9924
uki	-9925
aven	-9926
▁Tig	-9927
▁3,000	-9928
▁hoped	-9929
▁stuff	-9930
▁affair	-9931
▁emissions	-9932
▁Palestinian	-9933
▁connections	-9934
vo	-9935
ificial	-9936
▁Comple	-9937
▁surprising	-9938
▁recruitment	-9939
▁guy	-9940
▁Jess	-9941
▁Russell	-9942
▁burning	-9943
recedented	-9944
UR	-9945
ige	-9946
orer	-9947
▁Gib	-9948
▁Rey	-9949
▁Sik	-9950
uresh	-9951
▁smugg	-9952
▁decent	-9953
▁Missouri	-9954
gow	-9955
▁Ow	-9956
▁Iron	-9957
abetes	-9958
▁circle	-9959
▁variants	-9960
aja	-9961
ogi	-9962
rer	-9963
fast	-9964
umble	-9965
▁flex	-9966
▁prosper	-9967
▁qualify	-9968
flix	-9969
▁vib	-9970
asters	-9971
▁taste	-9972
▁Mahesh	-9973
▁Greater	-9974
▁attracted	-9975
▁framework	-9976
iley	-9977
▁nice	-9978
▁commemor	-9979
▁introduce	-9980
▁proposals	-9981
▁Lank	-9982
▁molec	-9983
▁Nation	-9984
▁Philip	-9985
▁chapter	-9986
▁destination	-9987
▁bars	-9988
▁Hence	-9989
▁Danish	-9990
▁successor	-9991
▁Bowl	-9992
▁reun	-9993
▁antib	-9994
▁replacing	-9995
enger	-9996
▁dozen	-9997
▁charity	-9998
eor	-9999
▁GM	-10000
made	-10001
▁bon	-10002
▁coc	-10003
▁legislative	-10004
tim	-10005
▁71	-10006
▁Bud	-10007
▁bact	-10008
▁Addressing	-10009
▁Industrial	-10010
mun	-10011
▁usage	-10012
▁winds	-10013
▁closure	-10014
▁Heritage	-10015
▁moderate	-10016
▁scenario	-10017
▁audiences	-10018
▁rif	-10019
▁mutual	-10020
▁discount	-10021
nik	-10022
▁Oil	-10023
▁Pap	-10024
▁Sign	-10025
▁advertis	-10026
▁relating	-10027
▁immigration	-10028
haw	-10029
fare	-10030
▁Denmark	-10031
▁provincial	-10032
ulu	-10033
▁climb	-10034
▁wings	-10035
▁anonym	-10036
▁Venezuel	-10037
▁guidance	-10038
▁Norwegian	-10039
uther	-10040
▁Mult	-10041
▁Tourn	-10042
▁click	-10043
▁Antonio	-10044
▁indicate	-10045
▁northwest	-10046
▁Aar	-10047
▁Sunil	-10048
▁laugh	-10049
▁lying	-10050
▁exclud	-10051
▁Confeder	-10052
jit	-10053
rus	-10054
▁97	-10055
▁Dj	-10056
emed	-10057
▁Teh	-10058
▁investigate	-10059
▁unprecedented	-10060
▁NT	-10061
ewhat	-10062
icken	-10063
▁bowl	-10064
amool	-10065
grade	-10066
itary	-10067
▁blow	-10068
▁cattle	-10069
▁explan	-10070
▁removal	-10071
▁youngest	-10072
▁friendship	-10073
▁advertising	-10074
▁Ot	-10075
▁Age	-10076
▁Doctor	-10077
▁condemned	-10078
km	-10079
elle	-10080
▁1935	-10081
theless	-10082
▁Suresh	-10083
▁publishing	-10084
▁shed	-10085
▁Allen	-10086
▁Netflix	-10087
▁possess	-10088
hl	-10089
▁ax	-10090
ante	-10091
▁march	-10092
▁Garden	-10093
listed	-10094
▁conqu	-10095
▁intens	-10096
aire	-10097
▁Laksh	-10098
winning	-10099
▁Colomb	-10100
▁flagship	-10101
▁96	-10102
elli	-10103
▁Tibet	-10104
▁neutral	-10105
nath	-10106
▁Liberal	-10107
▁HT	-10108
core	-10109
▁Census	-10110
▁delight	-10111
▁hopeful	-10112
▁adjacent	-10113
▁Collector	-10114
▁Gay	-10115
▁1914	-10116
▁Make	-10117
▁lift	-10118
▁fears	-10119
▁thorough	-10120
▁Trinamool	-10121
▁travelled	-10122
agu	-10123
▁AB	-10124
▁gene	-10125
▁spell	-10126
▁cancel	-10127
▁triple	-10128
▁privile	-10129
▁scholar	-10130
▁RA	-10131
▁hate	-10132
▁unity	-10133
▁Sachin	-10134
▁secular	-10135
▁commented	-10136
▁Dean	-10137
▁wider	-10138
▁zones	-10139
▁adjust	-10140
▁momentum	-10141
▁attributed	-10142
▁consideration	-10143
▁IB	-10144
▁Hem	-10145
▁Nay	-10146
▁Asked	-10147
▁flows	-10148
▁Albert	-10149
▁debuted	-10150
▁Movement	-10151
▁underway	-10152
▁principle	-10153
▁HC	-10154
burn	-10155
▁2-1	-10156
▁Cre	-10157
▁streaming	-10158
NP	-10159
▁CH	-10160
brid	-10161
General	-10162
▁Knight	-10163
▁bullet	-10164
▁devote	-10165
ois	-10166
▁NEW	-10167
▁investigations	-10168
cill	-10169
▁Dhan	-10170
▁wore	-10171
▁lasted	-10172
▁communications	-10173
▁cyber	-10174
▁gains	-10175
▁condol	-10176
▁exports	-10177
▁interse	-10178
▁personally	-10179
lal	-10180
▁cha	-10181
▁breast	-10182
▁engage	-10183
▁innovation	-10184
odox	-10185
▁abol	-10186
▁Happy	-10187
▁forming	-10188
▁Nok	-10189
▁els	-10190
▁kinds	-10191
▁stuck	-10192
ologists	-10193
▁somewhat	-10194
▁Officials	-10195
annes	-10196
▁Full	-10197
▁spots	-10198
▁Interest	-10199
▁campaigns	-10200
▁DMK	-10201
▁roots	-10202
▁weigh	-10203
▁pink	-10204
▁requirement	-10205
▁700	-10206
▁lie	-10207
▁Dall	-10208
▁Inspe	-10209
▁empty	-10210
▁hardly	-10211
▁Maur	-10212
regation	-10213
▁amounts	-10214
eck	-10215
elson	-10216
▁NASA	-10217
▁couples	-10218
zes	-10219
oples	-10220
▁boats	-10221
selling	-10222
▁Parish	-10223
▁Matthew	-10224
▁Nigeria	-10225
▁Attorney	-10226
▁historian	-10227
▁operators	-10228
▁classified	-10229
rett	-10230
▁Native	-10231
icing	-10232
▁unex	-10233
▁innovative	-10234
▁Holl	-10235
▁Venk	-10236
▁apex	-10237
▁Howard	-10238
▁worship	-10239
▁predecess	-10240
▁1932	-10241
▁unsu	-10242
▁wine	-10243
▁pages	-10244
ndering	-10245
▁20,000	-10246
26	-10247
alia	-10248
orted	-10249
▁elsewhere	-10250
▁Keep	-10251
▁iconic	-10252
▁wooden	-10253
▁surveillance	-10254
▁Did	-10255
▁Fal	-10256
wahati	-10257
▁Crown	-10258
▁rugby	-10259
▁notably	-10260
istrate	-10261
▁mainstream	-10262
▁arrangement	-10263
osm	-10264
▁Wi	-10265
ifies	-10266
scale	-10267
contin	-10268
▁desper	-10269
▁resume	-10270
▁feelings	-10271
anne	-10272
inction	-10273
▁vessels	-10274
isting	-10275
▁gaming	-10276
▁invent	-10277
▁defended	-10278
▁protesting	-10279
▁Jio	-10280
▁dear	-10281
▁Smart	-10282
▁instructions	-10283
▁nerv	-10284
▁inher	-10285
▁Ground	-10286
▁locality	-10287
▁instruments	-10288
▁LP	-10289
ensed	-10290
▁dish	-10291
▁Roger	-10292
▁recru	-10293
▁Twenty	-10294
▁landscape	-10295
ardo	-10296
emies	-10297
▁Guru	-10298
▁wars	-10299
▁Story	-10300
▁involves	-10301
▁midfielder	-10302
whe	-10303
▁Disc	-10304
▁comeb	-10305
net	-10306
ayam	-10307
anted	-10308
▁Ukrainian	-10309
▁impressed	-10310
▁permitted	-10311
▁wet	-10312
inery	-10313
▁dict	-10314
▁Seven	-10315
diction	-10316
▁prayers	-10317
▁prestigious	-10318
▁Hug	-10319
isgarh	-10320
▁naval	-10321
▁owing	-10322
vereign	-10323
▁silent	-10324
▁ranking	-10325
overs	-10326
▁genre	-10327
▁rumours	-10328
▁monument	-10329
▁divisions	-10330
▁comparison	-10331
▁facilitate	-10332
▁conservative	-10333
▁understood	-10334
▁preliminary	-10335
uh	-10336
anim	-10337
▁Carn	-10338
▁Harvard	-10339
▁screening	-10340
▁reservation	-10341
▁difficulties	-10342
▁transactions	-10343
▁USD	-10344
▁1929	-10345
▁1934	-10346
profit	-10347
▁Dream	-10348
▁hotels	-10349
▁Senator	-10350
▁ranging	-10351
▁launching	-10352
▁IST	-10353
▁Price	-10354
▁generate	-10355
ista	-10356
▁gear	-10357
▁Medicine	-10358
▁occupation	-10359
VP	-10360
▁fate	-10361
▁lists	-10362
gapixel	-10363
▁cod	-10364
screen	-10365
▁deadline	-10366
▁judgment	-10367
▁Mukherjee	-10368
▁postponed	-10369
▁releasing	-10370
▁continuous	-10371
45	-10372
ffect	-10373
▁Rick	-10374
inator	-10375
▁temples	-10376
▁congress	-10377
▁estimates	-10378
▁mistake	-10379
ibl	-10380
▁Lawrence	-10381
▁influential	-10382
95	-10383
▁synd	-10384
▁thin	-10385
active	-10386
▁Still	-10387
▁Atlanta	-10388
▁fastest	-10389
▁dramatic	-10390
▁theatres	-10391
▁achievement	-10392
lined	-10393
insula	-10394
▁Sudan	-10395
▁viewed	-10396
▁pushing	-10397
▁administered	-10398
▁cyl	-10399
aware	-10400
▁1910	-10401
▁sovereign	-10402
▁Megh	-10403
▁Diwali	-10404
▁lifted	-10405
▁thrown	-10406
▁Conservative	-10407
roit	-10408
▁UFC	-10409
▁brick	-10410
▁patri	-10411
sar	-10412
arti	-10413
▁Higher	-10414
▁dinner	-10415
▁exchang	-10416
▁territories	-10417
WA	-10418
▁82	-10419
▁NY	-10420
▁UE	-10421
math	-10422
▁Had	-10423
▁tap	-10424
rigation	-10425
▁Principal	-10426
▁discrimination	-10427
uded	-10428
▁Cow	-10429
▁lib	-10430
▁Lanc	-10431
▁lady	-10432
▁fisher	-10433
▁murdered	-10434
▁examinations	-10435
east	-10436
▁Cust	-10437
▁rall	-10438
mediate	-10439
▁courage	-10440
▁traders	-10441
▁Guwahati	-10442
▁BM	-10443
rors	-10444
▁calm	-10445
▁tempor	-10446
▁Organisation	-10447
▁Was	-10448
▁Samaj	-10449
▁bless	-10450
▁vessel	-10451
▁Chamber	-10452
▁Private	-10453
▁capabilities	-10454
DS	-10455
ajan	-10456
▁Cham	-10457
▁semif	-10458
urities	-10459
▁luxury	-10460
▁termed	-10461
▁thereby	-10462
▁manifest	-10463
▁township	-10464
riors	-10465
▁Kaly	-10466
▁solve	-10467
uka	-10468
bean	-10469
cott	-10470
▁Las	-10471
ashing	-10472
▁pride	-10473
▁Employ	-10474
▁virtually	-10475
▁earthquake	-10476
pi	-10477
senal	-10478
▁bull	-10479
▁Given	-10480
▁scientist	-10481
lah	-10482
▁Lock	-10483
▁Brigade	-10484
▁dominant	-10485
▁connecting	-10486
▁restoration	-10487
▁fur	-10488
▁1924	-10489
▁Gene	-10490
▁Zone	-10491
▁dreams	-10492
-11	-10493
▁convey	-10494
tel	-10495
▁PU	-10496
▁1-0	-10497
▁Wolf	-10498
▁hike	-10499
▁jack	-10500
▁Mangal	-10501
▁castle	-10502
▁reiter	-10503
▁organic	-10504
▁actively	-10505
▁evolution	-10506
hot	-10507
opol	-10508
role	-10509
▁Rajiv	-10510
▁param	-10511
▁soccer	-10512
▁carrier	-10513
▁agitation	-10514
uvan	-10515
▁belt	-10516
lessly	-10517
▁comeback	-10518
zer	-10519
alog	-10520
game	-10521
▁Bag	-10522
▁Buck	-10523
▁praise	-10524
▁deficit	-10525
▁scandal	-10526
▁Dave	-10527
▁bike	-10528
▁Medal	-10529
▁legit	-10530
▁steam	-10531
▁manufacturer	-10532
TS	-10533
irds	-10534
eters	-10535
inking	-10536
▁Nokia	-10537
▁wonderful	-10538
fts	-10539
oen	-10540
▁nam	-10541
▁coup	-10542
▁Tournament	-10543
sky	-10544
reement	-10545
▁riding	-10546
onna	-10547
page	-10548
▁anch	-10549
▁Moore	-10550
▁restore	-10551
▁affordable	-10552
OM	-10553
aran	-10554
▁Ark	-10555
otion	-10556
▁1928	-10557
▁lots	-10558
▁twelve	-10559
▁Tripura	-10560
▁panchayat	-10561
35	-10562
▁Ganesh	-10563
▁immigrants	-10564
match	-10565
▁Airl	-10566
▁Islamabad	-10567
▁contracts	-10568
▁ther	-10569
▁cable	-10570
▁everybody	-10571
▁Superintendent	-10572
poll	-10573
▁Small	-10574
▁processor	-10575
▁Vad	-10576
▁pac	-10577
▁Iowa	-10578
▁Kabul	-10579
▁anger	-10580
▁flour	-10581
▁traged	-10582
jud	-10583
wadi	-10584
▁175	-10585
regular	-10586
▁acclaim	-10587
▁habitat	-10588
▁complained	-10589
▁94	-10590
rons	-10591
▁Iraqi	-10592
▁angry	-10593
▁floods	-10594
▁patterns	-10595
▁mountains	-10596
▁underground	-10597
▁3.5	-10598
▁Malik	-10599
▁Walter	-10600
▁merely	-10601
▁Commander	-10602
▁130	-10603
▁Unf	-10604
chell	-10605
ctive	-10606
▁Snap	-10607
▁Liter	-10608
▁Phill	-10609
▁evident	-10610
▁overcome	-10611
bel	-10612
▁Naw	-10613
claim	-10614
▁Glas	-10615
▁Lind	-10616
▁pill	-10617
▁pock	-10618
ricane	-10619
▁ingred	-10620
▁Narayan	-10621
▁realised	-10622
▁valuable	-10623
▁struggled	-10624
ivas	-10625
anath	-10626
▁goalk	-10627
▁lakhs	-10628
▁earning	-10629
▁printed	-10630
▁Dead	-10631
▁Prop	-10632
▁Murray	-10633
▁predicted	-10634
▁€	-10635
▁Benn	-10636
▁endors	-10637
▁sounds	-10638
▁Sushant	-10639
▁cooking	-10640
▁sporting	-10641
▁conscious	-10642
▁instances	-10643
acre	-10644
riya	-10645
▁125	-10646
▁Naz	-10647
▁kidna	-10648
▁fabric	-10649
▁Architect	-10650
▁discovery	-10651
▁eru	-10652
▁Ward	-10653
▁Tests	-10654
▁nomine	-10655
▁achievements	-10656
▁jurisdiction	-10657
▁efficiency	-10658
▁Lam	-10659
▁twin	-10660
▁describe	-10661
acco	-10662
▁blame	-10663
▁scar	-10664
▁Finally	-10665
▁Thacker	-10666
▁isolation	-10667
▁unsuccess	-10668
▁procedures	-10669
fi	-10670
▁Wa	-10671
olph	-10672
▁1900	-10673
▁Jagan	-10674
▁Player	-10675
▁Taking	-10676
▁bishop	-10677
▁Manipur	-10678
▁Broadcast	-10679
▁translated	-10680
izz	-10681
▁bold	-10682
▁southeast	-10683
▁citizenship	-10684
pany	-10685
▁eggs	-10686
▁ocean	-10687
▁Chhatt	-10688
▁domain	-10689
▁Aviation	-10690
▁arriving	-10691
▁indicates	-10692
ariat	-10693
▁Brun	-10694
▁Pear	-10695
▁fasc	-10696
▁visa	-10697
akhand	-10698
▁trick	-10699
▁Rahman	-10700
▁legendary	-10701
dh	-10702
▁riots	-10703
anton	-10704
▁memories	-10705
▁relation	-10706
▁accessible	-10707
oren	-10708
▁Gad	-10709
▁Kad	-10710
hythm	-10711
▁Hass	-10712
▁Have	-10713
▁raid	-10714
hentic	-10715
▁Grant	-10716
▁preferred	-10717
▁elabor	-10718
▁fruits	-10719
▁sacrif	-10720
▁Kit	-10721
▁dat	-10722
rient	-10723
▁tensions	-10724
▁Construction	-10725
▁79	-10726
▁NA	-10727
▁genu	-10728
▁shoulder	-10729
▁promising	-10730
▁NCP	-10731
▁Girls	-10732
▁releg	-10733
▁sweep	-10734
▁Branch	-10735
▁carries	-10736
▁Directorate	-10737
▁acknowledged	-10738
die	-10739
▁Fame	-10740
▁Lower	-10741
cling	-10742
▁Manmohan	-10743
▁lifestyle	-10744
lay	-10745
opp	-10746
▁hide	-10747
▁moon	-10748
ishers	-10749
▁locomot	-10750
▁reserved	-10751
▁reviewed	-10752
▁happiness	-10753
▁12-	-10754
▁bin	-10755
▁Cool	-10756
▁Kare	-10757
▁Chair	-10758
▁Upper	-10759
▁targeting	-10760
▁eliminated	-10761
▁statistics	-10762
rina	-10763
▁vit	-10764
▁vend	-10765
▁adapted	-10766
ographical	-10767
▁Uttarakhand	-10768
bul	-10769
cul	-10770
▁Oak	-10771
▁Place	-10772
▁demise	-10773
▁permit	-10774
▁speaks	-10775
▁Detroit	-10776
▁Roberts	-10777
▁forcing	-10778
abu	-10779
▁Gow	-10780
▁NAT	-10781
▁mac	-10782
▁Jait	-10783
▁alter	-10784
▁maybe	-10785
▁Thakur	-10786
▁perpet	-10787
▁insisted	-10788
▁lawmakers	-10789
su	-10790
▁Sard	-10791
▁Sarah	-10792
▁depends	-10793
OP	-10794
▁Tourism	-10795
▁migrant	-10796
▁premiered	-10797
▁encouraging	-10798
▁Ca	-10799
▁Bir	-10800
▁Bou	-10801
▁gay	-10802
lection	-10803
▁serial	-10804
▁Notable	-10805
▁Thackeray	-10806
▁HIV	-10807
▁1931	-10808
▁Event	-10809
▁seeks	-10810
▁partly	-10811
▁Natural	-10812
▁funeral	-10813
▁Forum	-10814
▁illeg	-10815
▁therapy	-10816
▁Mangalore	-10817
▁characteristics	-10818
▁GP	-10819
drop	-10820
arted	-10821
▁gest	-10822
▁myst	-10823
▁Muhammad	-10824
▁interven	-10825
▁MA	-10826
urai	-10827
▁chat	-10828
▁govt	-10829
▁Perform	-10830
half	-10831
▁Jaw	-10832
▁Len	-10833
idamb	-10834
▁Carib	-10835
▁ambassador	-10836
▁definition	-10837
▁remembered	-10838
ector	-10839
▁magic	-10840
uros	-10841
▁2.0	-10842
▁Dyn	-10843
▁additionally	-10844
don	-10845
▁EV	-10846
▁Hom	-10847
irect	-10848
▁Gordon	-10849
▁affiliated	-10850
▁93	-10851
▁OS	-10852
▁20-	-10853
▁Lar	-10854
▁Str	-10855
▁1927	-10856
▁Huss	-10857
▁submar	-10858
▁Ry	-10859
ieval	-10860
ellery	-10861
▁Until	-10862
▁ninth	-10863
▁Xiaomi	-10864
▁pension	-10865
itime	-10866
▁tariff	-10867
▁swimming	-10868
▁southwest	-10869
▁tournaments	-10870
ikes	-10871
orld	-10872
▁raw	-10873
▁Dougl	-10874
▁badly	-10875
▁archae	-10876
▁stones	-10877
▁underw	-10878
▁interrog	-10879
▁description	-10880
▁Ec	-10881
athon	-10882
▁scope	-10883
▁Please	-10884
▁battles	-10885
▁execution	-10886
ishek	-10887
▁1921	-10888
▁Prat	-10889
▁swing	-10890
▁talented	-10891
erk	-10892
xual	-10893
▁McD	-10894
▁Alab	-10895
▁Spart	-10896
▁chest	-10897
▁Dallas	-10898
▁soldier	-10899
▁missions	-10900
▁BSE	-10901
▁Lud	-10902
▁tip	-10903
▁pregnancy	-10904
▁generations	-10905
▁Chhattisgarh	-10906
has	-10907
▁Dark	-10908
▁Culture	-10909
▁Republicans	-10910
▁Lin	-10911
▁McK	-10912
▁Oli	-10913
▁tiss	-10914
▁100,000	-10915
esty	-10916
arwal	-10917
▁Juan	-10918
▁UEFA	-10919
thodox	-10920
▁femin	-10921
▁Math	-10922
▁cease	-10923
▁files	-10924
▁traditions	-10925
held	-10926
▁Bis	-10927
▁Laure	-10928
▁portal	-10929
▁Amitabh	-10930
▁passage	-10931
▁witnesses	-10932
▁SD	-10933
rose	-10934
▁tab	-10935
▁Earl	-10936
▁Path	-10937
▁tone	-10938
▁Yemen	-10939
▁oblig	-10940
▁stolen	-10941
▁Lincoln	-10942
▁attempting	-10943
▁que	-10944
▁Samuel	-10945
▁dancing	-10946
▁Initially	-10947
▁Malayalam	-10948
▁3-	-10949
veer	-10950
woman	-10951
▁Bart	-10952
▁Sultan	-10953
▁rebels	-10954
▁Ambassador	-10955
atta	-10956
▁Much	-10957
▁Rukh	-10958
▁Kelly	-10959
osystem	-10960
▁implic	-10961
▁elderly	-10962
▁favorite	-10963
▁Blu	-10964
oba	-10965
▁Expl	-10966
▁indul	-10967
▁spectrum	-10968
75	-10969
▁Yam	-10970
nagar	-10971
▁globe	-10972
▁ABC	-10973
▁Race	-10974
▁hyper	-10975
▁Without	-10976
▁focusing	-10977
▁Edin	-10978
▁Grad	-10979
▁stem	-10980
umbent	-10981
▁plenty	-10982
▁Mississ	-10983
▁prosecution	-10984
▁demonstrated	-10985
▁Eag	-10986
▁Nir	-10987
▁Contin	-10988
▁exists	-10989
▁Infantry	-10990
▁clothing	-10991
▁exclusively	-10992
aha	-10993
▁mic	-10994
eshwar	-10995
▁fewer	-10996
through	-10997
▁extraord	-10998
▁supplied	-10999
onds	-11000
▁Amid	-11001
▁soph	-11002
▁yoga	-11003
▁Rajput	-11004
▁versus	-11005
▁periods	-11006
▁convinced	-11007
izon	-11008
▁enthusi	-11009
▁reaches	-11010
▁triggered	-11011
TT	-11012
ienna	-11013
▁Stew	-11014
▁Patri	-11015
▁obvious	-11016
▁establishing	-11017
▁enact	-11018
▁waves	-11019
▁mosque	-11020
arity	-11021
rises	-11022
▁leaf	-11023
▁humanitarian	-11024
▁garn	-11025
▁lung	-11026
▁operator	-11027
▁irregular	-11028
edia	-11029
oram	-11030
▁Ank	-11031
▁1915	-11032
▁Mans	-11033
▁Thank	-11034
▁aggreg	-11035
▁stunning	-11036
hir	-11037
ADMK	-11038
apat	-11039
ippi	-11040
▁Yed	-11041
▁topic	-11042
▁makeup	-11043
▁greatly	-11044
▁superior	-11045
▁questioning	-11046
▁pup	-11047
▁unw	-11048
▁1922	-11049
▁hors	-11050
acking	-11051
▁locked	-11052
▁reconst	-11053
rous	-11054
party	-11055
▁Birm	-11056
▁Lion	-11057
▁caps	-11058
▁consent	-11059
▁interviews	-11060
andra	-11061
▁penal	-11062
▁Nitish	-11063
▁conced	-11064
▁resumed	-11065
▁Viv	-11066
guard	-11067
▁Origin	-11068
▁Abdullah	-11069
▁Mitchell	-11070
▁defender	-11071
▁•	-11072
.20	-11073
ahan	-11074
▁Sit	-11075
▁1925	-11076
▁Morris	-11077
▁cousin	-11078
▁trophy	-11079
▁reverse	-11080
▁simultaneously	-11081
kan	-11082
▁KC	-11083
issa	-11084
▁Sym	-11085
piece	-11086
▁flav	-11087
▁Border	-11088
▁partially	-11089
▁presentation	-11090
hin	-11091
icut	-11092
orry	-11093
rine	-11094
▁Aur	-11095
unction	-11096
▁Alabama	-11097
▁existed	-11098
dam	-11099
▁dil	-11100
▁spr	-11101
▁slog	-11102
▁Austrian	-11103
▁absolute	-11104
▁Pawar	-11105
▁AIADMK	-11106
▁Studios	-11107
sequently	-11108
▁adaptation	-11109
▁Ragh	-11110
▁dump	-11111
▁outs	-11112
▁elite	-11113
▁Jaipur	-11114
▁burden	-11115
▁roster	-11116
▁89	-11117
▁escal	-11118
▁greet	-11119
▁noise	-11120
▁Birmingham	-11121
wat	-11122
ifty	-11123
▁Jimmy	-11124
▁disag	-11125
▁Freedom	-11126
megapixel	-11127
▁devotees	-11128
▁30-	-11129
▁fare	-11130
▁stocks	-11131
▁readers	-11132
▁Egyptian	-11133
▁aviation	-11134
▁thriller	-11135
▁subsidiary	-11136
▁violations	-11137
aux	-11138
alin	-11139
ridor	-11140
▁fever	-11141
--	-11142
div	-11143
▁Ug	-11144
▁1912	-11145
▁hearts	-11146
▁Cultural	-11147
▁referend	-11148
afe	-11149
▁MW	-11150
oded	-11151
▁tum	-11152
▁dust	-11153
achers	-11154
▁Works	-11155
▁topics	-11156
▁controls	-11157
▁detected	-11158
▁physically	-11159
▁celebrating	-11160
▁Dhar	-11161
▁Gallery	-11162
▁modified	-11163
turned	-11164
▁unions	-11165
▁Glasgow	-11166
▁Hindust	-11167
▁Tik	-11168
▁poem	-11169
apolis	-11170
▁incent	-11171
▁belonged	-11172
▁frequency	-11173
▁volunt	-11174
▁suggestions	-11175
▁neighbourhood	-11176
xts	-11177
zens	-11178
▁persu	-11179
▁Source	-11180
▁speakers	-11181
odia	-11182
vised	-11183
▁grave	-11184
▁poison	-11185
▁resolved	-11186
38	-11187
obe	-11188
▁sli	-11189
▁Says	-11190
istical	-11191
▁belongs	-11192
▁protecting	-11193
▁essentially	-11194
auc	-11195
ppy	-11196
▁170	-11197
▁Bey	-11198
front	-11199
▁knee	-11200
▁opera	-11201
▁Seattle	-11202
HS	-11203
isp	-11204
▁backing	-11205
▁92	-11206
▁Andy	-11207
▁collapsed	-11208
▁regulatory	-11209
cot	-11210
▁Chir	-11211
▁Coal	-11212
▁succ	-11213
▁Survey	-11214
▁Edinburgh	-11215
▁Lang	-11216
▁Support	-11217
▁regiment	-11218
▁Alan	-11219
▁chamber	-11220
65	-11221
▁Um	-11222
▁Arn	-11223
icians	-11224
▁foods	-11225
▁procure	-11226
▁corporation	-11227
TO	-11228
▁hect	-11229
▁piano	-11230
▁expenses	-11231
▁conventional	-11232
▁Communications	-11233
▁Pitts	-11234
▁cheap	-11235
▁premiere	-11236
▁AA	-11237
▁outlets	-11238
▁criteria	-11239
▁everyday	-11240
▁component	-11241
▁Pok	-11242
gence	-11243
▁Bhut	-11244
istent	-11245
▁expenditure	-11246
▁1,2	-11247
▁Cry	-11248
▁Comb	-11249
▁Mald	-11250
▁Cinem	-11251
▁Places	-11252
▁clients	-11253
▁undertaken	-11254
mund	-11255
ayana	-11256
▁Redmi	-11257
▁drain	-11258
▁loyal	-11259
▁slated	-11260
week	-11261
▁Jose	-11262
▁Ahmad	-11263
▁medicines	-11264
atma	-11265
ancies	-11266
▁Prevention	-11267
▁References	-11268
▁gh	-11269
▁Bench	-11270
▁Hawai	-11271
▁Heavy	-11272
▁Putin	-11273
▁funded	-11274
▁knowing	-11275
eals	-11276
zing	-11277
▁Row	-11278
▁nickn	-11279
▁Carter	-11280
▁Realme	-11281
▁sample	-11282
▁vocals	-11283
▁compound	-11284
▁reflected	-11285
▁incredible	-11286
▁Oh	-11287
▁Si	-11288
owder	-11289
▁Buff	-11290
▁Jason	-11291
▁layer	-11292
▁Airlines	-11293
Ms	-11294
itol	-11295
▁110	-11296
▁Hab	-11297
▁Rud	-11298
▁Seb	-11299
▁Till	-11300
▁grey	-11301
▁root	-11302
▁tune	-11303
▁Dalit	-11304
▁divers	-11305
▁saving	-11306
▁thinks	-11307
▁Jaitley	-11308
▁yes	-11309
entle	-11310
▁Emir	-11311
▁meal	-11312
▁themes	-11313
▁artistic	-11314
▁produces	-11315
▁inclusion	-11316
umph	-11317
▁CBSE	-11318
▁championships	-11319
Ah	-11320
▁2-0	-11321
▁Fel	-11322
roleum	-11323
▁Armed	-11324
▁Rugby	-11325
▁intim	-11326
▁lessons	-11327
▁telecom	-11328
▁resource	-11329
▁withdrew	-11330
ulum	-11331
▁fib	-11332
▁lunch	-11333
▁reads	-11334
▁convert	-11335
▁Magazine	-11336
▁comprises	-11337
agi	-11338
▁Wu	-11339
▁Phot	-11340
▁cogn	-11341
▁hosting	-11342
▁Abhishek	-11343
government	-11344
▁Charlotte	-11345
▁Christians	-11346
iffer	-11347
▁foss	-11348
▁deterior	-11349
▁Inspector	-11350
▁qualification	-11351
ocate	-11352
▁1923	-11353
▁Boys	-11354
lahoma	-11355
▁threw	-11356
borough	-11357
▁Compet	-11358
▁Peters	-11359
▁rehabilit	-11360
yas	-11361
▁feud	-11362
▁Lankan	-11363
▁butter	-11364
▁tragedy	-11365
▁Imperial	-11366
▁Caribbean	-11367
▁concerning	-11368
▁developers	-11369
,99	-11370
haar	-11371
▁nep	-11372
miral	-11373
▁moth	-11374
▁portrayed	-11375
.00	-11376
▁1916	-11377
▁extending	-11378
▁ber	-11379
▁rand	-11380
usalem	-11381
▁Amrit	-11382
▁buyers	-11383
▁colony	-11384
▁hidden	-11385
▁Hungary	-11386
▁sponsored	-11387
▁fo	-11388
dale	-11389
▁golf	-11390
▁shore	-11391
▁diabetes	-11392
▁expanding	-11393
▁literally	-11394
▁ourselves	-11395
▁telephone	-11396
▁Rid	-11397
mented	-11398
▁Justin	-11399
▁Vienna	-11400
▁rarely	-11401
atherine	-11402
▁dynasty	-11403
▁authentic	-11404
azar	-11405
erto	-11406
▁chip	-11407
▁insurg	-11408
▁bes	-11409
▁Woman	-11410
▁portfolio	-11411
oca	-11412
zed	-11413
▁ash	-11414
▁1926	-11415
▁Unit	-11416
▁rocket	-11417
iciaries	-11418
▁diversity	-11419
ski	-11420
▁DVD	-11421
▁jazz	-11422
▁Joshi	-11423
▁Chidamb	-11424
▁escaped	-11425
▁premier	-11426
▁inse	-11427
▁uncom	-11428
▁touched	-11429
▁severely	-11430
▁wildlife	-11431
▁automatic	-11432
▁Late	-11433
issance	-11434
▁Oklahoma	-11435
▁Princess	-11436
▁engineers	-11437
▁Vi	-11438
ppers	-11439
▁Fall	-11440
▁Kennedy	-11441
▁whenever	-11442
▁accordance	-11443
▁instrumental	-11444
hie	-11445
child	-11446
▁holy	-11447
▁tons	-11448
▁immune	-11449
▁trends	-11450
▁replied	-11451
▁quarters	-11452
▁Jerusalem	-11453
▁ecosystem	-11454
▁populations	-11455
RD	-11456
▁Cole	-11457
▁loud	-11458
▁Return	-11459
▁cm	-11460
▁traff	-11461
▁Online	-11462
▁casualties	-11463
bled	-11464
hara	-11465
orge	-11466
rama	-11467
▁wre	-11468
▁Aren	-11469
▁anth	-11470
▁Sangh	-11471
▁silence	-11472
▁artificial	-11473
▁Christopher	-11474
▁concentration	-11475
dri	-11476
▁Oscar	-11477
▁boards	-11478
▁Mississippi	-11479
▁politically	-11480
▁MI	-11481
bery	-11482
udes	-11483
▁bread	-11484
▁rebel	-11485
▁shoes	-11486
▁filmed	-11487
▁Universal	-11488
▁entrepreneurs	-11489
rov	-11490
▁ally	-11491
▁mild	-11492
▁Patil	-11493
▁fitted	-11494
▁asserted	-11495
▁calendar	-11496
▁translation	-11497
▁distinguished	-11498
48	-11499
▁Sac	-11500
▁1913	-11501
urappa	-11502
▁Chang	-11503
▁sequel	-11504
▁Protest	-11505
▁regulation	-11506
▁Vlad	-11507
▁Wang	-11508
▁accus	-11509
▁prompted	-11510
▁Louisiana	-11511
▁agreements	-11512
enz	-11513
vas	-11514
▁2-	-11515
oria	-11516
▁ages	-11517
▁raids	-11518
▁tanks	-11519
▁fairly	-11520
▁Standard	-11521
▁Unfortunately	-11522
ão	-11523
▁Summit	-11524
▁bowled	-11525
▁horror	-11526
▁united	-11527
▁Sug	-11528
▁emphasis	-11529
▁motorcycle	-11530
SO	-11531
▁py	-11532
▁assum	-11533
▁Douglas	-11534
▁ensured	-11535
▁locally	-11536
▁requests	-11537
▁workshop	-11538
▁explosion	-11539
ía	-11540
▁Chart	-11541
▁Account	-11542
▁suggesting	-11543
▁threatening	-11544
▁1.3	-11545
amese	-11546
▁error	-11547
▁assemb	-11548
▁unanim	-11549
▁upload	-11550
▁Players	-11551
▁theater	-11552
▁Brothers	-11553
▁5-	-11554
▁Case	-11555
▁Govt	-11556
▁proven	-11557
iability	-11558
▁reporter	-11559
▁Athletics	-11560
▁amendment	-11561
▁referendum	-11562
iph	-11563
asks	-11564
ican	-11565
▁Wol	-11566
archy	-11567
▁exha	-11568
▁quad	-11569
▁Barack	-11570
▁Reform	-11571
▁volumes	-11572
▁emotions	-11573
▁consensus	-11574
▁superstar	-11575
▁substitute	-11576
sa	-11577
how	-11578
rik	-11579
▁Gas	-11580
▁SBI	-11581
print	-11582
thiop	-11583
▁Must	-11584
▁Puerto	-11585
▁traded	-11586
▁imprison	-11587
▁ME	-11588
bage	-11589
▁Sans	-11590
▁coinc	-11591
▁charts	-11592
▁random	-11593
ellation	-11594
▁Cameron	-11595
▁Drug	-11596
▁puts	-11597
▁steal	-11598
▁Thanks	-11599
▁intend	-11600
▁survival	-11601
▁Zimb	-11602
▁fier	-11603
▁cater	-11604
▁Safety	-11605
▁client	-11606
▁commod	-11607
▁ML	-11608
▁Ni	-11609
avia	-11610
aland	-11611
▁NATO	-11612
aining	-11613
▁eleven	-11614
▁Wrestling	-11615
▁remarkable	-11616
hend	-11617
keep	-11618
▁Alban	-11619
▁Chaud	-11620
▁runner	-11621
▁decides	-11622
▁renowned	-11623
▁websites	-11624
▁conversion	-11625
▁nominations	-11626
dess	-11627
prof	-11628
uits	-11629
unes	-11630
▁Tend	-11631
▁crude	-11632
oning	-11633
▁flew	-11634
▁Masters	-11635
▁predomin	-11636
▁allocated	-11637
▁stakeholders	-11638
▁corresponding	-11639
▁Tej	-11640
▁vic	-11641
harth	-11642
▁1911	-11643
▁Bask	-11644
▁Puri	-11645
▁Money	-11646
▁bureauc	-11647
▁duration	-11648
lon	-11649
wall	-11650
▁Suz	-11651
akshi	-11652
olley	-11653
▁boot	-11654
▁mere	-11655
▁prayer	-11656
▁Technical	-11657
NC	-11658
hani	-11659
▁Hus	-11660
ranean	-11661
▁minds	-11662
▁mounted	-11663
▁signature	-11664
▁withdrawn	-11665
amma	-11666
▁jury	-11667
▁Gopal	-11668
▁cargo	-11669
▁scrut	-11670
▁Walker	-11671
▁striking	-11672
▁goalkeeper	-11673
▁manufactured	-11674
xit	-11675
▁Lane	-11676
▁Lear	-11677
▁wors	-11678
▁realise	-11679
▁Chidambaram	-11680
▁81	-11681
▁Dog	-11682
▁Yoga	-11683
▁vigil	-11684
▁tribes	-11685
▁whilst	-11686
cop	-11687
▁pa	-11688
▁Ish	-11689
▁Pon	-11690
isive	-11691
ounce	-11692
▁bags	-11693
▁booth	-11694
▁answers	-11695
▁demolished	-11696
▁128	-11697
▁Poly	-11698
▁Spir	-11699
▁encl	-11700
▁Squadron	-11701
▁youngsters	-11702
borne	-11703
▁Gaut	-11704
▁Stra	-11705
▁Nelson	-11706
▁choices	-11707
▁onwards	-11708
▁striker	-11709
▁electrical	-11710
▁unemployment	-11711
▁Parliamentary	-11712
uis	-11713
olds	-11714
▁Mant	-11715
utical	-11716
ensively	-11717
▁downtown	-11718
▁Frederick	-11719
▁temporarily	-11720
▁Soc	-11721
▁Tab	-11722
▁jet	-11723
oming	-11724
▁Trip	-11725
▁Akhil	-11726
▁Messi	-11727
▁Against	-11728
▁overnight	-11729
▁appreciated	-11730
▁Ll	-11731
▁Pub	-11732
▁Saw	-11733
ropri	-11734
▁Ethiop	-11735
▁recept	-11736
▁Finland	-11737
▁jointly	-11738
▁obviously	-11739
▁publications	-11740
▁beneficiaries	-11741
▁Cold	-11742
▁Battalion	-11743
hr	-11744
▁Bhat	-11745
▁fict	-11746
ported	-11747
▁Dance	-11748
▁Ashwin	-11749
▁Quebec	-11750
▁speculation	-11751
▁KK	-11752
abwe	-11753
cons	-11754
▁fro	-11755
▁Alber	-11756
▁Allah	-11757
▁Psych	-11758
▁parks	-11759
▁relie	-11760
▁deemed	-11761
▁Farmers	-11762
▁painter	-11763
▁humanity	-11764
ivan	-11765
imens	-11766
▁Crim	-11767
▁Lakh	-11768
▁Store	-11769
▁merger	-11770
▁Democrat	-11771
ader	-11772
▁Mong	-11773
▁sung	-11774
mother	-11775
▁Model	-11776
▁Montreal	-11777
▁suspects	-11778
▁jewellery	-11779
▁minorities	-11780
isk	-11781
▁nod	-11782
▁sail	-11783
shaped	-11784
▁eager	-11785
▁dressed	-11786
▁attractive	-11787
▁grandfather	-11788
aco	-11789
▁assists	-11790
▁chemistry	-11791
▁strategies	-11792
Fi	-11793
▁McM	-11794
▁Data	-11795
▁drove	-11796
▁batter	-11797
▁stance	-11798
▁Colonel	-11799
▁disappointed	-11800
▁discipline	-11801
▁Furthermore	-11802
64	-11803
▁Eight	-11804
▁Maine	-11805
▁Chaudh	-11806
▁tweets	-11807
▁ceremon	-11808
▁mandate	-11809
▁warrant	-11810
▁Cemetery	-11811
▁Zimbabwe	-11812
▁accidents	-11813
▁contacted	-11814
▁highlights	-11815
RF	-11816
nar	-11817
▁350	-11818
▁fet	-11819
rible	-11820
▁tension	-11821
▁detention	-11822
▁internationally	-11823
style	-11824
▁Pran	-11825
▁enorm	-11826
▁nearest	-11827
▁Resident	-11828
olo	-11829
anny	-11830
▁Pir	-11831
▁namely	-11832
▁Xi	-11833
list	-11834
▁Meth	-11835
▁Kapil	-11836
▁tremend	-11837
▁Sometimes	-11838
68	-11839
ouch	-11840
▁Workers	-11841
▁kingdom	-11842
▁Thiruvan	-11843
▁dependent	-11844
▁instructed	-11845
▁hanging	-11846
▁ignored	-11847
▁Campbell	-11848
▁entertain	-11849
alal	-11850
aping	-11851
▁1908	-11852
▁Bruce	-11853
▁Kenya	-11854
▁clashes	-11855
▁carefully	-11856
▁bio	-11857
▁Cell	-11858
▁Wing	-11859
▁dying	-11860
▁jumped	-11861
▁discharged	-11862
III	-11863
low	-11864
last	-11865
▁mang	-11866
▁opens	-11867
▁tunnel	-11868
▁undergo	-11869
▁Pictures	-11870
rix	-11871
▁Kot	-11872
▁patron	-11873
▁caution	-11874
▁reprodu	-11875
▁undergoing	-11876
omic	-11877
elect	-11878
▁Block	-11879
▁crypt	-11880
▁button	-11881
▁acquire	-11882
▁MG	-11883
iege	-11884
▁Bris	-11885
▁epic	-11886
▁epid	-11887
▁wage	-11888
aswamy	-11889
▁Qatar	-11890
▁surely	-11891
▁shocked	-11892
▁Himachal	-11893
▁innocent	-11894
▁contestants	-11895
gun	-11896
oric	-11897
uber	-11898
handed	-11899
▁tasks	-11900
▁gaining	-11901
aceutical	-11902
▁accompany	-11903
▁preventing	-11904
▁DJ	-11905
lude	-11906
▁BSP	-11907
▁ambitious	-11908
32	-11909
bow	-11910
uti	-11911
▁Beat	-11912
▁Noida	-11913
▁comed	-11914
▁edited	-11915
▁corrupt	-11916
▁marginal	-11917
▁militant	-11918
▁preserve	-11919
▁segments	-11920
▁difficulty	-11921
▁Kol	-11922
▁lev	-11923
▁sear	-11924
▁Kochi	-11925
▁enhanced	-11926
▁estimate	-11927
▁intercept	-11928
▁ox	-11929
▁exem	-11930
▁tips	-11931
▁Mahatma	-11932
▁counties	-11933
▁hardware	-11934
▁Yu	-11935
rets	-11936
▁Dad	-11937
▁1890	-11938
▁Imran	-11939
▁Everyone	-11940
▁policemen	-11941
67	-11942
FT	-11943
▁BB	-11944
anned	-11945
backs	-11946
▁leak	-11947
▁Mysuru	-11948
▁novels	-11949
▁chaired	-11950
▁confront	-11951
▁terminal	-11952
▁confusion	-11953
▁expertise	-11954
▁automatically	-11955
▁91	-11956
▁Emb	-11957
▁Vel	-11958
▁mit	-11959
▁Hell	-11960
▁Nord	-11961
▁buff	-11962
▁obser	-11963
ortunate	-11964
▁Leaders	-11965
▁trapped	-11966
▁kilometers	-11967
-22	-11968
.25	-11969
▁digit	-11970
▁nobody	-11971
▁universal	-11972
▁impression	-11973
mand	-11974
▁Shaw	-11975
▁Charlie	-11976
▁lawsuit	-11977
▁renewed	-11978
iler	-11979
▁Gran	-11980
▁evil	-11981
▁tiny	-11982
▁Baron	-11983
Ar	-11984
▁Storm	-11985
▁Kalyan	-11986
▁Arsenal	-11987
▁creates	-11988
▁focuses	-11989
▁guarantee	-11990
▁scholarship	-11991
▁preparations	-11992
▁Horn	-11993
▁Dublin	-11994
▁pounds	-11995
▁Hussain	-11996
▁Thompson	-11997
▁Ko	-11998
▁Bund	-11999
▁outdoor	-12000
▁imprisonment	-12001
.10	-12002
▁Mig	-12003
▁Shangh	-12004
▁revers	-12005
aturally	-12006
▁Aadhaar	-12007
▁accurate	-12008
cro	-12009
uli	-12010
▁Alt	-12011
stal	-12012
▁Minor	-12013
▁ports	-12014
▁divorce	-12015
▁condolences	-12016
apa	-12017
▁Kun	-12018
igate	-12019
▁Snow	-12020
▁lifetime	-12021
enh	-12022
pted	-12023
▁uncon	-12024
▁Graham	-12025
▁genetic	-12026
▁Coronavirus	-12027
▁extraordinary	-12028
gov	-12029
▁Ax	-12030
plus	-12031
▁Pav	-12032
▁supplement	-12033
▁contributing	-12034
▁140	-12035
▁Pin	-12036
▁stroke	-12037
▁Margaret	-12038
▁analysts	-12039
▁BP	-12040
andi	-12041
ricks	-12042
speed	-12043
▁Pent	-12044
▁rent	-12045
▁Living	-12046
▁cotton	-12047
anthapuram	-12048
▁intellectual	-12049
▁PA	-12050
▁Gir	-12051
▁angle	-12052
▁Baseball	-12053
▁surviving	-12054
▁Kur	-12055
pense	-12056
▁Plat	-12057
▁accum	-12058
▁Pandey	-12059
▁leaked	-12060
▁switched	-12061
▁Fab	-12062
otype	-12063
▁Kurd	-12064
▁Tower	-12065
▁voter	-12066
▁Dhawan	-12067
▁peaked	-12068
▁legislature	-12069
ded	-12070
esy	-12071
acon	-12072
▁Aqu	-12073
▁Wel	-12074
▁Rena	-12075
timore	-12076
▁lucky	-12077
▁styles	-12078
▁treaty	-12079
▁Relations	-12080
▁celebrity	-12081
▁Connecticut	-12082
duct	-12083
▁FBI	-12084
▁mad	-12085
askar	-12086
xiety	-12087
rection	-12088
▁Belgian	-12089
▁Challenge	-12090
▁kilometres	-12091
▁specialist	-12092
IMS	-12093
▁YS	-12094
gree	-12095
▁15-	-12096
▁spo	-12097
▁hole	-12098
▁shout	-12099
▁Lebanon	-12100
▁filming	-12101
▁preserved	-12102
▁allocation	-12103
▁24-	-12104
arency	-12105
▁palace	-12106
▁reserves	-12107
▁Programme	-12108
▁arguments	-12109
▁Pittsburgh	-12110
85	-12111
▁inclus	-12112
▁Bengali	-12113
▁attendance	-12114
utch	-12115
▁banner	-12116
▁rolled	-12117
▁Stewart	-12118
▁deposits	-12119
▁unexpected	-12120
FI	-12121
ampa	-12122
gate	-12123
orph	-12124
▁SUV	-12125
asury	-12126
onder	-12127
▁Thai	-12128
▁manip	-12129
▁expedition	-12130
▁proportion	-12131
▁luck	-12132
ennial	-12133
▁Serbia	-12134
▁stored	-12135
▁voices	-12136
▁achieving	-12137
42	-12138
riti	-12139
▁Raju	-12140
▁Applic	-12141
▁Shahid	-12142
▁Wright	-12143
iterranean	-12144
▁Baltimore	-12145
▁reservoir	-12146
arna	-12147
▁barely	-12148
▁Campaign	-12149
▁installation	-12150
few	-12151
ugs	-12152
▁1,0	-12153
attered	-12154
▁Motors	-12155
▁athlete	-12156
▁reactions	-12157
▁accommodate	-12158
▁constituted	-12159
imir	-12160
▁slot	-12161
▁robust	-12162
▁prevented	-12163
▁Distribution	-12164
bes	-12165
▁raped	-12166
▁Munich	-12167
▁improvements	-12168
org	-12169
▁Jin	-12170
▁NBC	-12171
▁Days	-12172
▁mobil	-12173
▁hybrid	-12174
▁academy	-12175
▁applying	-12176
▁institutional	-12177
rot	-12178
▁Adams	-12179
▁ambul	-12180
▁dubbed	-12181
▁maiden	-12182
▁expecting	-12183
▁naturally	-12184
▁mines	-12185
▁rated	-12186
▁ballot	-12187
▁barrel	-12188
▁handled	-12189
▁removing	-12190
▁Territory	-12191
▁transformation	-12192
▁Kos	-12193
▁Carm	-12194
▁clip	-12195
▁offence	-12196
▁delivering	-12197
auk	-12198
▁Dim	-12199
▁Toy	-12200
▁wash	-12201
▁Varun	-12202
▁Indira	-12203
▁listing	-12204
▁computers	-12205
MR	-12206
osph	-12207
alaya	-12208
ulkar	-12209
▁advisory	-12210
▁Cathedral	-12211
▁graduating	-12212
MI	-12213
def	-12214
▁Ult	-12215
raham	-12216
▁Benj	-12217
▁Plant	-12218
zi	-12219
▁Taj	-12220
▁hip	-12221
amped	-12222
▁Chan	-12223
▁liked	-12224
▁Concer	-12225
▁enemies	-12226
pol	-12227
rak	-12228
▁item	-12229
rounder	-12230
▁Xinhua	-12231
▁breaks	-12232
▁colors	-12233
▁Brooklyn	-12234
▁providers	-12235
▁Representative	-12236
din	-12237
igs	-12238
▁Heb	-12239
▁Gate	-12240
▁View	-12241
▁meals	-12242
▁cleaning	-12243
▁disorder	-12244
iki	-12245
▁Kum	-12246
▁Hope	-12247
▁tender	-12248
▁Student	-12249
▁playoffs	-12250
▁helicopter	-12251
▁Kay	-12252
▁Tak	-12253
▁Delta	-12254
▁argue	-12255
▁Shanghai	-12256
▁elevated	-12257
uds	-12258
wala	-12259
▁Gop	-12260
▁Mis	-12261
▁bone	-12262
▁datab	-12263
▁enabled	-12264
▁committees	-12265
obi	-12266
tes	-12267
roph	-12268
▁Kil	-12269
ouses	-12270
▁prol	-12271
▁urgent	-12272
▁thereafter	-12273
▁unfortunate	-12274
▁Aer	-12275
atore	-12276
▁Aamir	-12277
▁outer	-12278
▁subsc	-12279
▁Managing	-12280
▁Together	-12281
▁examined	-12282
▁Emergency	-12283
thes	-12284
▁lin	-12285
▁rupees	-12286
▁Bachelor	-12287
▁Portland	-12288
▁consistently	-12289
▁Mediterranean	-12290
98	-12291
.15	-12292
▁Guine	-12293
▁hills	-12294
▁signals	-12295
▁circular	-12296
▁earnings	-12297
▁lighting	-12298
▁diagnosed	-12299
airy	-12300
ulus	-12301
▁Gon	-12302
mense	-12303
▁Auto	-12304
▁Phoen	-12305
▁Verma	-12306
▁theore	-12307
▁amateur	-12308
▁labourers	-12309
▁girlfriend	-12310
▁laboratory	-12311
▁phenomenon	-12312
▁overwhelming	-12313
▁strengthening	-12314
▁PhD	-12315
▁grat	-12316
▁rect	-12317
▁mothers	-12318
▁incumbent	-12319
▁investigated	-12320
▁psychological	-12321
▁Gary	-12322
▁stere	-12323
▁Marshall	-12324
▁Robinson	-12325
▁nutrition	-12326
▁Ian	-12327
▁span	-12328
▁Mehta	-12329
▁chase	-12330
▁packed	-12331
▁resemb	-12332
▁vacant	-12333
▁youths	-12334
▁Katrina	-12335
▁opposing	-12336
37	-12337
▁Cu	-12338
▁NP	-12339
▁ma	-12340
▁Fat	-12341
▁Joy	-12342
rahim	-12343
▁customs	-12344
▁Railroad	-12345
▁nationals	-12346
▁collecting	-12347
▁Ary	-12348
▁Ted	-12349
▁Vive	-12350
▁worn	-12351
▁rhythm	-12352
▁listening	-12353
▁neighbours	-12354
▁nbs	-12355
▁bout	-12356
▁30,000	-12357
▁indirect	-12358
▁traditionally	-12359
▁na	-12360
hard	-12361
raid	-12362
▁Diam	-12363
▁evol	-12364
ulture	-12365
viously	-12366
▁slogans	-12367
▁Jen	-12368
rones	-12369
▁Pawan	-12370
▁charm	-12371
▁tribe	-12372
▁horses	-12373
▁excessive	-12374
▁remainder	-12375
acles	-12376
bishop	-12377
▁Baker	-12378
▁Years	-12379
▁essay	-12380
▁Arabic	-12381
▁Rajesh	-12382
▁Conserv	-12383
▁Athletic	-12384
▁flooding	-12385
▁experimental	-12386
iot	-12387
▁Sax	-12388
ubble	-12389
▁Bobby	-12390
▁poems	-12391
▁dispos	-12392
▁Stanley	-12393
▁immense	-12394
47	-12395
▁1905	-12396
▁Fight	-12397
▁canal	-12398
▁Rohing	-12399
▁Computer	-12400
▁enrolled	-12401
▁Broadcasting	-12402
deep	-12403
▁Hero	-12404
▁grav	-12405
▁icon	-12406
▁cream	-12407
▁smoke	-12408
▁irrigation	-12409
quer	-12410
itted	-12411
▁mock	-12412
elsius	-12413
▁opted	-12414
▁posed	-12415
▁safely	-12416
▁unclear	-12417
▁Mountains	-12418
▁implementing	-12419
▁je	-12420
▁Hai	-12421
▁abst	-12422
▁Brist	-12423
▁Yorks	-12424
▁maker	-12425
▁metro	-12426
▁muscle	-12427
jections	-12428
▁rolling	-12429
▁predecessor	-12430
idhi	-12431
▁penn	-12432
▁turb	-12433
▁unbeat	-12434
▁minimal	-12435
▁indicating	-12436
▁lap	-12437
arkar	-12438
ahu	-12439
isms	-12440
▁Kod	-12441
▁NIA	-12442
▁iOS	-12443
angel	-12444
antha	-12445
▁Banks	-12446
▁Veter	-12447
▁rever	-12448
▁steep	-12449
▁Ladakh	-12450
▁medieval	-12451
▁Tendulkar	-12452
bane	-12453
idav	-12454
▁CNN	-12455
▁hin	-12456
▁Blood	-12457
▁Formula	-12458
▁Nash	-12459
▁Arena	-12460
▁reluct	-12461
▁projected	-12462
▁Yug	-12463
▁Ottoman	-12464
▁erected	-12465
XT	-12466
▁JN	-12467
awei	-12468
▁Tob	-12469
▁grid	-12470
▁forever	-12471
▁Buddhist	-12472
▁approaches	-12473
▁capability	-12474
ci	-12475
▁LG	-12476
andy	-12477
▁sin	-12478
▁mail	-12479
▁grows	-12480
amation	-12481
president	-12482
dest	-12483
mind	-12484
▁nic	-12485
▁Rama	-12486
▁Lions	-12487
▁anxiety	-12488
▁Yorkshire	-12489
▁announcing	-12490
▁observation	-12491
▁Gaur	-12492
▁Lith	-12493
▁arbit	-12494
▁imports	-12495
▁identical	-12496
▁Lax	-12497
▁Mort	-12498
▁torn	-12499
▁decrease	-12500
▁livelihood	-12501
IDS	-12502
had	-12503
▁Type	-12504
▁owns	-12505
astery	-12506
keeper	-12507
▁describing	-12508
▁demonstration	-12509
umi	-12510
omed	-12511
▁Cad	-12512
oping	-12513
▁1907	-12514
▁setup	-12515
friendly	-12516
▁chicken	-12517
▁evolved	-12518
▁provinces	-12519
▁photography	-12520
33	-12521
ending	-12522
▁Album	-12523
▁Bloom	-12524
▁toxic	-12525
▁midnight	-12526
▁railroad	-12527
▁occasionally	-12528
idal	-12529
▁Roc	-12530
kumar	-12531
▁pist	-12532
▁Future	-12533
▁VI	-12534
▁Dod	-12535
▁Mix	-12536
▁revival	-12537
▁Benjamin	-12538
days	-12539
larg	-12540
▁chronic	-12541
omp	-12542
▁AG	-12543
▁Lod	-12544
▁Films	-12545
▁Agreement	-12546
▁perfectly	-12547
▁compliance	-12548
iev	-12549
alla	-12550
▁Cou	-12551
atson	-12552
▁Drive	-12553
▁Marie	-12554
▁bases	-12555
▁batch	-12556
▁Huawei	-12557
▁Tigers	-12558
▁openly	-12559
▁harvest	-12560
▁explanation	-12561
OT	-12562
sm	-12563
▁1.4	-12564
▁Corp	-12565
▁repr	-12566
▁trio	-12567
▁Adela	-12568
▁Snapd	-12569
▁Brexit	-12570
▁dynamic	-12571
▁counting	-12572
▁Beh	-12573
▁Cab	-12574
opping	-12575
▁irres	-12576
▁lobby	-12577
▁stops	-12578
uscript	-12579
▁Annual	-12580
▁hunger	-12581
▁profits	-12582
▁Tang	-12583
▁bombs	-12584
▁Tehran	-12585
▁summon	-12586
▁suspic	-12587
▁criminals	-12588
▁fishermen	-12589
thal	-12590
▁bay	-12591
being	-12592
▁Laur	-12593
▁NDTV	-12594
▁Kangana	-12595
▁junction	-12596
▁Quest	-12597
▁Orthodox	-12598
▁FY	-12599
▁Desh	-12600
▁Dick	-12601
elected	-12602
▁Hassan	-12603
▁Treaty	-12604
▁strictly	-12605
ré	-12606
▁Chad	-12607
▁Karl	-12608
▁logo	-12609
▁Carlos	-12610
▁thanked	-12611
▁councill	-12612
▁PR	-12613
story	-12614
▁Sara	-12615
▁Vikas	-12616
▁disin	-12617
▁exempt	-12618
▁invested	-12619
▁receives	-12620
.50	-12621
▁curric	-12622
▁steady	-12623
▁Capitol	-12624
▁posting	-12625
▁rallies	-12626
forcement	-12627
▁displays	-12628
▁measured	-12629
▁squadron	-12630
▁decorated	-12631
▁complicated	-12632
44	-12633
rip	-12634
step	-12635
icting	-12636
▁Instit	-12637
▁solely	-12638
▁regardless	-12639
▁associations	-12640
boy	-12641
▁fol	-12642
acular	-12643
▁Nature	-12644
▁imagine	-12645
▁reflects	-12646
OW	-12647
▁fu	-12648
▁fel	-12649
leans	-12650
▁Scheme	-12651
▁pilots	-12652
▁observe	-12653
▁elevation	-12654
▁Adityanath	-12655
▁enterprise	-12656
▁uncertainty	-12657
jo	-12658
▁	-12659
hav	-12660
▁Bond	-12661
▁Ivan	-12662
▁seam	-12663
market	-12664
▁gallery	-12665
▁Planning	-12666
▁adoption	-12667
28	-12668
eav	-12669
eness	-12670
▁Mind	-12671
▁mamm	-12672
▁burst	-12673
▁crashed	-12674
▁ultimate	-12675
▁Hungarian	-12676
▁migration	-12677
acts	-12678
oves	-12679
▁1904	-12680
▁Drav	-12681
▁pose	-12682
▁tale	-12683
master	-12684
▁smile	-12685
▁Working	-12686
▁concerts	-12687
▁contacts	-12688
63	-12689
wad	-12690
rowing	-12691
▁walks	-12692
▁orange	-12693
▁alleging	-12694
▁backdrop	-12695
▁rational	-12696
▁Hindustan	-12697
▁progressive	-12698
olt	-12699
ocols	-12700
odhya	-12701
▁Canal	-12702
▁Rules	-12703
▁conce	-12704
▁Alfred	-12705
▁noting	-12706
▁sealed	-12707
▁Celsius	-12708
▁Arkansas	-12709
▁clearance	-12710
▁ingredients	-12711
nu	-12712
araman	-12713
▁4,000	-12714
▁Match	-12715
▁Johnny	-12716
▁repeat	-12717
▁Friends	-12718
▁departed	-12719
▁equality	-12720
▁governing	-12721
▁topped	-12722
▁deposit	-12723
▁drought	-12724
▁ideology	-12725
▁residing	-12726
▁throwing	-12727
▁artillery	-12728
▁accommodation	-12729
rack	-12730
seud	-12731
uchi	-12732
andum	-12733
wicket	-12734
▁minim	-12735
▁strain	-12736
▁savings	-12737
▁wireless	-12738
▁CSK	-12739
▁sar	-12740
bridge	-12741
▁config	-12742
▁Ayodhya	-12743
▁affidav	-12744
▁hunting	-12745
▁wealthy	-12746
▁enjoying	-12747
27	-12748
rac	-12749
▁Rhe	-12750
▁1880	-12751
▁1906	-12752
▁Mend	-12753
▁cens	-12754
▁lens	-12755
▁dealt	-12756
▁loves	-12757
▁resid	-12758
▁embarr	-12759
▁emerge	-12760
▁universe	-12761
▁exercises	-12762
▁substance	-12763
▁tremendous	-12764
hai	-12765
mers	-12766
▁Ghosh	-12767
▁craft	-12768
▁tablet	-12769
▁alternate	-12770
ortheastern	-12771
mn	-12772
phal	-12773
umps	-12774
▁Gog	-12775
▁Gol	-12776
▁cub	-12777
▁Khal	-12778
▁tear	-12779
author	-12780
▁marty	-12781
▁shower	-12782
▁harmony	-12783
▁embarrass	-12784
▁Throughout	-12785
NL	-12786
fly	-12787
▁Guy	-12788
▁Kor	-12789
isons	-12790
▁CCTV	-12791
▁Gamb	-12792
▁Yash	-12793
avalry	-12794
▁Grade	-12795
▁Manish	-12796
▁Bristol	-12797
▁integration	-12798
49	-12799
aho	-12800
▁NI	-12801
▁TH	-12802
gets	-12803
hill	-12804
▁instant	-12805
▁feedback	-12806
▁necessarily	-12807
29	-12808
,999	-12809
▁Hend	-12810
▁nose	-12811
riages	-12812
▁Racing	-12813
▁Kareena	-12814
▁ratings	-12815
▁intensity	-12816
▁Fun	-12817
arshan	-12818
gorith	-12819
▁Record	-12820
▁dozens	-12821
▁Adelaide	-12822
▁integrity	-12823
rar	-12824
▁Pud	-12825
▁Sou	-12826
grims	-12827
▁1902	-12828
▁Yogi	-12829
▁arena	-12830
▁quota	-12831
▁nephew	-12832
▁Partners	-12833
▁assisted	-12834
▁perceived	-12835
▁sentiment	-12836
▁Tu	-12837
anner	-12838
▁Flip	-12839
▁Jade	-12840
▁Saif	-12841
▁buzz	-12842
▁nbsp	-12843
▁floors	-12844
▁Century	-12845
▁triumph	-12846
▁Wildlife	-12847
▁fantastic	-12848
▁reiterated	-12849
▁declaration	-12850
felt	-12851
▁Ald	-12852
▁cum	-12853
▁gal	-12854
breaking	-12855
▁Jonathan	-12856
▁stranded	-12857
▁certified	-12858
▁economies	-12859
▁anticipated	-12860
▁Mak	-12861
▁bonds	-12862
▁sanct	-12863
▁paired	-12864
▁Hundred	-12865
▁Orleans	-12866
▁confron	-12867
▁immunity	-12868
▁affecting	-12869
▁headlines	-12870
▁reasonable	-12871
eren	-12872
▁Jav	-12873
▁Pel	-12874
▁dad	-12875
▁Gaza	-12876
▁Mine	-12877
▁loot	-12878
agonist	-12879
▁guards	-12880
▁embassy	-12881
▁managers	-12882
▁Nan	-12883
▁Vaj	-12884
▁Liga	-12885
▁Marx	-12886
▁asset	-12887
atories	-12888
▁Method	-12889
▁cement	-12890
▁enormous	-12891
▁prescribed	-12892
ucks	-12893
▁Bapt	-12894
castle	-12895
▁Evans	-12896
▁fifty	-12897
▁drafted	-12898
▁examine	-12899
▁licence	-12900
▁applicable	-12901
▁LA	-12902
orig	-12903
▁Dear	-12904
▁curb	-12905
▁Using	-12906
▁fault	-12907
▁panic	-12908
▁Nicholas	-12909
▁settlements	-12910
dig	-12911
▁sab	-12912
▁Bron	-12913
▁Prag	-12914
▁Opera	-12915
▁Orange	-12916
▁Abraham	-12917
▁upgrade	-12918
▁victories	-12919
zb	-12920
▁1909	-12921
▁Kart	-12922
▁Pink	-12923
▁sang	-12924
▁rupee	-12925
▁spike	-12926
▁phases	-12927
▁Mahindra	-12928
▁accepting	-12929
▁directing	-12930
opes	-12931
▁Sak	-12932
angle	-12933
▁Robin	-12934
▁15,000	-12935
▁Whether	-12936
▁mechanical	-12937
▁tob	-12938
erves	-12939
rogen	-12940
▁blank	-12941
▁Gautam	-12942
▁Climate	-12943
cap	-12944
▁CBS	-12945
▁Monte	-12946
▁Corpor	-12947
▁Ronaldo	-12948
▁mixture	-12949
▁nervous	-12950
▁succumb	-12951
▁Brisbane	-12952
▁accusing	-12953
▁Southeast	-12954
▁meanwhile	-12955
▁deployment	-12956
▁sanctioned	-12957
▁Municipality	-12958
cor	-12959
▁Celeb	-12960
▁Hispan	-12961
▁Phoenix	-12962
▁genuine	-12963
▁placing	-12964
▁furniture	-12965
uman	-12966
▁1.6	-12967
▁Dak	-12968
eenth	-12969
▁Nazi	-12970
▁Shel	-12971
leased	-12972
▁urging	-12973
▁Jayalal	-12974
▁desired	-12975
▁backward	-12976
▁commenced	-12977
▁introducing	-12978
▁identification	-12979
lee	-12980
ught	-12981
▁Ice	-12982
stage	-12983
▁Soft	-12984
▁griev	-12985
▁recall	-12986
▁marking	-12987
▁traveled	-12988
▁unbeaten	-12989
▁Directors	-12990
▁	-12991
amo	-12992
▁GT	-12993
▁Bij	-12994
▁TRS	-12995
▁toss	-12996
arents	-12997
▁Coimb	-12998
▁plain	-12999
ication	-13000
▁Vikram	-13001
▁integral	-13002
▁settings	-13003
▁Venezuela	-13004
▁functional	-13005
rup	-13006
▁Kaur	-13007
▁drives	-13008
▁thirty	-13009
communic	-13010
▁Ranveer	-13011
77	-13012
ahn	-13013
▁Cert	-13014
▁reass	-13015
▁careful	-13016
▁sexually	-13017
▁Orchestra	-13018
▁conviction	-13019
iaz	-13020
uez	-13021
arus	-13022
atti	-13023
hetic	-13024
verage	-13025
▁Circle	-13026
▁Editor	-13027
▁Others	-13028
▁infect	-13029
▁preval	-13030
▁filling	-13031
▁inmates	-13032
▁picking	-13033
▁1903	-13034
▁stir	-13035
▁trig	-13036
akumar	-13037
▁texts	-13038
▁wheat	-13039
▁Airtel	-13040
▁2019-20	-13041
▁compuls	-13042
▁monetary	-13043
▁Mangaluru	-13044
▁afterwards	-13045
▁researcher	-13046
eni	-13047
eri	-13048
mus	-13049
oub	-13050
▁fertil	-13051
▁laptop	-13052
▁neglig	-13053
▁testim	-13054
▁consultant	-13055
▁Nevertheless	-13056
ews	-13057
ancer	-13058
stars	-13059
▁Ring	-13060
▁Utah	-13061
▁reopen	-13062
▁ceiling	-13063
▁inducted	-13064
▁mistakes	-13065
▁rankings	-13066
▁unnecess	-13067
▁protocols	-13068
high	-13069
orus	-13070
qual	-13071
▁jaw	-13072
▁Alia	-13073
▁Salv	-13074
▁abund	-13075
▁Bhopal	-13076
▁imported	-13077
▁presents	-13078
▁pel	-13079
▁overt	-13080
▁wards	-13081
▁Chancellor	-13082
cca	-13083
▁PG	-13084
opard	-13085
▁Baby	-13086
▁stom	-13087
▁Watson	-13088
▁heroes	-13089
▁arrives	-13090
▁campaigning	-13091
▁LGB	-13092
urred	-13093
▁Sure	-13094
▁radar	-13095
▁Mysore	-13096
▁survivors	-13097
▁Jayalalitha	-13098
▁RR	-13099
word	-13100
▁Cass	-13101
▁Djok	-13102
▁halt	-13103
azines	-13104
▁Crist	-13105
▁Vegas	-13106
▁forum	-13107
▁Marvel	-13108
▁breach	-13109
▁venues	-13110
▁tracking	-13111
▁fictional	-13112
▁traveling	-13113
▁trucks	-13114
▁credits	-13115
▁entities	-13116
▁memorable	-13117
vir	-13118
was	-13119
▁Dix	-13120
▁Nave	-13121
▁endang	-13122
▁wished	-13123
▁Fem	-13124
▁Isa	-13125
alymp	-13126
▁cave	-13127
▁powder	-13128
▁streak	-13129
▁interpre	-13130
▁manuscript	-13131
▁municipalities	-13132
GS	-13133
bus	-13134
emia	-13135
▁DEL	-13136
▁Lag	-13137
nders	-13138
▁fails	-13139
▁moist	-13140
▁suprem	-13141
▁Primary	-13142
▁tobacco	-13143
▁adventure	-13144
▁aftermath	-13145
▁clarified	-13146
si	-13147
▁abdu	-13148
▁flaw	-13149
▁timing	-13150
▁peoples	-13151
▁hectares	-13152
▁Companies	-13153
▁convenient	-13154
▁recordings	-13155
▁Grey	-13156
▁Very	-13157
▁Total	-13158
ampshire	-13159
▁commune	-13160
▁animated	-13161
▁missiles	-13162
▁everywhere	-13163
▁legislators	-13164
▁mathematics	-13165
▁LED	-13166
▁bombing	-13167
▁emotion	-13168
▁protective	-13169
▁Ze	-13170
▁3-0	-13171
▁sew	-13172
owski	-13173
▁Rank	-13174
▁Wimb	-13175
▁oath	-13176
▁Catal	-13177
▁landsl	-13178
▁sparked	-13179
▁airports	-13180
▁algorith	-13181
▁reliable	-13182
▁Arunachal	-13183
▁presidency	-13184
▁continuously	-13185
▁×	-13186
ihad	-13187
▁Slam	-13188
▁hind	-13189
ansing	-13190
oining	-13191
▁Gabri	-13192
▁Sharif	-13193
▁Broadway	-13194
▁Djokovic	-13195
▁Liberation	-13196
▁discussing	-13197
▁instruction	-13198
▁Conservation	-13199
dar	-13200
ledon	-13201
▁Cuba	-13202
▁Mack	-13203
minton	-13204
▁retreat	-13205
▁Colombia	-13206
▁Hampshire	-13207
▁consultation	-13208
39	-13209
86	-13210
gic	-13211
▁DI	-13212
heet	-13213
▁Inv	-13214
▁Rot	-13215
▁Merc	-13216
engers	-13217
ushing	-13218
▁imper	-13219
▁Bright	-13220
▁grants	-13221
ean	-13222
pha	-13223
▁Jy	-13224
rank	-13225
▁Neg	-13226
▁gam	-13227
▁Come	-13228
ussels	-13229
▁burned	-13230
▁rebell	-13231
▁remake	-13232
▁unrest	-13233
▁gardens	-13234
▁OP	-13235
▁NRC	-13236
▁desk	-13237
▁kiss	-13238
▁Dharm	-13239
▁Nearly	-13240
▁myster	-13241
▁Wrestle	-13242
▁anybody	-13243
▁bedroom	-13244
▁pursuing	-13245
▁cricketers	-13246
▁Viol	-13247
▁horn	-13248
▁Serge	-13249
▁Enterpr	-13250
▁revenues	-13251
▁shocking	-13252
▁illegally	-13253
31	-13254
▁Ji	-13255
▁Jas	-13256
▁Log	-13257
▁tel	-13258
emics	-13259
phony	-13260
▁Change	-13261
▁default	-13262
▁treating	-13263
ds	-13264
wart	-13265
hattan	-13266
▁Draft	-13267
▁Schol	-13268
▁Yugosl	-13269
▁closest	-13270
▁devoted	-13271
▁slammed	-13272
▁Insurance	-13273
▁Resources	-13274
▁economics	-13275
▁Production	-13276
▁disappoint	-13277
berry	-13278
▁dism	-13279
▁Nobel	-13280
▁fires	-13281
▁afraid	-13282
▁impose	-13283
▁notices	-13284
▁perception	-13285
▁1.7	-13286
▁Rif	-13287
▁Fine	-13288
heless	-13289
terior	-13290
▁Phase	-13291
▁excav	-13292
▁Things	-13293
▁Northeast	-13294
▁societies	-13295
▁Originally	-13296
▁extensively	-13297
36	-13298
usc	-13299
▁Seth	-13300
▁hook	-13301
former	-13302
▁Romania	-13303
▁passport	-13304
▁4-	-13305
spec	-13306
▁haz	-13307
▁Bath	-13308
▁harsh	-13309
founder	-13310
▁Warren	-13311
▁fights	-13312
▁sensit	-13313
▁Federer	-13314
▁Housing	-13315
▁conting	-13316
▁transit	-13317
▁vacation	-13318
▁architectural	-13319
34	-13320
oard	-13321
▁Rit	-13322
▁bell	-13323
▁compiled	-13324
▁landmark	-13325
▁motivated	-13326
nia	-13327
comes	-13328
caster	-13329
▁trips	-13330
ourable	-13331
▁kidney	-13332
▁2020-21	-13333
▁Starting	-13334
▁Manhattan	-13335
▁propaganda	-13336
▁coordination	-13337
▁Vic	-13338
▁Stars	-13339
▁guess	-13340
▁panels	-13341
▁bridges	-13342
▁expects	-13343
▁revenge	-13344
▁surpass	-13345
▁confused	-13346
▁protocol	-13347
▁broadcasting	-13348
▁transparency	-13349
occ	-13350
uram	-13351
▁Bil	-13352
▁Din	-13353
cient	-13354
orient	-13355
▁Fleet	-13356
▁Fried	-13357
▁Speed	-13358
▁lineup	-13359
▁pipeline	-13360
▁surrender	-13361
▁intersection	-13362
▁ON	-13363
▁Stu	-13364
▁shadow	-13365
aternity	-13366
▁Reports	-13367
▁declare	-13368
▁abilities	-13369
▁contesting	-13370
▁rely	-13371
▁curfew	-13372
▁classification	-13373
ür	-13374
iox	-13375
▁TC	-13376
oust	-13377
onomic	-13378
rained	-13379
▁Manoj	-13380
▁rocks	-13381
▁Persian	-13382
▁Kov	-13383
▁enters	-13384
▁Ibrahim	-13385
▁Amarinder	-13386
▁successive	-13387
aku	-13388
jah	-13389
mits	-13390
onal	-13391
▁lip	-13392
▁Creat	-13393
▁Karun	-13394
▁Seoul	-13395
▁Wayne	-13396
▁Sector	-13397
▁compan	-13398
▁manual	-13399
▁bearing	-13400
▁disputed	-13401
▁references	-13402
▁certificates	-13403
▁HP	-13404
emon	-13405
▁1.1	-13406
▁11-	-13407
▁IFSC	-13408
▁Activ	-13409
▁tables	-13410
▁sacrifice	-13411
▁structural	-13412
▁conversations	-13413
BO	-13414
▁Got	-13415
▁Jai	-13416
▁Ras	-13417
inite	-13418
▁1901	-13419
▁Kate	-13420
▁bulk	-13421
teenth	-13422
▁25,000	-13423
▁absent	-13424
▁unfair	-13425
▁Germans	-13426
▁coupled	-13427
▁descent	-13428
▁varieties	-13429
▁BR	-13430
▁CR	-13431
▁Imm	-13432
▁Use	-13433
▁hug	-13434
abling	-13435
▁Barry	-13436
pending	-13437
▁Sister	-13438
▁Steven	-13439
▁Revenue	-13440
▁Paralymp	-13441
▁merchant	-13442
▁violating	-13443
▁biological	-13444
▁undergraduate	-13445
▁1.8	-13446
▁maps	-13447
▁pole	-13448
▁Perry	-13449
▁stint	-13450
persons	-13451
▁Leices	-13452
hibition	-13453
▁strange	-13454
▁bacteria	-13455
▁quantity	-13456
▁factories	-13457
▁breakthrough	-13458
dist	-13459
offs	-13460
▁165	-13461
▁Nirm	-13462
▁destro	-13463
▁suburb	-13464
▁Officers	-13465
▁vertical	-13466
▁soundtrack	-13467
yar	-13468
bach	-13469
rape	-13470
▁Fif	-13471
▁funny	-13472
▁retali	-13473
▁commence	-13474
▁evaluation	-13475
▁transparent	-13476
▁KP	-13477
▁1,500	-13478
▁Blues	-13479
▁Socialist	-13480
▁Wimbledon	-13481
yang	-13482
▁pap	-13483
anguly	-13484
utives	-13485
▁teeth	-13486
▁gentle	-13487
▁housed	-13488
▁parade	-13489
▁prospect	-13490
▁deliveries	-13491
▁AE	-13492
▁TO	-13493
urse	-13494
▁Bhavan	-13495
▁shrine	-13496
▁allotted	-13497
▁proteins	-13498
▁Coimbatore	-13499
▁circulation	-13500
nav	-13501
▁16-	-13502
icular	-13503
▁insult	-13504
▁Systems	-13505
▁partial	-13506
▁explicit	-13507
▁provider	-13508
▁showcase	-13509
▁physician	-13510
▁18-	-13511
▁Nev	-13512
enter	-13513
▁Resp	-13514
▁bund	-13515
▁noble	-13516
▁wages	-13517
lington	-13518
▁kicked	-13519
▁shield	-13520
▁Punjabi	-13521
▁rivalry	-13522
▁interpretation	-13523
ombo	-13524
amine	-13525
ouver	-13526
payee	-13527
▁LGBT	-13528
▁Commons	-13529
▁Shortly	-13530
▁Argentine	-13531
▁Meghalaya	-13532
▁prospects	-13533
AI	-13534
erals	-13535
shore	-13536
▁Himal	-13537
▁recur	-13538
▁Fellow	-13539
▁endeav	-13540
▁cyclone	-13541
kg	-13542
▁AK	-13543
▁MT	-13544
▁ft	-13545
conn	-13546
enders	-13547
▁relay	-13548
▁Factor	-13549
▁specially	-13550
▁petitioner	-13551
ande	-13552
ohar	-13553
▁IPC	-13554
▁Ghana	-13555
▁Moroc	-13556
▁Hunter	-13557
▁faction	-13558
▁realized	-13559
▁subscrib	-13560
▁satisfied	-13561
▁lieutenant	-13562
eway	-13563
oons	-13564
rill	-13565
▁Shir	-13566
▁Raman	-13567
▁acute	-13568
▁Deepak	-13569
▁thread	-13570
▁pilgrims	-13571
kal	-13572
anian	-13573
celand	-13574
▁Azerb	-13575
▁Rodrig	-13576
▁Sensex	-13577
▁culmin	-13578
▁Bernard	-13579
▁touring	-13580
▁underwent	-13581
▁recommendation	-13582
emi	-13583
▁IG	-13584
▁Bash	-13585
▁Shuk	-13586
▁riot	-13587
▁yard	-13588
▁Guinea	-13589
▁smoking	-13590
▁convince	-13591
▁overlook	-13592
▁magazines	-13593
▁responses	-13594
ags	-13595
raw	-13596
voy	-13597
▁Eb	-13598
igns	-13599
rith	-13600
▁alien	-13601
▁Rangers	-13602
▁broader	-13603
▁Vladimir	-13604
▁sciences	-13605
▁Pi	-13606
▁WC	-13607
rams	-13608
▁Rath	-13609
▁Yang	-13610
icated	-13611
▁Stage	-13612
apatnam	-13613
itement	-13614
▁Valent	-13615
▁circles	-13616
62	-13617
orf	-13618
▁Cond	-13619
▁honey	-13620
▁bankrupt	-13621
▁violated	-13622
▁conflicts	-13623
▁disappear	-13624
▁recruited	-13625
▁Operations	-13626
69	-13627
HD	-13628
lie	-13629
hari	-13630
▁1870	-13631
▁assert	-13632
munition	-13633
▁romance	-13634
▁disputes	-13635
▁engaging	-13636
▁inclusive	-13637
▁machinery	-13638
Mus	-13639
▁TN	-13640
shire	-13641
▁Magn	-13642
▁Gowda	-13643
▁litre	-13644
▁Spirit	-13645
▁brutal	-13646
▁Ganguly	-13647
▁Harrison	-13648
▁publisher	-13649
▁Hud	-13650
▁Lot	-13651
▁Thi	-13652
▁ump	-13653
▁beef	-13654
▁Billy	-13655
▁Leeds	-13656
▁bitter	-13657
▁Azerbai	-13658
▁Circuit	-13659
▁donations	-13660
▁eliminate	-13661
var	-13662
eshi	-13663
▁DELHI	-13664
▁Thous	-13665
▁bagged	-13666
▁endemic	-13667
▁distinction	-13668
lit	-13669
uba	-13670
▁Vanc	-13671
▁ordin	-13672
▁Stalin	-13673
▁Triple	-13674
▁crowds	-13675
▁Complex	-13676
▁Perhaps	-13677
▁pleased	-13678
▁originated	-13679
bin	-13680
nut	-13681
▁Neb	-13682
▁Tes	-13683
itated	-13684
▁queen	-13685
ctorate	-13686
▁indoor	-13687
▁mystery	-13688
▁nominee	-13689
▁weakness	-13690
grim	-13691
▁Gos	-13692
▁Hav	-13693
ushan	-13694
▁Boeing	-13695
▁planted	-13696
▁shouldn	-13697
▁photographer	-13698
▁rehabilitation	-13699
61	-13700
inho	-13701
▁Ved	-13702
▁Dutt	-13703
▁clay	-13704
▁Index	-13705
▁honorary	-13706
▁Victorian	-13707
▁guitarist	-13708
▁Eventually	-13709
▁graduation	-13710
▁transformed	-13711
Th	-13712
isers	-13713
▁Azad	-13714
▁beer	-13715
▁Aaron	-13716
▁Nifty	-13717
▁audit	-13718
▁Denver	-13719
▁advers	-13720
▁Jawahar	-13721
▁arrests	-13722
▁nursing	-13723
▁shipping	-13724
▁Snapdragon	-13725
▁transaction	-13726
▁Environmental	-13727
kers	-13728
▁Pow	-13729
▁Sunny	-13730
▁Advani	-13731
▁lesser	-13732
▁Serbian	-13733
▁casting	-13734
▁Interestingly	-13735
▁characterized	-13736
oop	-13737
▁DM	-13738
char	-13739
kart	-13740
▁Cha	-13741
▁Peru	-13742
▁tens	-13743
▁grace	-13744
▁liver	-13745
▁compromise	-13746
▁specifications	-13747
▁UT	-13748
gaon	-13749
▁Ton	-13750
▁cock	-13751
iatric	-13752
▁Range	-13753
▁Agarwal	-13754
▁leather	-13755
▁Vancouver	-13756
▁procession	-13757
tz	-13758
eath	-13759
lane	-13760
▁fron	-13761
▁sket	-13762
▁discontin	-13763
▁searching	-13764
post	-13765
ensing	-13766
▁Studio	-13767
▁feared	-13768
▁varied	-13769
▁dispers	-13770
▁inflamm	-13771
▁Brussels	-13772
▁destinations	-13773
airo	-13774
auge	-13775
▁101	-13776
▁oct	-13777
chief	-13778
▁AIDS	-13779
▁Cart	-13780
▁radi	-13781
ampton	-13782
▁lease	-13783
▁merit	-13784
itional	-13785
▁Playing	-13786
▁Theater	-13787
▁manages	-13788
▁MB	-13789
▁SH	-13790
orey	-13791
▁Own	-13792
▁Sut	-13793
plant	-13794
▁Kund	-13795
▁Quar	-13796
▁Room	-13797
ometown	-13798
▁Iceland	-13799
88	-13800
▁105	-13801
▁Suk	-13802
▁prox	-13803
▁seal	-13804
▁urge	-13805
rorism	-13806
▁chaos	-13807
▁copper	-13808
▁invite	-13809
▁opinions	-13810
▁territorial	-13811
▁IAF	-13812
▁enqu	-13813
▁trace	-13814
▁Lahore	-13815
▁Critical	-13816
▁railways	-13817
▁invitation	-13818
FF	-13819
LP	-13820
▁DD	-13821
case	-13822
▁Burg	-13823
▁Self	-13824
▁freed	-13825
▁checks	-13826
▁adverse	-13827
▁dignity	-13828
▁dropping	-13829
▁Indonesian	-13830
▁manufacture	-13831
▁determination	-13832
oshi	-13833
▁Pom	-13834
acter	-13835
▁Neil	-13836
▁genes	-13837
▁tours	-13838
▁argues	-13839
▁counts	-13840
▁matern	-13841
▁theories	-13842
▁respected	-13843
▁Dw	-13844
▁Stev	-13845
vanced	-13846
▁bonus	-13847
▁chore	-13848
▁physics	-13849
▁choosing	-13850
▁expressing	-13851
▁É	-13852
▁hun	-13853
▁culp	-13854
omatic	-13855
▁Tribune	-13856
▁Franklin	-13857
▁trafficking	-13858
▁Jayalalithaa	-13859
fa	-13860
▁Rou	-13861
▁aug	-13862
▁nit	-13863
atile	-13864
gends	-13865
▁Deve	-13866
▁spare	-13867
▁Naveen	-13868
▁beliefs	-13869
▁origins	-13870
▁sculpture	-13871
▁Basketball	-13872
▁prevention	-13873
▁Maz	-13874
▁Mut	-13875
▁Croatia	-13876
▁Lithuan	-13877
▁stomach	-13878
▁eventual	-13879
▁Nine	-13880
▁Vick	-13881
▁patch	-13882
▁outrage	-13883
▁donation	-13884
▁Newcastle	-13885
iji	-13886
fits	-13887
▁Cycl	-13888
▁Kirk	-13889
▁Stay	-13890
▁irre	-13891
ackers	-13892
▁Belarus	-13893
▁Overall	-13894
▁avoided	-13895
▁tactics	-13896
▁breeding	-13897
▁displaced	-13898
▁specified	-13899
▁ji	-13900
▁José	-13901
▁Number	-13902
▁Vincent	-13903
▁categor	-13904
▁sentiments	-13905
▁disappeared	-13906
krit	-13907
▁CAA	-13908
▁Rag	-13909
▁sits	-13910
ingers	-13911
▁pedest	-13912
▁dialect	-13913
▁requiring	-13914
oya	-13915
umm	-13916
yap	-13917
rove	-13918
▁une	-13919
▁risen	-13920
▁hailed	-13921
▁trillion	-13922
▁separately	-13923
▁gast	-13924
▁Griff	-13925
▁coins	-13926
▁Picture	-13927
▁Emirates	-13928
▁portrait	-13929
▁submarine	-13930
▁complications	-13931
▁investigators	-13932
wait	-13933
▁Job	-13934
▁Tah	-13935
▁Dise	-13936
▁Gray	-13937
▁Lamb	-13938
etooth	-13939
▁Oliver	-13940
▁eldest	-13941
▁refugee	-13942
▁contrary	-13943
▁financing	-13944
▁ammunition	-13945
▁curriculum	-13946
arb	-13947
▁fut	-13948
▁ric	-13949
▁Kaus	-13950
▁Vers	-13951
▁Costa	-13952
▁ritual	-13953
▁Mizoram	-13954
▁holidays	-13955
▁forthcoming	-13956
etta	-13957
leep	-13958
▁1-1	-13959
▁lun	-13960
▁Bear	-13961
▁Luis	-13962
▁Legal	-13963
▁Proper	-13964
▁respir	-13965
▁toured	-13966
▁posters	-13967
▁elephant	-13968
▁editorial	-13969
▁Citizenship	-13970
▁entrepreneur	-13971
.-	-13972
lass	-13973
▁NHS	-13974
▁org	-13975
ender	-13976
ucker	-13977
ukone	-13978
▁ruler	-13979
claimed	-13980
▁dishes	-13981
▁throne	-13982
▁beneath	-13983
▁briefing	-13984
▁diplomat	-13985
78	-13986
92	-13987
dev	-13988
▁arc	-13989
▁1896	-13990
▁Honda	-13991
▁editions	-13992
▁attraction	-13993
▁journalism	-13994
▁quarterback	-13995
41	-13996
▁370	-13997
▁50-	-13998
▁900	-13999
▁Lux	-14000
eston	-14001
▁chapel	-14002
▁Nothing	-14003
▁utility	-14004
▁Chandrab	-14005
▁Warriors	-14006
▁recognise	-14007
dad	-14008
kim	-14009
rint	-14010
▁unre	-14011
▁Ganga	-14012
▁polar	-14013
▁Ranbir	-14014
▁embark	-14015
▁promin	-14016
NG	-14017
▁Hi	-14018
folk	-14019
▁Pod	-14020
▁deeper	-14021
▁Fashion	-14022
▁anymore	-14023
▁extends	-14024
▁disabled	-14025
▁scrutiny	-14026
bra	-14027
len	-14028
▁HS	-14029
▁Ing	-14030
▁Occ	-14031
▁flee	-14032
▁Categ	-14033
▁Smack	-14034
▁india	-14035
▁loose	-14036
▁partn	-14037
▁tiger	-14038
ocolate	-14039
▁errors	-14040
▁intimid	-14041
▁corporations	-14042
▁SI	-14043
▁IAS	-14044
▁Made	-14045
▁brib	-14046
▁pale	-14047
League	-14048
▁lingu	-14049
iblings	-14050
▁unders	-14051
language	-14052
▁Samajwadi	-14053
▁Investment	-14054
▁commitments	-14055
66	-14056
FM	-14057
▁Pf	-14058
▁Craig	-14059
▁basin	-14060
▁rifle	-14061
▁strip	-14062
▁Merced	-14063
▁planes	-14064
▁sacred	-14065
▁Admiral	-14066
▁seemingly	-14067
▁experiments	-14068
dog	-14069
quis	-14070
▁Link	-14071
▁Birth	-14072
▁Maced	-14073
▁revel	-14074
▁dining	-14075
▁Alexand	-14076
▁hometown	-14077
▁pointing	-14078
▁colleague	-14079
▁beneficial	-14080
OU	-14081
▁Lan	-14082
▁Poin	-14083
▁Sith	-14084
▁encro	-14085
▁outsk	-14086
▁Traffic	-14087
▁database	-14088
▁Elections	-14089
▁struggles	-14090
▁critically	-14091
▁suggestion	-14092
fan	-14093
kha	-14094
▁Josh	-14095
▁Integ	-14096
▁shirt	-14097
▁Flight	-14098
▁Images	-14099
▁Nathan	-14100
▁Norman	-14101
▁boxing	-14102
▁entity	-14103
▁Collins	-14104
▁runners	-14105
▁airlines	-14106
43	-14107
EF	-14108
▁Bod	-14109
▁Eli	-14110
▁aqu	-14111
inesh	-14112
▁Thar	-14113
▁Alice	-14114
▁Mills	-14115
▁Nadal	-14116
▁weren	-14117
▁width	-14118
▁Classic	-14119
▁concepts	-14120
dem	-14121
▁GS	-14122
akia	-14123
▁BMC	-14124
annon	-14125
▁betray	-14126
▁contend	-14127
▁distant	-14128
▁shifting	-14129
▁inspector	-14130
▁Agricultural	-14131
ML	-14132
OD	-14133
UC	-14134
ui	-14135
▁Jak	-14136
▁Mes	-14137
▁Rus	-14138
▁Veh	-14139
iances	-14140
strong	-14141
▁adviser	-14142
▁festive	-14143
▁graphics	-14144
▁infantry	-14145
▁licensed	-14146
-30	-14147
abil	-14148
▁2.4	-14149
▁Koz	-14150
▁Agra	-14151
▁Rhod	-14152
herent	-14153
ounding	-14154
▁Bharti	-14155
▁scared	-14156
▁garbage	-14157
▁rebuilt	-14158
HC	-14159
VA	-14160
ylum	-14161
▁NXT	-14162
▁Abbas	-14163
▁Sidhu	-14164
▁gates	-14165
▁bypass	-14166
▁knocked	-14167
▁prolong	-14168
▁addresses	-14169
▁dw	-14170
orts	-14171
▁Baba	-14172
▁Hood	-14173
▁Moto	-14174
▁Rani	-14175
▁dock	-14176
▁desert	-14177
▁nurses	-14178
▁regret	-14179
▁tissue	-14180
▁grandmother	-14181
aeda	-14182
▁Eug	-14183
▁OTT	-14184
▁Vil	-14185
▁Glen	-14186
▁impe	-14187
▁tent	-14188
▁array	-14189
▁socio	-14190
▁impress	-14191
▁pricing	-14192
▁contracted	-14193
mod	-14194
▁Et	-14195
▁RP	-14196
▁Rico	-14197
▁Sale	-14198
▁boxes	-14199
▁holes	-14200
▁orbit	-14201
▁hiding	-14202
▁inputs	-14203
▁tragic	-14204
▁demonet	-14205
▁Advanced	-14206
▁Padukone	-14207
▁relocated	-14208
▁competitors	-14209
▁exceptional	-14210
71	-14211
79	-14212
▁Tru	-14213
▁tub	-14214
enson	-14215
taker	-14216
atched	-14217
▁cheer	-14218
▁Finnish	-14219
▁observations	-14220
aver	-14221
four	-14222
▁Kav	-14223
▁idol	-14224
▁depri	-14225
▁feder	-14226
▁indef	-14227
▁theft	-14228
▁checked	-14229
▁mainland	-14230
▁somebody	-14231
▁aggregate	-14232
▁judiciary	-14233
▁somewhere	-14234
umni	-14235
▁Celt	-14236
▁Chit	-14237
▁Cour	-14238
▁Travel	-14239
▁stabil	-14240
▁issuing	-14241
▁imperial	-14242
▁outskirts	-14243
▁prosperity	-14244
▁appreciation	-14245
▁Kr	-14246
Down	-14247
stop	-14248
▁14-	-14249
▁Loc	-14250
▁Does	-14251
▁coat	-14252
▁mega	-14253
▁Floyd	-14254
▁Kiran	-14255
▁Luther	-14256
▁phrase	-14257
▁Baptist	-14258
▁diameter	-14259
▁honoured	-14260
▁Commercial	-14261
▁succession	-14262
An	-14263
▁Mom	-14264
▁hes	-14265
▁pin	-14266
▁Mahm	-14267
▁Sham	-14268
▁Voiv	-14269
▁recy	-14270
▁6,000	-14271
▁Apoll	-14272
▁burnt	-14273
▁fluid	-14274
▁tenth	-14275
▁Almost	-14276
▁Patnaik	-14277
▁Trinity	-14278
▁checking	-14279
▁outcomes	-14280
▁republic	-14281
▁upgraded	-14282
▁benchmark	-14283
▁recognize	-14284
▁Everything	-14285
▁interference	-14286
olia	-14287
▁Sas	-14288
▁cig	-14289
▁1899	-14290
▁Cher	-14291
▁thro	-14292
▁charter	-14293
▁torture	-14294
▁Criminal	-14295
▁rendered	-14296
▁Catherine	-14297
▁acceptable	-14298
▁commentary	-14299
▁disappointing	-14300
fish	-14301
▁Jar	-14302
▁RCB	-14303
▁Lloyd	-14304
▁Which	-14305
▁helpl	-14306
▁Govern	-14307
▁Singles	-14308
▁offense	-14309
▁travels	-14310
▁wrapped	-14311
▁radiation	-14312
▁procurement	-14313
▁predominantly	-14314
72	-14315
▁Ple	-14316
▁mol	-14317
rying	-14318
▁Chau	-14319
▁Mull	-14320
▁Teleg	-14321
▁Turner	-14322
▁masses	-14323
▁Pradhan	-14324
▁Thunder	-14325
▁legally	-14326
akrishnan	-14327
▁Official	-14328
▁connects	-14329
▁mentions	-14330
▁collaborated	-14331
cos	-14332
igo	-14333
kov	-14334
▁GB	-14335
quet	-14336
▁fed	-14337
▁Need	-14338
itudes	-14339
▁Brahm	-14340
▁Train	-14341
▁folks	-14342
▁swept	-14343
minster	-14344
▁brigade	-14345
▁securing	-14346
▁Peninsula	-14347
igue	-14348
iman	-14349
tail	-14350
▁360	-14351
▁Kane	-14352
▁Omar	-14353
▁READ	-14354
▁inev	-14355
▁libr	-14356
▁Aditya	-14357
appropri	-14358
▁Edition	-14359
▁compact	-14360
▁handful	-14361
▁intellig	-14362
▁affidavit	-14363
▁accomplish	-14364
SCO	-14365
▁CW	-14366
▁Chin	-14367
▁gymn	-14368
▁paddy	-14369
▁guided	-14370
▁Vijayan	-14371
▁Chandrababu	-14372
heed	-14373
▁Mick	-14374
▁Nair	-14375
▁beet	-14376
▁Bible	-14377
▁Coach	-14378
▁shame	-14379
▁ceased	-14380
▁Buffalo	-14381
▁holders	-14382
▁wherein	-14383
▁homeless	-14384
▁Scheduled	-14385
▁developer	-14386
▁distinctive	-14387
▁unsuccessful	-14388
uce	-14389
▁Iv	-14390
wami	-14391
▁1860	-14392
▁Going	-14393
▁Libya	-14394
▁2018-19	-14395
▁concess	-14396
▁inspection	-14397
▁Cut	-14398
andan	-14399
▁oral	-14400
▁Double	-14401
▁Income	-14402
▁ranges	-14403
▁timber	-14404
▁printing	-14405
▁Bluetooth	-14406
▁basically	-14407
▁publicity	-14408
▁IPS	-14409
▁Beck	-14410
▁bore	-14411
▁Geneva	-14412
▁empire	-14413
▁cluster	-14414
▁Richmond	-14415
▁corridor	-14416
▁enabling	-14417
▁teenager	-14418
identified	-14419
▁assaulted	-14420
▁exhibited	-14421
▁recipient	-14422
▁executives	-14423
▁approaching	-14424
▁interactions	-14425
ín	-14426
▁Ud	-14427
▁Eid	-14428
▁orb	-14429
▁mans	-14430
▁Books	-14431
▁Eston	-14432
▁riders	-14433
▁synthes	-14434
▁supporter	-14435
46	-14436
▁ow	-14437
hero	-14438
inos	-14439
▁Hir	-14440
▁scr	-14441
▁Luke	-14442
▁Soul	-14443
ustain	-14444
▁Intel	-14445
▁gifts	-14446
▁Franco	-14447
▁Saints	-14448
▁assume	-14449
▁timely	-14450
▁advisor	-14451
olleyball	-14452
▁Jennifer	-14453
▁elaborate	-14454
▁workforce	-14455
▁certification	-14456
bn	-14457
adu	-14458
▁Hat	-14459
▁Udu	-14460
▁Sury	-14461
ounted	-14462
▁Gener	-14463
▁Akhtar	-14464
▁ladies	-14465
▁thermal	-14466
▁maritime	-14467
akhapatnam	-14468
96	-14469
▁sq	-14470
▁Swan	-14471
▁aest	-14472
▁Bryan	-14473
▁drown	-14474
leading	-14475
▁disband	-14476
▁Mercedes	-14477
▁veterans	-14478
▁Historical	-14479
▁presenting	-14480
Sh	-14481
▁Kid	-14482
▁VOA	-14483
istle	-14484
▁Pall	-14485
▁fract	-14486
odeship	-14487
▁Guardian	-14488
▁sleeping	-14489
▁Palestine	-14490
▁interface	-14491
▁historically	-14492
HL	-14493
with	-14494
▁Ara	-14495
▁Clay	-14496
▁True	-14497
▁rede	-14498
alysis	-14499
▁Shiva	-14500
▁wheels	-14501
▁Faculty	-14502
criptions	-14503
▁Teachers	-14504
▁transmit	-14505
▁Enforcement	-14506
ów	-14507
othy	-14508
oven	-14509
▁bol	-14510
asted	-14511
▁Samb	-14512
▁chop	-14513
▁Magic	-14514
▁doubts	-14515
▁rubber	-14516
▁pledged	-14517
▁notified	-14518
▁magnitude	-14519
▁organisers	-14520
sis	-14521
▁DP	-14522
▁Kom	-14523
▁Sib	-14524
eches	-14525
▁brows	-14526
▁Tiwari	-14527
▁delays	-14528
▁lovers	-14529
▁designers	-14530
▁detection	-14531
▁regulator	-14532
▁characteristic	-14533
holm	-14534
phan	-14535
▁Tol	-14536
adows	-14537
onald	-14538
▁Gard	-14539
▁fantasy	-14540
▁shutdown	-14541
▁documented	-14542
▁institutes	-14543
▁Ny	-14544
urbs	-14545
vals	-14546
▁pir	-14547
▁Spec	-14548
▁fung	-14549
▁Ambed	-14550
▁dealers	-14551
abs	-14552
▁0.5	-14553
▁RJD	-14554
▁spy	-14555
▁Aish	-14556
usters	-14557
▁Songs	-14558
▁Cancer	-14559
▁Diamond	-14560
▁wanting	-14561
▁mortality	-14562
irty	-14563
▁Niz	-14564
▁Tas	-14565
ogging	-14566
▁Param	-14567
▁lakes	-14568
▁Pierre	-14569
▁impart	-14570
▁streams	-14571
▁Language	-14572
▁Sanskrit	-14573
▁workshops	-14574
SD	-14575
chal	-14576
▁Esc	-14577
▁NHL	-14578
▁Sai	-14579
▁Less	-14580
▁spite	-14581
▁40,000	-14582
▁persec	-14583
iliation	-14584
▁siblings	-14585
▁theatrical	-14586
Co	-14587
abe	-14588
▁por	-14589
awati	-14590
▁hunt	-14591
▁Udupi	-14592
▁Villa	-14593
▁annex	-14594
▁drunk	-14595
▁Rogers	-14596
▁freely	-14597
▁tribut	-14598
▁impacted	-14599
▁offences	-14600
▁demolition	-14601
▁submission	-14602
▁Voivodeship	-14603
▁demonstrations	-14604
▁misc	-14605
▁Stuart	-14606
▁amidst	-14607
▁affects	-14608
▁shorter	-14609
▁evacuated	-14610
▁enzy	-14611
▁tier	-14612
▁grams	-14613
▁Resear	-14614
▁aerial	-14615
▁battalion	-14616
▁volunteer	-14617
▁Christianity	-14618
onut	-14619
▁cosm	-14620
▁mant	-14621
▁pocket	-14622
▁emperor	-14623
▁stopping	-14624
▁Economics	-14625
▁decreased	-14626
▁intensive	-14627
▁Ide	-14628
ewise	-14629
▁perf	-14630
▁prey	-14631
▁admir	-14632
▁Animal	-14633
▁deciding	-14634
▁launches	-14635
▁listings	-14636
▁differently	-14637
▁inauguration	-14638
team	-14639
▁3-1	-14640
▁Bot	-14641
▁Saj	-14642
enary	-14643
▁Bish	-14644
▁grate	-14645
▁Jadeja	-14646
▁harder	-14647
▁inches	-14648
▁doubled	-14649
▁consumed	-14650
▁hypothes	-14651
▁pleasure	-14652
wh	-14653
bank	-14654
▁155	-14655
▁Eth	-14656
▁eve	-14657
ungle	-14658
▁obsc	-14659
effect	-14660
▁pairs	-14661
▁rises	-14662
▁voiced	-14663
▁counted	-14664
▁autonomous	-14665
▁Bangladeshi	-14666
usp	-14667
oult	-14668
ampur	-14669
press	-14670
▁cuis	-14671
gender	-14672
▁inequ	-14673
▁tears	-14674
▁naming	-14675
▁Popular	-14676
▁damages	-14677
▁realize	-14678
▁trigger	-14679
▁informal	-14680
▁prohibited	-14681
▁compilation	-14682
▁devastating	-14683
▁independently	-14684
oha	-14685
▁Hob	-14686
▁rib	-14687
▁Mail	-14688
▁Falls	-14689
amilies	-14690
powered	-14691
▁Direct	-14692
▁Parker	-14693
▁spinner	-14694
▁killings	-14695
NS	-14696
Us	-14697
▁Ey	-14698
▁flags	-14699
▁harmful	-14700
▁toilets	-14701
▁Flipkart	-14702
▁depicted	-14703
▁salaries	-14704
▁petitions	-14705
▁reopening	-14706
▁admissions	-14707
▁organising	-14708
▁4.5	-14709
▁Hil	-14710
▁Fitz	-14711
▁Larry	-14712
▁metre	-14713
perform	-14714
▁Meeting	-14715
▁Ambedkar	-14716
▁breakfast	-14717
▁legitimate	-14718
▁communicate	-14719
ii	-14720
rust	-14721
Mania	-14722
▁1898	-14723
▁cord	-14724
orable	-14725
▁Alger	-14726
▁teaser	-14727
▁valued	-14728
▁Rajnath	-14729
aundering	-14730
▁Kashmiri	-14731
▁accounting	-14732
Ph	-14733
ady	-14734
iate	-14735
path	-14736
▁Amy	-14737
▁Past	-14738
▁crem	-14739
▁mall	-14740
▁unha	-14741
itches	-14742
▁Athens	-14743
▁Yellow	-14744
▁racism	-14745
▁Welling	-14746
▁freight	-14747
▁rituals	-14748
▁distress	-14749
▁Productions	-14750
▁exhibitions	-14751
▁Cob	-14752
▁Dol	-14753
▁ski	-14754
chant	-14755
▁ODIs	-14756
▁Shen	-14757
▁bicy	-14758
▁AIIMS	-14759
▁brave	-14760
▁Universe	-14761
▁acclaimed	-14762
ING	-14763
▁dh	-14764
▁Anur	-14765
assion	-14766
backed	-14767
▁Jerry	-14768
▁Trail	-14769
▁halls	-14770
▁Kuwait	-14771
▁Tennis	-14772
▁speeds	-14773
▁contrad	-14774
▁priests	-14775
▁warming	-14776
▁acceptance	-14777
91	-14778
97	-14779
alp	-14780
▁obl	-14781
liness	-14782
▁Ahead	-14783
▁Harsh	-14784
▁Sonam	-14785
▁swift	-14786
▁Allied	-14787
▁Regist	-14788
▁Madurai	-14789
▁Morning	-14790
▁dedication	-14791
▁objectives	-14792
▁tong	-14793
▁tube	-14794
▁breat	-14795
▁shaped	-14796
commerce	-14797
▁pulling	-14798
▁desperate	-14799
lif	-14800
▁DU	-14801
▁Bum	-14802
▁Chh	-14803
▁Aadmi	-14804
▁Mason	-14805
▁siege	-14806
▁Sebast	-14807
▁fossil	-14808
▁Madison	-14809
▁condemn	-14810
▁Hispanic	-14811
▁Rohingya	-14812
▁highways	-14813
▁anonymity	-14814
▁personalities	-14815
▁2.2	-14816
cutta	-14817
ellar	-14818
india	-14819
offic	-14820
▁Bird	-14821
▁reck	-14822
holder	-14823
▁farms	-14824
angular	-14825
▁Impact	-14826
▁aboard	-14827
▁Cardiff	-14828
▁arguing	-14829
▁leagues	-14830
▁martial	-14831
▁turnout	-14832
▁semifinals	-14833
gus	-14834
ierra	-14835
▁Mala	-14836
▁snake	-14837
▁nights	-14838
▁outfits	-14839
▁skilled	-14840
▁cultures	-14841
▁commanded	-14842
▁influences	-14843
▁separation	-14844
▁productions	-14845
isal	-14846
▁Duc	-14847
▁deny	-14848
▁toug	-14849
▁Boris	-14850
anthrop	-14851
▁Disaster	-14852
▁commerce	-14853
▁literacy	-14854
▁inherited	-14855
▁appreciate	-14856
▁controlling	-14857
▁appointments	-14858
▁revolutionary	-14859
orp	-14860
▁Kem	-14861
▁Mob	-14862
▁kits	-14863
▁odds	-14864
▁Track	-14865
▁dimin	-14866
▁ultra	-14867
▁Khanna	-14868
▁diamond	-14869
▁exhibit	-14870
▁Category	-14871
▁associates	-14872
stad	-14873
▁Lov	-14874
▁piv	-14875
wheel	-14876
▁1885	-14877
▁Side	-14878
▁emig	-14879
▁Jaish	-14880
▁Diocese	-14881
▁Edwards	-14882
mentation	-14883
▁grandson	-14884
Star	-14885
acht	-14886
iasm	-14887
ulent	-14888
▁Grace	-14889
▁blend	-14890
▁laying	-14891
▁Frances	-14892
▁Marathi	-14893
▁borough	-14894
▁Archbishop	-14895
▁solidarity	-14896
▁enterprises	-14897
imm	-14898
ivia	-14899
▁Bit	-14900
▁Gav	-14901
▁Nil	-14902
▁Zen	-14903
▁Abhi	-14904
▁Auck	-14905
▁Innov	-14906
▁flank	-14907
▁Dakota	-14908
▁mirror	-14909
▁patent	-14910
▁quantum	-14911
▁judgement	-14912
▁milestone	-14913
▁Philippine	-14914
74	-14915
93	-14916
▁Syl	-14917
▁Vit	-14918
▁Anglo	-14919
▁alerts	-14920
▁Results	-14921
▁Auckland	-14922
▁discharge	-14923
▁excitement	-14924
storm	-14925
▁Anim	-14926
▁Chet	-14927
profile	-14928
tlement	-14929
▁layers	-14930
▁Embassy	-14931
▁portions	-14932
▁cooperative	-14933
▁transported	-14934
▁assassination	-14935
hee	-14936
card	-14937
mina	-14938
▁Hub	-14939
▁Sop	-14940
▁1897	-14941
▁Bose	-14942
▁Fast	-14943
▁cops	-14944
ardhan	-14945
ouring	-14946
▁Padma	-14947
▁Study	-14948
▁Suzuki	-14949
▁autumn	-14950
▁Consult	-14951
▁cemetery	-14952
▁forgotten	-14953
▁maintains	-14954
▁considerably	-14955
▁implications	-14956
▁establishments	-14957
inf	-14958
▁Fish	-14959
▁metab	-14960
▁Advent	-14961
▁apology	-14962
▁combine	-14963
▁tonight	-14964
▁Romanian	-14965
▁pronounced	-14966
▁electronics	-14967
▁permanently	-14968
Man	-14969
type	-14970
▁wis	-14971
ixels	-14972
▁1895	-14973
▁Push	-14974
▁Syed	-14975
▁slip	-14976
▁infer	-14977
▁sheer	-14978
▁Alaska	-14979
▁exhaust	-14980
▁Visakhapatnam	-14981
▁DG	-14982
ayed	-14983
rien	-14984
ulla	-14985
▁Nak	-14986
▁Ferr	-14987
▁Gonz	-14988
▁eleg	-14989
▁Level	-14990
▁joins	-14991
▁Subram	-14992
▁appeals	-14993
ologically	-14994
▁suspicion	-14995
▁calculated	-14996
▁elementary	-14997
▁accusations	-14998
▁6-	-14999
▁8-	-15000
▁1,4	-15001
▁Ess	-15002
▁USB	-15003
utory	-15004
warya	-15005
▁1893	-15006
▁Hunt	-15007
▁Salt	-15008
Pacific	-15009
▁Murphy	-15010
▁Calcutta	-15011
▁bachelor	-15012
▁keyboard	-15013
▁Subsequently	-15014
[...]
