<unk>	0
<s>	0
</s>	0
▁<dnt>	0
▁</dnt>	0
▁क	-0
▁स	-1
▁म	-2
▁प	-3
▁.	-4
▁ह	-5
▁ब	-6
▁अ	-7
▁,	-8
ार	-9
्र	-10
्य	-11
▁न	-12
▁।	-13
▁ज	-14
▁त	-15
▁आ	-16
▁द	-17
्त	-18
▁व	-19
ान	-20
▁ا	-21
▁र	-22
▁ج	-23
▁ल	-24
▁ग	-25
▁م	-26
ां	-27
न्	-28
र्	-29
क्	-30
▁ک	-31
ाय	-32
▁च	-33
ाल	-34
िय	-35
ان	-36
▁س	-37
िल	-38
▁ए	-39
िक	-40
ना	-41
▁इ	-42
▁के	-43
▁उ	-44
▁कर	-45
▁ت	-46
▁भ	-47
्ट	-48
ित	-49
▁-	-50
▁ہ	-51
▁t	-52
ात	-53
▁پ	-54
ाम	-55
▁प्र	-56
▁य	-57
नि	-58
ری	-59
▁و	-60
an	-61
▁ڪ	-62
▁श	-63
ें	-64
▁ख	-65
▁آ	-66
ाव	-67
▁جی	-68
म्	-69
ने	-70
▁ب	-71
▁،	-72
in	-73
्ल	-74
िर	-75
ाह	-76
▁"	-77
▁k	-78
ास	-79
▁छ	-80
▁हो	-81
▁'	-82
िस	-83
▁फ	-84
त्त	-85
िन	-86
्या	-87
یو	-88
▁)	-89
ाइ	-90
▁(	-91
ین	-92
▁दे	-93
▁a	-94
▁ن	-95
▁ꯃ	-96
▁ᱠ	-97
▁ꯑ	-98
ار	-99
क्क	-100
ाद	-101
ंद	-102
्प	-103
ाग	-104
्क	-105
ꯁꯤ	-106
he	-107
ेल	-108
▁1	-109
ाक	-110
ाज	-111
▁पर	-112
ᱱᱟ	-113
▁वि	-114
्व	-115
न्न	-116
▁ᱨ	-117
य़	-118
▁थ	-119
ेर	-120
on	-121
ुं	-122
▁है	-123
▁۾	-124
▁چ	-125
ों	-126
मा	-127
रु	-128
ہی	-129
ائ	-130
▁s	-131
▁बि	-132
▁ᱟ	-133
ति	-134
ता	-135
ड़	-136
ال	-137
▁को	-138
▁से	-139
क्ष	-140
ुक	-141
ور	-142
ha	-143
▁ओ	-144
▁कि	-145
रे	-146
▁ر	-147
ले	-148
▁नि	-149
ہن	-150
बा	-151
न्त	-152
▁ᱥ	-153
▁کی	-154
▁b	-155
▁ل	-156
्च	-157
▁में	-158
▁ट	-159
्थ	-160
ंग	-161
▁۽	-162
▁ع	-163
ुल	-164
▁2	-165
▁ᱨᱮ	-166
का	-167
یا	-168
▁रह	-169
▁सम	-170
ند	-171
re	-172
▁د	-173
▁جو	-174
▁c	-175
द्	-176
ुर	-177
▁ते	-178
नी	-179
▁का	-180
▁एक	-181
▁l	-182
ते	-183
▁گ	-184
▁ش	-185
ोग	-186
▁ड	-187
ᱟᱹ	-188
ोर	-189
▁ka	-190
▁ان	-191
▁ᱫ	-192
ाब	-193
▁सं	-194
er	-195
▁p	-196
री	-197
को	-198
▁ᱢ	-199
ट्ट	-200
▁मा	-201
▁ऎ	-202
▁the	-203
ام	-204
▁घ	-205
▁ٿ	-206
ला	-207
▁मु	-208
en	-209
▁ने	-210
▁۔	-211
प्प	-212
▁n	-213
▁ᱵ	-214
ुम	-215
ती	-216
ीं	-217
िं	-218
▁की	-219
दे	-220
ون	-221
▁ᱦ	-222
at	-223
▁آہی	-224
ꯒꯤ	-225
दा	-226
हे	-227
से	-228
▁सु	-229
रा	-230
▁जे	-231
ꯁꯤꯡ	-232
▁मह	-233
ल्ल	-234
or	-235
hi	-236
ारी	-237
لی	-238
वा	-239
ar	-240
के	-241
ing	-242
▁چھ	-243
▁ح	-244
▁ध	-245
▁ف	-246
ोन	-247
▁خ	-248
ᱚᱱ	-249
▁d	-250
ाप	-251
सि	-252
रि	-253
it	-254
्री	-255
▁تہ	-256
ست	-257
ोल	-258
स्त	-259
ङ्क	-260
ئی	-261
टि	-262
▁:	-263
ुन	-264
▁ᱛ	-265
ऩ्	-266
▁m	-267
al	-268
▁दि	-269
▁सि	-270
िया	-271
ꯅꯤ	-272
ष्ट	-273
ᱟᱨ	-274
ळ्	-275
त्	-276
▁ᱯ	-277
ाण	-278
च्च	-279
▁ᱫᱚ	-280
▁an	-281
▁᱾	-282
▁ई	-283
▁w	-284
ुव	-285
▁सा	-286
▁कार	-287
गी	-288
▁ले	-289
▁कु	-290
▁अन	-291
▁ق	-292
▁ᱡ	-293
▁ऐ	-294
▁می	-295
हा	-296
▁दी	-297
ोक	-298
ed	-299
▁आप	-300
स्	-301
ुम्	-302
▁?	-303
ंत	-304
▁ی	-305
▁ꯂ	-306
hu	-307
st	-308
न्द	-309
▁ᱞ	-310
aw	-311
▁हम	-312
नो	-313
▁बे	-314
اد	-315
▁o	-316
दि	-317
▁اس	-318
▁in	-319
▁ᱠᱚ	-320
▁ᱜ	-321
रो	-322
▁ꯑꯃ	-323
ai	-324
ᱭᱟ	-325
ाय़	-326
हि	-327
कार	-328
▁من	-329
▁i	-330
मे	-331
▁राज	-332
ुत	-333
▁ना	-334
▁!	-335
▁१	-336
▁ہو	-337
िब	-338
ोज	-339
▁تی	-340
اری	-341
िल्	-342
▁अस	-343
ली	-344
ھی	-345
ᱱᱟᱜ	-346
▁f	-347
▁20	-348
▁अप	-349
اب	-350
▁बा	-351
▁उप	-352
कर	-353
▁ꯀ	-354
am	-355
یر	-356
▁हे	-357
वि	-358
▁आहे	-359
ध्य	-360
▁ᱠᱟ	-361
ाई	-362
▁S	-363
▁ꯆ	-364
िय़	-365
▁सब	-366
ॆय	-367
تی	-368
▁करे	-369
तु	-370
्रे	-371
▁کے	-372
ङ्	-373
मान	-374
छे	-375
गा	-376
▁ڏ	-377
वे	-378
▁ٻ	-379
▁A	-380
छि	-381
▁ᱮ	-382
▁کر	-383
▁T	-384
मी	-385
▁जी	-386
▁जो	-387
▁ای	-388
▁ھ	-389
दी	-390
ाख	-391
्ड	-392
ᱚᱨ	-393
es	-394
ang	-395
▁ꯃꯁꯤꯡ	-396
▁पू	-397
▁ص	-398
ऱ्	-399
▁मे	-400
ᱠᱟ	-401
▁२	-402
اہ	-403
اڻ	-404
ही	-405
ानी	-406
ंड	-407
▁ꯑꯁꯤ	-408
رو	-409
▁M	-410
द्ध	-411
▁ha	-412
ائی	-413
▁کان	-414
त्र	-415
▁सर	-416
▁छे	-417
ारा	-418
चे	-419
جی	-420
▁मो	-421
स्थ	-422
▁ᱱ	-423
لا	-424
िल्ल	-425
ण्ट	-426
ारि	-427
▁to	-428
क्त	-429
ारे	-430
ून	-431
▁ᱟᱨ	-432
▁ز	-433
▁of	-434
या	-435
▁अम	-436
ᱷᱟ	-437
▁3	-438
▁h	-439
▁इस	-440
ah	-441
टी	-442
▁औ	-443
मां	-444
लो	-445
▁C	-446
नाय	-447
▁جن	-448
ᱚᱛ	-449
▁ꯍ	-450
्ब	-451
▁अह	-452
ات	-453
▁सक	-454
ad	-455
▁लि	-456
کھ	-457
▁जा	-458
ion	-459
▁ki	-460
▁पह	-461
ic	-462
सा	-463
▁दु	-464
▁I	-465
▁u	-466
▁19	-467
िला	-468
▁पा	-469
▁या	-470
दु	-471
ार्	-472
ुन्न	-473
ak	-474
ong	-475
ᱟᱦ	-476
▁پر	-477
یون	-478
▁P	-479
जे	-480
▁अव	-481
ूप	-482
▁मन	-483
चा	-484
اء	-485
ول	-486
▁अउ	-487
دا	-488
टा	-489
می	-490
िद	-491
▁ये	-492
सी	-493
िप	-494
ou	-495
टे	-496
دی	-497
▁سان	-498
ll	-499
▁ط	-500
जी	-501
▁سن	-502
ुप	-503
▁तो	-504
▁बह	-505
ٛز	-506
▁j	-507
हीं	-508
▁ہن	-509
गळ	-510
धिक	-511
्य़	-512
ूर	-513
om	-514
ہٕ	-515
▁میں	-516
ळ्ळ	-517
िव	-518
▁जान	-519
ची	-520
▁K	-521
िले	-522
च्या	-523
▁/	-524
▁मान	-525
▁पु	-526
▁गो	-527
मि	-528
ल्	-529
ऱ्ऱ	-530
बे	-531
ᱤᱫ	-532
▁भार	-533
▁꯫	-534
▁स्व	-535
▁ہی	-536
ng	-537
▁हु	-538
▁सो	-539
ꯔꯤ	-540
▁ᱥᱟ	-541
कु	-542
▁देख	-543
▁मि	-544
▁पो	-545
le	-546
▁ᱞᱮ	-547
ैय	-548
▁दा	-549
ri	-550
ent	-551
▁بہ	-552
ष्	-553
▁ऒ	-554
था	-555
یل	-556
ाही	-557
▁ال	-558
ज़	-559
▁and	-560
▁पि	-561
▁और	-562
त्य	-563
म्प	-564
की	-565
▁गु	-566
शी	-567
▁स्थ	-568
बर	-569
▁ڪری	-570
▁ᱢᱮ	-571
▁منٛز	-572
▁लग	-573
▁नू	-574
▁भी	-575
ारु	-576
ुत्त	-577
ᱣᱟ	-578
as	-579
थि	-580
▁ꯁ	-581
▁अभ	-582
▁आव	-583
▁निर्	-584
▁ही	-585
कि	-586
▁दिन	-587
▁सह	-588
ाला	-589
▁ठ	-590
▁ꯄ	-591
نی	-592
▁ہے	-593
▁जन	-594
سی	-595
▁B	-596
ھن	-597
णि	-598
▁वे	-599
ाले	-600
्ह	-601
▁खे	-602
▁साथ	-603
धान	-604
लि	-605
यो	-606
▁सभ	-607
डि	-608
शन	-609
▁सी	-610
▁झ	-611
▁नी	-612
ei	-613
क्र	-614
ᱚᱢ	-615
▁चे	-616
▁तुम	-617
ाली	-618
ात्र	-619
धी	-620
▁ᱠᱟᱱᱟ	-621
ٽی	-622
लु	-623
ve	-624
खौ	-625
▁پی	-626
ल्लि	-627
▁ᱦᱚ	-628
▁اکھ	-629
▁اور	-630
र्व	-631
तो	-632
च्	-633
yn	-634
▁ᱚ	-635
णा	-636
▁रहे	-637
▁ڪر	-638
▁آہن	-639
ꯨꯡ	-640
▁ꯑꯃꯅꯤ	-641
▁ৰ	-642
टर	-643
▁मी	-644
ित्त	-645
▁बी	-646
▁प्	-647
ट्	-648
्ञ	-649
ꯌꯥ	-650
्म	-651
▁वा	-652
▁लाग	-653
आं	-654
▁मू	-655
▁N	-656
▁4	-657
▁پن	-658
ियो	-659
▁5	-660
ाना	-661
द्य	-662
ᱟᱱ	-663
من	-664
गर	-665
ᱟᱭ	-666
ाने	-667
र्ष	-668
डी	-669
یت	-670
▁ᱥᱮ	-671
▁H	-672
लै	-673
▁جا	-674
ur	-675
▁ٿی	-676
▁ᱱᱚ	-677
रण	-678
▁کو	-679
▁त्य	-680
ꯥꯛ	-681
िम	-682
▁बर	-683
न्नु	-684
देश	-685
ہو	-686
▁hi	-687
ᱤᱱ	-688
▁re	-689
▁हा	-690
द्द	-691
खे	-692
▁R	-693
ुट	-694
▁مو	-695
▁ᱨᱮᱱᱟᱜ	-696
▁तर	-697
त्ति	-698
▁ہڪ	-699
▁पे	-700
▁अने	-701
▁r	-702
फोर	-703
▁یا	-704
▁la	-705
▁अधिक	-706
णे	-707
स्य	-708
स्ट	-709
ैं	-710
गॆ	-711
▁आरो	-712
ꯗꯤ	-713
ान्	-714
▁سے	-715
जा	-716
ندو	-717
▁साम	-718
▁आस	-719
म्म	-720
▁ᱩ	-721
ᱨᱤ	-722
▁ᱠᱷ	-723
▁अउर	-724
▁अब	-725
▁व्य	-726
▁कह	-727
دو	-728
▁लोग	-729
शे	-730
▁e	-731
▁काम	-732
▁chu	-733
ढ़	-734
▁लै	-735
▁کا	-736
योग	-737
ांग	-738
▁سنڌ	-739
▁ᱪ	-740
▁सू	-741
ut	-742
▁پو	-743
ꯅꯥ	-744
ᱛᱮ	-745
णी	-746
▁॥	-747
▁लोक	-748
वर	-749
ानि	-750
ائین	-751
ᱟᱜ	-752
सर	-753
از	-754
▁वी	-755
▁हर	-756
▁अनु	-757
चार	-758
▁कार्य	-759
▁لاء	-760
्ष	-761
▁रूप	-762
जन	-763
ay	-764
▁پا	-765
ौर	-766
▁ती	-767
▁[	-768
िक्क	-769
▁نہ	-770
▁]	-771
▁D	-772
بر	-773
قی	-774
ृत	-775
गे	-776
िआ	-777
▁प्रति	-778
▁201	-779
ᱟᱝ	-780
▁ڇ	-781
▁अर	-782
र्म	-783
▁पार	-784
र्क	-785
ᱤᱥ	-786
बो	-787
ण्	-788
▁सरकार	-789
▁जि	-790
ंदि	-791
ꯥꯢ	-792
ct	-793
य़े	-794
▁جیڪ	-795
मु	-796
नु	-797
▁नहीं	-798
▁ꯏ	-799
वां	-800
▁سی	-801
▁رو	-802
ह्	-803
ᱭᱟᱜ	-804
ुक्क	-805
is	-806
00	-807
थी	-808
ot	-809
ستان	-810
ख्य	-811
▁مل	-812
▁हैं	-813
्रि	-814
▁बु	-815
ہر	-816
ानै	-817
ꯥꯡ	-818
▁आय	-819
िका	-820
ङ्ङ	-821
▁مح	-822
हर	-823
ᱩᱨ	-824
▁होइ	-825
et	-826
▁कॊ	-827
▁تو	-828
▁बाद	-829
▁रा	-830
▁हि	-831
▁ڊ	-832
ग्	-833
▁lo	-834
▁کہ	-835
वी	-836
لو	-837
▁शि	-838
▁क्ष	-839
▁ऊ	-840
श्व	-841
क्षा	-842
▁गेल	-843
▁ni	-844
स़	-845
ळि	-846
▁आर	-847
▁भारत	-848
प्र	-849
ᱼᱟ	-850
टो	-851
um	-852
▁ति	-853
पा	-854
گر	-855
ꯀꯤ	-856
▁ग्र	-857
तर	-858
▁ꯇ	-859
▁مان	-860
पि	-861
▁अते	-862
न्ह	-863
▁कै	-864
▁᱑	-865
डा	-866
जि	-867
उन	-868
▁लो	-869
▁ꯑꯣ	-870
▁6	-871
र्थ	-872
ञ्च	-873
▁ڪیو	-874
▁चाह	-875
▁जाय	-876
▁ᱛᱮ	-877
शि	-878
▁बै	-879
▁ꯂꯩ	-880
ूं	-881
ꯟꯅ	-882
ऩ्ऱ	-883
▁अछि	-884
दर	-885
▁कल	-886
بی	-887
बं	-888
▁दो	-889
▁लिए	-890
▁تہٕ	-891
انی	-892
▁अल	-893
▁بی	-894
▁देश	-895
ष्ठ	-896
▁ڀ	-897
▁कम	-898
▁अहइ	-899
य़ा	-900
▁मत	-901
ैन	-902
ᱤᱞ	-903
▁साल	-904
▁गर्	-905
वार	-906
ᱚᱱᱚᱛ	-907
▁g	-908
ᱟᱦᱮ	-909
▁ٿو	-910
▁سر	-911
▁परि	-912
▁ला	-913
ᱤᱭ	-914
ꯥꯎ	-915
▁करि	-916
مت	-917
ba	-918
el	-919
▁U	-920
▁ڳ	-921
▁وا	-922
▁पी	-923
पी	-924
ब्	-925
▁कुछ	-926
hat	-927
ायि	-928
▁खु	-929
▁ꯅ	-930
▁ᱢᱮᱱᱟᱜ	-931
ch	-932
▁ता	-933
डे	-934
▁२०	-935
ाया	-936
धार	-937
एको	-938
बी	-939
▁;	-940
شن	-941
िस्त	-942
िरि	-943
▁छं	-944
खि	-945
▁ia	-946
्रा	-947
▁ᱛᱟᱦᱮ	-948
▁او	-949
ण्ड	-950
ro	-951
ᱮᱫ	-952
الی	-953
رن	-954
id	-955
▁छंवां	-956
ड़ी	-957
▁le	-958
न्ना	-959
▁जात	-960
▁सां	-961
▁ᱠᱷᱚᱱ	-962
▁पै	-963
▁on	-964
ेला	-965
▁नाम	-966
جو	-967
न्य	-968
uh	-969
पुर	-970
▁v	-971
▁L	-972
ुक्त	-973
▁ti	-974
▁रे	-975
ान्त	-976
क्स	-977
nd	-978
ᱚᱜ	-979
ᱟᱞ	-980
▁३	-981
स्क	-982
▁गे	-983
▁हुन	-984
ꯂꯤ	-985
▁بن	-986
▁تع	-987
▁लाइ	-988
लक	-989
ꯗꯒꯤ	-990
▁مع	-991
aid	-992
em	-993
▁آھی	-994
▁ba	-995
▁तू	-996
▁یہ	-997
▁भा	-998
تھ	-999
ꯥꯏ	-1000
ol	-1001
ंदु	-1002
ꯗꯨ	-1003
दों	-1004
ir	-1005
ation	-1006
▁نے	-1007
▁7	-1008
ावे	-1009
▁ᱥᱤ	-1010
را	-1011
▁ᱨᱮᱭᱟᱜ	-1012
سل	-1013
▁he	-1014
▁आम	-1015
श्	-1016
▁ꯊ	-1017
▁गी	-1018
िति	-1019
▁10	-1020
न्ति	-1021
▁be	-1022
गो	-1023
▁राज्य	-1024
फ़	-1025
ᱟᱢ	-1026
दार	-1027
مد	-1028
▁हल	-1029
وں	-1030
▁बात	-1031
▁बो	-1032
یء	-1033
खा	-1034
▁डि	-1035
لہ	-1036
▁खात	-1037
ास्त	-1038
▁घर	-1039
▁एइ	-1040
थे	-1041
िंच	-1042
▁ᱦᱚᱲ	-1043
▁तु	-1044
ᱰᱤ	-1045
▁आणि	-1046
डु	-1047
▁سو	-1048
बि	-1049
▁वर	-1050
▁मिल	-1051
▁8	-1052
▁ꯃꯤ	-1053
ꯣꯟ	-1054
ित्र	-1055
قت	-1056
▁ض	-1057
▁विक	-1058
▁बहुत	-1059
वाद	-1060
पाल	-1061
▁वै	-1062
भि	-1063
▁th	-1064
▁ویو	-1065
▁संग	-1066
▁पण	-1067
اف	-1068
▁आग	-1069
▁ᱵᱟ	-1070
भा	-1071
▁क्र	-1072
na	-1073
न्द्र	-1074
ुळ्ळ	-1075
▁पुल	-1076
▁नाह	-1077
▁ᱢᱤᱫ	-1078
▁jing	-1079
▁य़	-1080
तिक	-1081
▁ری	-1082
▁ڪرڻ	-1083
▁समय	-1084
्यू	-1085
इल	-1086
च्छ	-1087
▁वर्ष	-1088
▁ᱴ	-1089
▁गा	-1090
ड़े	-1091
हो	-1092
▁᱒	-1093
▁कू	-1094
ia	-1095
نگ	-1096
▁for	-1097
र्ण	-1098
ᱢᱟ	-1099
▁उन	-1100
सन	-1101
ोट	-1102
▁ٽ	-1103
धा	-1104
▁मै	-1105
ist	-1106
प्	-1107
▁मध्य	-1108
▁रही	-1109
▁واری	-1110
▁हिक	-1111
दान	-1112
ما	-1113
▁سند	-1114
▁z	-1115
िय़े	-1116
हार	-1117
▁मार	-1118
▁ꯃꯇ	-1119
ठी	-1120
वन	-1121
सार	-1122
▁فل	-1123
माण	-1124
▁اہ	-1125
▁करो	-1126
یٖ	-1127
▁मौ	-1128
▁लई	-1129
▁ng	-1130
हिं	-1131
थम	-1132
▁ᱛᱟᱦᱮᱸ	-1133
▁आज	-1134
ᱩᱭ	-1135
धि	-1136
▁ᱧ	-1137
ہہ	-1138
▁तक	-1139
▁st	-1140
▁ᱟᱹ	-1141
▁مش	-1142
ैक	-1143
▁کٲ	-1144
ᱤᱡ	-1145
ंट	-1146
▁रो	-1147
▁G	-1148
▁बना	-1149
▁=	-1150
ेट	-1151
▁ज़	-1152
▁बाह	-1153
बार	-1154
्यो	-1155
▁नाल	-1156
▁शे	-1157
्यां	-1158
ꯨꯝ	-1159
ाबे	-1160
▁स्ट	-1161
ड़ा	-1162
ᱟᱣ	-1163
رف	-1164
▁शु	-1165
▁कारण	-1166
▁ᱜᱮ	-1167
un	-1168
बु	-1169
ळे	-1170
▁%	-1171
▁मोन	-1172
▁ban	-1173
ڙی	-1174
कारी	-1175
ज्ञ	-1176
oh	-1177
▁घट	-1178
खन	-1179
▁हाल	-1180
▁9	-1181
▁चल	-1182
िता	-1183
ew	-1184
▁उत्त	-1185
▁ڪن	-1186
▁The	-1187
शा	-1188
्रो	-1189
उँ	-1190
▁करी	-1191
il	-1192
ver	-1193
ڪی	-1194
ᱥᱤ	-1195
▁चि	-1196
▁यु	-1197
▁kan	-1198
श्च	-1199
ᱟᱲ	-1200
ाल्	-1201
▁J	-1202
رین	-1203
▁जिल्ल	-1204
لام	-1205
▁خان	-1206
▁चॆय	-1207
ᱤᱨ	-1208
▁तॆ	-1209
िरु	-1210
▁غ	-1211
्यान	-1212
भाग	-1213
▁ذ	-1214
▁لی	-1215
▁ᱟᱠᱟ	-1216
ूल	-1217
▁श्री	-1218
▁جنہن	-1219
▁दू	-1220
▁द्व	-1221
▁ꯈ	-1222
▁ꯆꯩ	-1223
▁आइ	-1224
ce	-1225
लाई	-1226
ालि	-1227
▁दर	-1228
ul	-1229
نؠ	-1230
▁ꯆꯥꯎ	-1231
▁پنہن	-1232
ꯅꯨꯡ	-1233
باد	-1234
کی	-1235
पर	-1236
▁ची	-1237
ندی	-1238
सु	-1239
ालय	-1240
ंदा	-1241
دار	-1242
اڻی	-1243
▁साह	-1244
ुरू	-1245
्यात	-1246
ٽر	-1247
▁रि	-1248
eng	-1249
▁ام	-1250
▁स्क	-1251
▁चु	-1252
▁18	-1253
▁ꯐ	-1254
اص	-1255
▁said	-1256
क्रम	-1257
ᱱᱤ	-1258
▁मुख्य	-1259
▁وی	-1260
िसि	-1261
▁निय	-1262
▁ऑ	-1263
▁उत	-1264
▁یو	-1265
▁مر	-1266
ागि	-1267
ss	-1268
त्तु	-1269
▁हन	-1270
ानाय	-1271
▁टी	-1272
ڏہن	-1273
ᱡᱽ	-1274
▁_	-1275
ꯈꯤ	-1276
ैत	-1277
ंच	-1278
▁तों	-1279
ष्ट्र	-1280
awh	-1281
िकि	-1282
▁شا	-1283
▁مق	-1284
ड्	-1285
تا	-1286
▁असि	-1287
▁بر	-1288
ra	-1289
त्व	-1290
عی	-1291
▁ꯃꯅꯨꯡ	-1292
▁जग	-1293
▁ادا	-1294
▁बोल	-1295
▁ꯃꯁꯤ	-1296
र्ट	-1297
▁bad	-1298
▁पुर	-1299
ᱟᱸ	-1300
चना	-1301
▁تر	-1302
ہان	-1303
▁अग	-1304
ावर	-1305
او	-1306
▁स़	-1307
مل	-1308
छिल	-1309
जों	-1310
▁ہیں	-1311
▁क्षे	-1312
ھر	-1313
▁W	-1314
در	-1315
▁आउ	-1316
▁नट	-1317
▁F	-1318
ङ्ग	-1319
زی	-1320
ोध	-1321
کار	-1322
ेरी	-1323
मन	-1324
▁ꯑꯃꯅꯤ꯫	-1325
णु	-1326
ᱨᱮ	-1327
▁चॆ	-1328
▁पोल	-1329
वास	-1330
ٹھ	-1331
مان	-1332
▁म्ह	-1333
▁५	-1334
▁دی	-1335
▁नाहीं	-1336
▁४	-1337
▁बस	-1338
▁बन	-1339
▁ڪو	-1340
▁ᱞᱮᱠᱟ	-1341
▁भू	-1342
▁रहा	-1343
▁लक्ष	-1344
▁ᱦᱚᱱᱚᱛ	-1345
▁वॆ	-1346
نے	-1347
▁ꯍꯦ	-1348
▁अं	-1349
टक	-1350
ꯋꯥ	-1351
न्ध	-1352
क्ट	-1353
▁फो	-1354
▁जां	-1355
वान	-1356
ामां	-1357
ील	-1358
्ज	-1359
िदॆ	-1360
प्त	-1361
▁꯱	-1362
▁पॆ	-1363
थाय	-1364
बाद	-1365
▁हिकु	-1366
ेश	-1367
▁उस	-1368
ᱚᱸ	-1369
वु	-1370
▁ڪی	-1371
▁फिर	-1372
ᱚᱞ	-1373
▁विच	-1374
ᱮᱞ	-1375
ंप	-1376
ꯕꯥ	-1377
क्ति	-1378
▁ओइ	-1379
▁رہ	-1380
▁कई	-1381
ow	-1382
چی	-1383
ꯃꯤ	-1384
▁ᱱᱚᱣᱟ	-1385
▁E	-1386
▁उन्ह	-1387
जो	-1388
ers	-1389
▁इक	-1390
▁तथा	-1391
ीक	-1392
आव	-1393
िय़ा	-1394
भाव	-1395
▁स्प	-1396
▁आफ	-1397
▁تھ	-1398
ाम्	-1399
▁किस	-1400
▁योग	-1401
▁बद	-1402
ly	-1403
▁15	-1404
▁करत	-1405
खो	-1406
▁است	-1407
ᱩᱢ	-1408
ंगा	-1409
▁سگ	-1410
ावा	-1411
ٲنؠ	-1412
ये	-1413
▁ھن	-1414
▁ڪم	-1415
یندو	-1416
िन्त	-1417
▁अत	-1418
ुद	-1419
ांत	-1420
▁नो	-1421
▁is	-1422
▁कोई	-1423
ᱚᱴ	-1424
اس	-1425
मोन	-1426
ارو	-1427
▁پہ	-1428
▁अपने	-1429
▁बार	-1430
▁ऐं	-1431
▁کران	-1432
▁12	-1433
▁طور	-1434
▁गई	-1435
▁ٿا	-1436
▁पाइ	-1437
▁मर	-1438
▁وڏ	-1439
ڪو	-1440
चि	-1441
▁that	-1442
ामी	-1443
la	-1444
ᱟᱹᱜ	-1445
▁فر	-1446
ۄس	-1447
ट्टु	-1448
म्ब	-1449
जार	-1450
▁ꯑꯗꯨ	-1451
▁200	-1452
▁ऒरु	-1453
सं	-1454
▁इं	-1455
ئے	-1456
▁महा	-1457
ामा	-1458
se	-1459
▁ہندو	-1460
नर	-1461
गत	-1462
▁गै	-1463
▁मात्र	-1464
▁जर	-1465
▁خو	-1466
▁मुं	-1467
▁ᱵᱮ	-1468
▁कृ	-1469
▁پوء	-1470
▁भाग	-1471
▁होई	-1472
ल्या	-1473
ꯁꯨ	-1474
▁हय़	-1475
▁एम	-1476
and	-1477
خت	-1478
▁एहि	-1479
हु	-1480
ꯦꯝ	-1481
▁प्रधान	-1482
ऱॆ	-1483
ᱚᱦ	-1484
▁ڪئی	-1485
▁وڃ	-1486
▁नाही	-1487
▁श्र	-1488
▁ढ	-1489
▁سندس	-1490
مین	-1491
▁*	-1492
▁भर	-1493
ta	-1494
ٛد	-1495
ᱩᱜ	-1496
▁यां	-1497
ꯣꯛ	-1498
सो	-1499
ꯌꯦ	-1500
काश	-1501
ेत	-1502
ार्थ	-1503
ate	-1504
▁सुर	-1505
▁पुलिस	-1506
किन	-1507
क्षण	-1508
क्क्	-1509
بو	-1510
▁یۄس	-1511
टुत्त	-1512
th	-1513
ment	-1514
ेक	-1515
▁इति	-1516
▁ꯍꯦꯟꯅ	-1517
▁اہو	-1518
ᱠᱷᱟ	-1519
▁इरु	-1520
▁نو	-1521
छन्ति	-1522
नाव	-1523
▁सम्प	-1524
ाण्	-1525
ेन	-1526
▁करने	-1527
ीस	-1528
पू	-1529
▁ور	-1530
ill	-1531
▁थी	-1532
سم	-1533
कल	-1534
िस्	-1535
▁ꯆꯩꯁꯤꯡ	-1536
▁हाय़	-1537
ᱟᱹᱨ	-1538
ळी	-1539
ستٲنؠ	-1540
▁विश्व	-1541
▁इह	-1542
▁खातिर	-1543
▁छी	-1544
ाट	-1545
▁एगो	-1546
مال	-1547
ᱤᱛ	-1548
▁علی	-1549
नानै	-1550
शेष	-1551
श्य	-1552
▁छो	-1553
▁आह	-1554
दन	-1555
▁وڌ	-1556
▁नव	-1557
▁प्रथम	-1558
ाइन	-1559
ालु	-1560
ڙو	-1561
▁de	-1562
ीर	-1563
ोजना	-1564
▁स्	-1565
▁जब	-1566
िट	-1567
ेम	-1568
▁ꯂꯥꯢ	-1569
op	-1570
▁پنہنجی	-1571
▁اپ	-1572
ꯄꯥꯛ	-1573
مو	-1574
▁इत	-1575
एं	-1576
گی	-1577
ुलु	-1578
▁ब्य	-1579
चन	-1580
न्न्	-1581
od	-1582
▁हव	-1583
▁उद	-1584
▁سال	-1585
ᱤᱭᱟᱹ	-1586
ाहे	-1587
इँ	-1588
ऱि	-1589
न्ट	-1590
▁کٲم	-1591
▁گہ	-1592
ाकु	-1593
्यास	-1594
िली	-1595
▁अद	-1596
▁उपयोग	-1597
क्कु	-1598
▁निर	-1599
▁क्षेत्र	-1600
▁وقت	-1601
ꯂꯣꯟ	-1602
्ला	-1603
ᱮᱱ	-1604
ळै	-1605
▁मं	-1606
▁ꯑꯣꯏ	-1607
्रह	-1608
ीत	-1609
▁जउन	-1610
ih	-1611
ith	-1612
ہیں	-1613
ङ्कु	-1614
▁ئی	-1615
णो	-1616
▁ch	-1617
فی	-1618
्राय	-1619
▁१९	-1620
ندا	-1621
▁at	-1622
ter	-1623
न्स	-1624
وی	-1625
▁فلمن	-1626
▁>	-1627
जर	-1628
मन्त	-1629
▁محمد	-1630
ᱮᱥ	-1631
न्तु	-1632
▁اداکار	-1633
▁वार	-1634
ag	-1635
ꯇꯩ	-1636
اہہ	-1637
haw	-1638
▁अज	-1639
تاب	-1640
▁ٺ	-1641
िते	-1642
▁عل	-1643
ꯗꯥ	-1644
▁ᱢᱮᱱᱟᱜᱼᱟ	-1645
ात्	-1646
िऱ	-1647
im	-1648
ٹی	-1649
▁در	-1650
▁اسان	-1651
نا	-1652
▁खाल	-1653
ᱷᱟᱨ	-1654
▁रहल	-1655
▁काल	-1656
▁با	-1657
▁ماڻ	-1658
स्था	-1659
▁ट्रे	-1660
▁ꯅꯤ	-1661
▁जु	-1662
ৰৰ	-1663
▁पं	-1664
▁इन	-1665
ंतर	-1666
▁ꯁꯤ	-1667
ियां	-1668
▁اداکارہ	-1669
ᱶᱟ	-1670
▁ایک	-1671
ायो	-1672
▁نا	-1673
ुन्नु	-1674
صو	-1675
▁मन्त	-1676
▁फर	-1677
gh	-1678
खी	-1679
▁थे	-1680
▁जिस	-1681
▁स्त	-1682
▁निक	-1683
▁कन्न	-1684
▁con	-1685
▁اللہ	-1686
वल	-1687
ेले	-1688
▁आन	-1689
us	-1690
▁᱒᱐	-1691
▁यू	-1692
▁as	-1693
ᱠᱚ	-1694
سٽ	-1695
▁आई	-1696
▁ꯌꯥ	-1697
یڪ	-1698
▁त्या	-1699
▁मां	-1700
वस	-1701
▁ओन	-1702
्ता	-1703
टु	-1704
▁अध्य	-1705
▁सँ	-1706
ꯑꯣ	-1707
ꯕꯤ	-1708
سان	-1709
िती	-1710
▁te	-1711
▁यह	-1712
▁202	-1713
ᱚᱵ	-1714
शिं	-1715
▁करा	-1716
▁अपन	-1717
▁तम	-1718
مر	-1719
▁بھی	-1720
▁नै	-1721
▁सर्	-1722
▁चा	-1723
▁रात	-1724
ورت	-1725
ꯔꯤꯕ	-1726
▁ꯆꯥꯎꯕ	-1727
ंत्र	-1728
▁अन्त	-1729
▁ꯃꯍ	-1730
▁11	-1731
▁انہن	-1732
▁ᱦᱩᱭ	-1733
ꯥꯟ	-1734
▁مط	-1735
▁इन्त	-1736
गिरि	-1737
▁६	-1738
▁सबसे	-1739
▁लेकिन	-1740
▁बल	-1741
▁ꯃꯇꯝ	-1742
▁ڈ	-1743
ᱷᱤ	-1744
यि	-1745
▁सर्व	-1746
▁समाज	-1747
ंलो	-1748
▁دو	-1749
▁se	-1750
▁na	-1751
▁भारती	-1752
مبر	-1753
▁माम	-1754
दल्लि	-1755
pp	-1756
▁यो	-1757
ारॆ	-1758
पु	-1759
ट्टि	-1760
▁द्वारा	-1761
▁म्हण	-1762
▁ᱨᱟ	-1763
▁हू	-1764
▁था	-1765
ुटॆ	-1766
▁جان	-1767
क्कॆ	-1768
▁राह	-1769
ंद्र	-1770
▁꯲	-1771
द्र	-1772
▁it	-1773
ुलि	-1774
▁अन्य	-1775
ृष्ट	-1776
ld	-1777
▁हइ	-1778
िलो	-1779
▁कौ	-1780
ायाव	-1781
te	-1782
ڪر	-1783
बंध	-1784
▁थाख	-1785
▁leh	-1786
▁पॊ	-1787
प्पु	-1788
पो	-1789
▁com	-1790
▁कहि	-1791
ऩ्ऩ	-1792
भव	-1793
▁لا	-1794
ळा	-1795
▁hm	-1796
ᱫᱽ	-1797
▁जाग	-1798
▁खां	-1799
ڪن	-1800
ासे	-1801
ꯨꯞ	-1802
सम	-1803
▁एबं	-1804
▁chuan	-1805
ादा	-1806
her	-1807
ादों	-1808
ھو	-1809
اح	-1810
हन	-1811
▁ڌ	-1812
▁करण	-1813
▁ᱰ	-1814
▁with	-1815
ik	-1816
ꯁꯤꯡꯒꯤ	-1817
▁नाग	-1818
▁तॊ	-1819
▁थि	-1820
▁गरे	-1821
ियै	-1822
▁O	-1823
▁جیڪو	-1824
ाकी	-1825
▁अदु	-1826
▁माह	-1827
▁آباد	-1828
▁मुक	-1829
اج	-1830
▁सौ	-1831
▁نظ	-1832
मो	-1833
▁دور	-1834
▁ᱱᱚᱶᱟ	-1835
ئن	-1836
▁दर्	-1837
▁मात	-1838
▁डे	-1839
▁was	-1840
▁सिग	-1841
▁त्यां	-1842
▁यि	-1843
▁मानव	-1844
▁ᱱᱟ	-1845
▁पनि	-1846
ियन	-1847
ोजन	-1848
▁दिस	-1849
गु	-1850
▁तेओ	-1851
ाका	-1852
▁ضل	-1853
▁تائین	-1854
▁कट	-1855
▁सद	-1856
▁भाष	-1857
▁हमरा	-1858
▁اڳ	-1859
ارن	-1860
गळु	-1861
न्ऱॆ	-1862
यं	-1863
▁ट्र	-1864
▁७	-1865
चित	-1866
खर	-1867
▁ᱚᱱᱟ	-1868
art	-1869
▁छल	-1870
▁बां	-1871
थां	-1872
▁thi	-1873
▁संघ	-1874
ाके	-1875
▁by	-1876
ंदर	-1877
ंदी	-1878
▁کٔ	-1879
▁जाण	-1880
▁pyn	-1881
▁फै	-1882
िके	-1883
्याप	-1884
▁करु	-1885
ᱠᱷ	-1886
ڻی	-1887
▁मद	-1888
िनो	-1889
▁लाख	-1890
▁राम	-1891
الو	-1892
▁تن	-1893
▁ꯍꯥꯏ	-1894
ाज़	-1895
▁मुल	-1896
▁توہان	-1897
▁پاڪ	-1898
▁विर	-1899
ᱫᱟ	-1900
▁मइँ	-1901
ियि	-1902
▁आद	-1903
ासन	-1904
▁jong	-1905
ित्य	-1906
्लो	-1907
ᱚᱲ	-1908
दॆ	-1909
تر	-1910
▁खो	-1911
▁14	-1912
▁ٿیو	-1913
▁माव	-1914
ck	-1915
▁ꯑꯦ	-1916
▁अइ	-1917
▁बरे	-1918
ामु	-1919
▁ৱ	-1920
▁تم	-1921
▁Ind	-1922
▁we	-1923
ᱩᱞ	-1924
▁साथे	-1925
تے	-1926
थिबा	-1927
عد	-1928
ᱛᱤ	-1929
लं	-1930
꯰꯰	-1931
ial	-1932
ध्ये	-1933
▁تح	-1934
ल्य	-1935
▁बिस	-1936
▁माटे	-1937
ञ्ञ	-1938
एस	-1939
▁कहा	-1940
▁पाप	-1941
▁तां	-1942
ख्या	-1943
ᱨᱚ	-1944
▁सम्	-1945
र्स	-1946
▁چو	-1947
▁परिव	-1948
करण	-1949
▁tak	-1950
▁थो	-1951
रिक	-1952
▁ھڪ	-1953
ुनि	-1954
ानो	-1955
▁0	-1956
▁गया	-1957
ड्ड	-1958
एल	-1959
ꯨꯔ	-1960
▁उठ	-1961
▁फ़	-1962
▁वो	-1963
▁मास	-1964
र्ग	-1965
▁चार	-1966
جود	-1967
मक	-1968
▁رک	-1969
▁لک	-1970
▁شہر	-1971
▁पाल	-1972
▁एह	-1973
▁स्थान	-1974
قع	-1975
▁क्ल	-1976
▁करन	-1977
▁اع	-1978
▁आपन	-1979
▁माड	-1980
ꯂꯩ	-1981
▁टि	-1982
▁دن	-1983
ुमार	-1984
▁وہ	-1985
▁महिला	-1986
▁ٽی	-1987
▁करें	-1988
च्चु	-1989
▁किया	-1990
▁सिं	-1991
▁कीता	-1992
▁रुप	-1993
िल्ली	-1994
▁ᱟᱡ	-1995
ᱩᱛ	-1996
▁कॆ	-1997
मत	-1998
▁राष्ट्र	-1999
ोष	-2000
ᱟᱥ	-2001
▁ہئ	-2002
rom	-2003
▁آر	-2004
▁᱑᱙	-2005
फी	-2006
day	-2007
ूह	-2008
▁१०	-2009
म्बर	-2010
ेरे	-2011
یم	-2012
▁चाल	-2013
ort	-2014
▁कन्नै	-2015
▁डा	-2016
▁रोज	-2017
ुक्कु	-2018
ंत्री	-2019
माय	-2020
्रीय	-2021
▁खालाम	-2022
▁भे	-2023
ore	-2024
ाहा	-2025
▁मँ	-2026
▁मेल	-2027
▁बत	-2028
جن	-2029
▁sh	-2030
▁ᱯᱷ	-2031
▁لو	-2032
▁گڏ	-2033
▁अर्	-2034
▁विष	-2035
▁सुब	-2036
थिले	-2037
▁ᱞᱟᱹᱜ	-2038
्स	-2039
امل	-2040
ئین	-2041
▁पल	-2042
ᱴᱤ	-2043
प्पट	-2044
▁ang	-2045
▁ہندوستٲنؠ	-2046
िरुव	-2047
تو	-2048
्न	-2049
▁टे	-2050
▁इल	-2051
▁ᱥᱟᱶ	-2052
माग	-2053
्ति	-2054
▁धर	-2055
ियों	-2056
▁پڻ	-2057
گری	-2058
▁मत्तु	-2059
सुं	-2060
▁V	-2061
▁aw	-2062
▁17	-2063
پور	-2064
▁نہیں	-2065
▁परी	-2066
सँ	-2067
फोरा	-2068
▁अर्थ	-2069
▁एस	-2070
न्म	-2071
ڪار	-2072
▁وڃی	-2073
▁सार	-2074
ندڙ	-2075
▁विचार	-2076
▁फे	-2077
ꯇꯤ	-2078
ाणी	-2079
▁हत	-2080
▁ऎऩ	-2081
▁ڄ	-2082
वाल	-2083
os	-2084
▁ꯑꯣꯢ	-2085
▁<	-2086
▁ᱡᱟᱦ	-2087
▁پار	-2088
▁फिल्	-2089
▁ꯀꯥꯡ	-2090
سو	-2091
▁سب	-2092
ऱ्क	-2093
▁گر	-2094
पे	-2095
▁पड	-2096
्रेस	-2097
िस्ट	-2098
▁प्रदेश	-2099
ंदे	-2100
क्का	-2101
▁मसि	-2102
ꯧꯕ	-2103
▁थाखाय	-2104
ᱢᱤ	-2105
▁बता	-2106
▁ᱥᱤᱧ	-2107
▁अहम	-2108
▁su	-2109
▁|	-2110
▁काहे	-2111
वामां	-2112
▁ڪتاب	-2113
▁दल	-2114
यन	-2115
रू	-2116
▁सूत्र	-2117
▁छा	-2118
▁आवे	-2119
▁ᱩᱱᱤ	-2120
▁ꯃꯍꯥꯛ	-2121
▁پاڪستان	-2122
▁کیا	-2123
▁होत	-2124
ain	-2125
▁तरी	-2126
ap	-2127
िये	-2128
▁ڳو	-2129
▁فی	-2130
▁ᱦᱚᱸ	-2131
▁काय	-2132
▁ꯗ	-2133
▁गए	-2134
li	-2135
धन	-2136
har	-2137
▁विकास	-2138
شی	-2139
▁लागि	-2140
▁समय़	-2141
▁शाम	-2142
ᱨᱟ	-2143
िलॆ	-2144
▁टाइ	-2145
स्प	-2146
امی	-2147
▁बिज	-2148
क़	-2149
वर्	-2150
▁पर्य	-2151
کر	-2152
ٹر	-2153
टल	-2154
दर्	-2155
▁सफ	-2156
ud	-2157
▁اح	-2158
▁तीन	-2159
▁ڏین	-2160
▁पक्ष	-2161
▁has	-2162
▁रु	-2163
सू	-2164
▁شرو	-2165
ᱟᱱᱟ	-2166
▁पिछ	-2167
▁शुरू	-2168
▁y	-2169
ईं	-2170
بل	-2171
▁ار	-2172
ادی	-2173
سن	-2174
ाते	-2175
▁ꯒꯤ	-2176
▁उत्तर	-2177
▁پاک	-2178
▁८	-2179
▁दै	-2180
▁سڀ	-2181
▁चित्र	-2182
ंब	-2183
▁ꯃꯤꯇꯩ	-2184
तिर	-2185
▁یون	-2186
न्नि	-2187
000	-2188
▁ली	-2189
ꯜꯂꯤ	-2190
▁२०१	-2191
नेर	-2192
ᱲᱟ	-2193
▁उन्न	-2194
▁पार्ट	-2195
रेट	-2196
▁جڏہن	-2197
کہ	-2198
खोय़	-2199
िनी	-2200
▁अक	-2201
श्ब	-2202
ant	-2203
▁तेओँ	-2204
▁गर	-2205
▁ᱥᱤᱧᱚᱛ	-2206
▁बढ़	-2207
ᱞᱟ	-2208
▁दूर	-2209
▁याद	-2210
▁ᱞᱮᱠᱟᱛᱮ	-2211
▁गिर	-2212
▁चो	-2213
ity	-2214
▁16	-2215
ग्र	-2216
▁चित्त	-2217
ण्ण	-2218
▁ख़	-2219
▁रू	-2220
्ले	-2221
▁घटना	-2222
िन्तु	-2223
است	-2224
प्पॆ	-2225
ेली	-2226
▁फोर	-2227
▁अभिय	-2228
▁ᱢᱩ	-2229
▁جون	-2230
▁गइल	-2231
ائن	-2232
▁اب	-2233
▁आक	-2234
▁قو	-2235
ंभ	-2236
▁ᱠᱟᱹ	-2237
▁माल	-2238
est	-2239
▁13	-2240
▁ᱥᱮᱨ	-2241
▁पास	-2242
▁kaba	-2243
꯭ꯔ	-2244
▁बाबे	-2245
ندر	-2246
▁बैठ	-2247
▁अमसुं	-2248
▁ऎऩ्ऱ	-2249
▁وز	-2250
टन	-2251
थिला	-2252
▁आल	-2253
▁हास	-2254
▁अभि	-2255
فر	-2256
▁होन	-2257
फ्राय	-2258
▁विद्य	-2259
ᱮᱛ	-2260
तन	-2261
▁आं	-2262
ائون	-2263
▁नगर	-2264
न्थ	-2265
▁नेपाल	-2266
▁شروع	-2267
▁दिमाग	-2268
▁लेल	-2269
▁अनेक	-2270
یٖر	-2271
▁पूरा	-2272
ok	-2273
▁शक	-2274
त्तिल्	-2275
ائڻ	-2276
▁ڏی	-2277
▁बिच	-2278
भू	-2279
our	-2280
▁छु	-2281
اڪ	-2282
▁سم	-2283
av	-2284
▁कोरो	-2285
▁30	-2286
▁अहा	-2287
▁लोगो	-2288
▁ꯄꯨ	-2289
▁ہئی	-2290
▁हाग	-2291
▁ब्र	-2292
▁प्रय	-2293
رح	-2294
▁ڇڏ	-2295
▁हजार	-2296
▁from	-2297
▁अमेर	-2298
▁این	-2299
ल्ले	-2300
▁آھن	-2301
▁राख	-2302
प्पट्ट	-2303
▁कय	-2304
जू	-2305
भिन्न	-2306
▁अफ	-2307
▁ve	-2308
▁दुन	-2309
▁ٿین	-2310
दो	-2311
▁طرف	-2312
ثر	-2313
▁ᱞᱟᱹᱜᱤᱫ	-2314
نہٕ	-2315
▁चौ	-2316
मुख	-2317
▁कंप	-2318
▁pro	-2319
ृद्ध	-2320
▁استع	-2321
▁ھو	-2322
▁चाहे	-2323
ेंट	-2324
स्व	-2325
ᱤᱭᱟ	-2326
▁तार	-2327
िण	-2328
▁سنڌی	-2329
▁देव	-2330
▁25	-2331
ञ्ज	-2332
▁اد	-2333
▁ملڪ	-2334
▁कर्म	-2335
▁नेत	-2336
▁पाक	-2337
▁नं	-2338
▁ᱥᱮᱨᱢᱟ	-2339
▁मुख	-2340
▁कइ	-2341
यर	-2342
▁si	-2343
वाई	-2344
ड़ि	-2345
ab	-2346
▁एव	-2347
ेरा	-2348
▁لڳ	-2349
कै	-2350
मिक	-2351
▁بعد	-2352
▁हालां	-2353
▁مس	-2354
्युं	-2355
ایو	-2356
द्दारॆ	-2357
हरू	-2358
ᱚᱠ	-2359
▁एन	-2360
ꯁꯨꯡ	-2361
▁बिल	-2362
نو	-2363
▁بل	-2364
▁al	-2365
ाता	-2366
دہ	-2367
र्च	-2368
▁जीवन	-2369
▁اسلام	-2370
करा	-2371
ृत्य	-2372
▁kh	-2373
▁had	-2374
तम	-2375
▁कोरोना	-2376
▁واقع	-2377
ङा	-2378
▁असम	-2379
▁چیو	-2380
श्र	-2381
स्थित	-2382
▁आख	-2383
▁जव	-2384
▁ᱠᱚᱣᱟ	-2385
ाइल	-2386
▁कोनो	-2387
▁समा	-2388
▁केर	-2389
▁हालांकि	-2390
ڪری	-2391
▁استعمال	-2392
▁व्यव	-2393
▁परे	-2394
▁अति	-2395
दै	-2396
ुकु	-2397
▁तौ	-2398
▁उत्प	-2399
▁sha	-2400
ڪل	-2401
▁योजना	-2402
▁ग्राम	-2403
लब	-2404
ानु	-2405
शु	-2406
▁ہر	-2407
▁पद	-2408
lo	-2409
ओं	-2410
ङ्ङळ	-2411
▁भि	-2412
▁उह	-2413
ئر	-2414
▁فو	-2415
ायक	-2416
▁ڳوٺ	-2417
▁नुं	-2418
▁हत्त	-2419
▁ᱨᱤᱱ	-2420
nt	-2421
ष्य	-2422
▁؟	-2423
▁बारे	-2424
आर	-2425
▁करना	-2426
▁ہئا	-2427
ास्थ	-2428
سر	-2429
▁तैं	-2430
▁ᱟᱠᱟᱱᱟ	-2431
▁मूं	-2432
मै	-2433
▁पूर्व	-2434
तः	-2435
ꯟꯗꯤ	-2436
ाको	-2437
ूट	-2438
▁जिला	-2439
▁निल	-2440
▁ꯑꯃꯁꯨꯡ	-2441
▁नय	-2442
جہ	-2443
▁ꯋꯥ	-2444
▁अथ	-2445
▁अगर	-2446
त्ता	-2447
▁बिथां	-2448
▁सन्	-2449
▁छन्	-2450
▁गाव	-2451
▁अधिकार	-2452
मध्ये	-2453
▁अंग	-2454
सल	-2455
▁وال	-2456
र्ड	-2457
▁आहि	-2458
▁जण	-2459
▁سا	-2460
ᱯᱩᱨ	-2461
्यारा	-2462
▁हई	-2463
देर	-2464
तां	-2465
▁गर्न	-2466
ृह	-2467
▁०	-2468
ꯦꯟ	-2469
▁شامل	-2470
बाट	-2471
▁ᱵᱷ	-2472
▁बज	-2473
▁مسل	-2474
ऩै	-2475
▁प्रा	-2476
ंग्	-2477
दगी	-2478
▁जघ	-2479
ep	-2480
हास	-2481
لق	-2482
▁कथा	-2483
▁बाब	-2484
▁عب	-2485
▁पापी	-2486
▁भारतीय	-2487
▁गां	-2488
▁صو	-2489
▁जिल्ला	-2490
▁फिल्म	-2491
▁हय़े	-2492
सिन	-2493
▁ऎंदु	-2494
त्स	-2495
▁क्या	-2496
▁लाभ	-2497
▁शिक्ष	-2498
सभ	-2499
▁सिगरेट	-2500
▁आहेत	-2501
▁न्य	-2502
▁पट	-2503
پو	-2504
▁पाइँ	-2505
ect	-2506
▁लगा	-2507
छु	-2508
▁बॆ	-2509
ice	-2510
ब्ब	-2511
▁९	-2512
▁are	-2513
▁होय	-2514
ैयिल्	-2515
▁मॊ	-2516
▁پاڻ	-2517
म्भ	-2518
ण्ट्	-2519
▁رہی	-2520
ear	-2521
▁کن	-2522
▁ویندو	-2523
प्पि	-2524
▁जघन्य	-2525
▁सै	-2526
دال	-2527
▁पचे	-2528
▁अहइँ	-2529
▁don	-2530
▁हौ	-2531
▁ट्रेनर	-2532
लत	-2533
▁सान	-2534
▁बंद	-2535
ङ्कळ्	-2536
▁ᱡᱟᱦᱟᱸ	-2537
▁मोर	-2538
ᱤᱠ	-2539
▁व्यक्त	-2540
▁ᱡᱚ	-2541
▁ꯀꯥ	-2542
▁स्ब	-2543
▁लाण	-2544
▁नाशी	-2545
ᱩᱱ	-2546
▁तउ	-2547
▁वाले	-2548
▁बिचणो	-2549
▁हत्त्यारा	-2550
▁किन्तु	-2551
▁ꯀꯤ	-2552
▁करते	-2553
ies	-2554
▁आसाम	-2555
▁भाव	-2556
ho	-2557
▁ष	-2558
ष्ण	-2559
شر	-2560
ꯖꯤ	-2561
▁निर्माण	-2562
▁موجود	-2563
ive	-2564
गळन्नु	-2565
बल	-2566
▁खेल	-2567
▁प्रस्त	-2568
▁प्रत्य	-2569
▁संस्थ	-2570
▁حاص	-2571
بان	-2572
▁ᱫᱤᱥ	-2573
▁जै	-2574
▁पिर	-2575
ाति	-2576
▁प्रश	-2577
▁एल	-2578
▁᱐	-2579
ᱫᱚ	-2580
▁In	-2581
▁महि	-2582
▁रहि	-2583
▁ताल	-2584
▁कीती	-2585
▁+	-2586
ꯛꯇ	-2587
▁निज	-2588
▁ᱟᱭ	-2589
ठन	-2590
▁बाज	-2591
डॆ	-2592
▁परिवार	-2593
▁तोह	-2594
ٕن	-2595
▁अंत	-2596
پی	-2597
ृति	-2598
▁ᱠᱟᱛᱮ	-2599
▁will	-2600
▁हॆ	-2601
▁भएको	-2602
▁ᱯᱚᱱᱚᱛ	-2603
ियाव	-2604
ارت	-2605
शक	-2606
▁جہ	-2607
न्ड	-2608
ꯣꯡ	-2609
ess	-2610
▁कुमार	-2611
▁تھا	-2612
▁विभाग	-2613
▁حاصل	-2614
▁ٻو	-2615
▁शिव	-2616
▁हैछे	-2617
▁وڌیڪ	-2618
ोलो	-2619
▁سیا	-2620
▁कयो	-2621
गि	-2622
▁अध्यक्ष	-2623
ौं	-2624
चर	-2625
जाब	-2626
عت	-2627
▁نالو	-2628
ᱤᱴ	-2629
جھ	-2630
res	-2631
ाठी	-2632
▁جنھن	-2633
▁لف	-2634
▁مد	-2635
व्	-2636
▁mi	-2637
रॆ	-2638
▁सोम	-2639
छेन	-2640
▁मऱ्ऱ	-2641
णय	-2642
لیم	-2643
awn	-2644
ابق	-2645
▁रख	-2646
▁डॉ	-2647
▁बदल	-2648
ui	-2649
▁سل	-2650
▁go	-2651
माक	-2652
yll	-2653
ork	-2654
▁फेर	-2655
▁ऎन्न	-2656
▁ꯕ	-2657
▁have	-2658
کو	-2659
up	-2660
ीय	-2661
▁भु	-2662
▁सकत	-2663
▁उद्	-2664
▁उद्य	-2665
تہ	-2666
स्या	-2667
िछे	-2668
▁شی	-2669
▁گہر	-2670
▁ꯌꯦ	-2671
▁थानाय	-2672
▁पत्र	-2673
▁دنیا	-2674
ान्य	-2675
▁मध्य़	-2676
▁सोर	-2677
▁कॉ	-2678
▁اص	-2679
ँच	-2680
▁होते	-2681
دڙ	-2682
▁مہ	-2683
▁مخت	-2684
▁थां	-2685
▁गुरु	-2686
▁रिप	-2687
▁पढ़	-2688
ینی	-2689
क्ख	-2690
▁ꯗꯤ	-2691
▁प्रो	-2692
▁तेम	-2693
▁ھی	-2694
ंगी	-2695
▁21	-2696
▁ꯂꯩꯕ	-2697
▁ᱜᱚᱴ	-2698
▁مت	-2699
भी	-2700
▁वाप	-2701
▁तय	-2702
्त्त	-2703
▁माध्य	-2704
▁उच्च	-2705
▁कुल	-2706
▁ᱵᱟᱝ	-2707
ᱞᱮ	-2708
▁पुन	-2709
▁दिल्ली	-2710
िस्थ	-2711
▁पाठ	-2712
▁पानी	-2713
▁सूचना	-2714
▁वास्त	-2715
▁ङ	-2716
▁केन्द्र	-2717
▁कार्यक्रम	-2718
व्य	-2719
्वा	-2720
▁सुबुं	-2721
▁बाल	-2722
▁24	-2723
▁हिन	-2724
▁जरूर	-2725
▁ᱯᱟ	-2726
▁तरह	-2727
کن	-2728
ؠٹھ	-2729
▁جیڪی	-2730
▁सदस्य	-2731
▁ब्ल	-2732
▁199	-2733
ac	-2734
▁बिष	-2735
ڪا	-2736
धे	-2737
नायनि	-2738
▁ꯅꯤ꯫	-2739
▁सेवा	-2740
دان	-2741
िरे	-2742
▁छात्र	-2743
▁ꯁꯥ	-2744
ज्ञान	-2745
▁प्रकार	-2746
ꯄꯥ	-2747
▁ꯃꯃꯤ	-2748
▁कराय	-2749
▁विशेष	-2750
▁टाइम	-2751
र्कळ्	-2752
▁وین	-2753
ब्द	-2754
▁᱒᱐᱑	-2755
ꯄꯤ	-2756
▁ex	-2757
▁عام	-2758
ᱜᱟ	-2759
जय	-2760
▁پیدا	-2761
ळॆ	-2762
رت	-2763
फोरखौ	-2764
▁प्रश्	-2765
▁हाद	-2766
▁ᱤ	-2767
▁केंद्र	-2768
▁वरु	-2769
inist	-2770
िरुन्नु	-2771
▁Ka	-2772
ٽو	-2773
धु	-2774
▁जाए	-2775
▁عر	-2776
▁علا	-2777
▁پرو	-2778
ीय़	-2779
▁दौर	-2780
▁ᱢᱟᱨ	-2781
▁انہی	-2782
▁दिल	-2783
▁सन	-2784
क्षे	-2785
▁जगह	-2786
▁काही	-2787
لف	-2788
▁not	-2789
꯰꯰꯰	-2790
▁कर्	-2791
▁आधार	-2792
▁꯭	-2793
ोत	-2794
▁نی	-2795
awng	-2796
▁जना	-2797
एम	-2798
▁کھ	-2799
वुं	-2800
क्कि	-2801
▁नियम	-2802
ian	-2803
ंदो	-2804
मन्त्री	-2805
▁ᱧᱩᱛ	-2806
▁प्ल	-2807
▁चुक	-2808
ब्ल	-2809
▁बिजे	-2810
ᱮᱡ	-2811
▁یوان	-2812
▁जल	-2813
▁विषय	-2814
▁उन्हां	-2815
▁यदि	-2816
गार	-2817
टॆ	-2818
▁होता	-2819
end	-2820
ᱚᱥ	-2821
ाज्य	-2822
लों	-2823
red	-2824
▁गिआ	-2825
ब्र	-2826
ॆन्न	-2827
iv	-2828
वत	-2829
▁..	-2830
▁पार्टी	-2831
वै	-2832
▁संस्क	-2833
▁ᱮᱢ	-2834
▁त्र	-2835
▁चॆय्त	-2836
▁गवा	-2837
क्की	-2838
▁नम	-2839
▁ٹ	-2840
▁लेख	-2841
ᱰᱮ	-2842
ff	-2843
▁کٔش	-2844
हां	-2845
▁ہنٛد	-2846
▁ڪیت	-2847
▁ꯀꯨꯝ	-2848
▁जाह	-2849
▁꯳	-2850
▁तोर	-2851
णार	-2852
बाय	-2853
▁India	-2854
थिन	-2855
ائے	-2856
▁ꯔ	-2857
▁thu	-2858
▁बच्च	-2859
▁सिंह	-2860
ित्	-2861
▁गुब	-2862
▁ᱧᱩᱛᱩᱢ	-2863
ऩर्	-2864
▁प्रभ	-2865
▁मूल	-2866
▁प्राप	-2867
ाजी	-2868
▁भग	-2869
जेर	-2870
▁राय	-2871
ᱱᱟᱣ	-2872
एका	-2873
▁मज	-2874
▁پؠٹھ	-2875
ासी	-2876
▁ᱟᱹᱰᱤ	-2877
हत	-2878
▁आदि	-2879
▁मदद	-2880
▁प्रकाश	-2881
▁लड़	-2882
اہر	-2883
▁چی	-2884
न्छ	-2885
ांना	-2886
ti	-2887
▁दिख	-2888
▁सच	-2889
नबा	-2890
▁पृ	-2891
▁थेके	-2892
▁ᱯᱟᱹᱨ	-2893
रिय	-2894
▁کیس	-2895
▁अधिकारी	-2896
▁ᱦᱩᱭᱩᱜ	-2897
لاف	-2898
▁कब	-2899
▁آپ	-2900
▁पड़	-2901
▁ᱜᱟ	-2902
हरु	-2903
▁mai	-2904
▁शुरु	-2905
▁कव	-2906
ऱु	-2907
▁वाला	-2908
▁ہم	-2909
नाथ	-2910
न्त्र	-2911
▁भाइ	-2912
ालो	-2913
▁ꯌꯦꯡ	-2914
▁अलग	-2915
ठा	-2916
▁अनुम	-2917
▁ꯃꯅꯨꯡꯗꯒꯤ	-2918
▁सुन	-2919
رس	-2920
▁ٻڌ	-2921
▁मिळ	-2922
▁खर	-2923
▁पुत	-2924
टिय	-2925
ght	-2926
▁ꯂꯩꯄꯥꯛ	-2927
▁क्य	-2928
▁एका	-2929
ित्तु	-2930
▁तब	-2931
▁बुलि	-2932
च्छा	-2933
▁रोग	-2934
▁घोष	-2935
▁जाइ	-2936
सै	-2937
ine	-2938
▁जन्म	-2939
▁अनुसार	-2940
▁خاص	-2941
ꯣꯢ	-2942
▁ڪنہن	-2943
ज्	-2944
▁दोन	-2945
ागिदॆ	-2946
ٺی	-2947
▁ᱢᱮᱱ	-2948
▁डी	-2949
▁اہی	-2950
▁शा	-2951
▁ᱟᱜ	-2952
▁awm	-2953
▁گو	-2954
ामि	-2955
हाँ	-2956
ry	-2957
▁ایس	-2958
▁अध	-2959
▁जारी	-2960
▁وزیر	-2961
▁ᱞᱮᱱᱟ	-2962
▁مطابق	-2963
▁ꯃꯅꯤ	-2964
ᱵᱽ	-2965
▁दिवस	-2966
फोरनि	-2967
▁बहु	-2968
ᱵᱟ	-2969
स्तै	-2970
▁जादों	-2971
▁ᱡᱮ	-2972
▁صح	-2973
▁kiba	-2974
ارا	-2975
▁लगे	-2976
▁ᱯᱟᱹᱨᱥᱤ	-2977
ec	-2978
ord	-2979
ru	-2980
▁जइ	-2981
▁तिनि	-2982
▁उळ्ळ	-2983
▁ꯀꯪ	-2984
ादन	-2985
ᱷᱟᱱ	-2986
ꯂꯨꯞ	-2987
क्टर	-2988
دن	-2989
▁स्म	-2990
युं	-2991
▁ᱡᱟᱹ	-2992
▁प्रमुख	-2993
ालय़	-2994
▁चाही	-2995
▁ڳال	-2996
ric	-2997
ress	-2998
▁आत्	-2999
प्पो	-3000
▁लिख	-3001
▁ꯀꯥꯡꯂꯨꯞ	-3002
▁ایم	-3003
▁ڇا	-3004
तात	-3005
▁ᱠᱩ	-3006
▁होए	-3007
▁हय	-3008
▁ओकर	-3009
ni	-3010
▁संबंध	-3011
▁एह्	-3012
▁قر	-3013
▁धन्य	-3014
qu	-3015
▁ڊی	-3016
▁हती	-3017
ऱै	-3018
▁ᱛᱟᱭ	-3019
▁तौर	-3020
اتھ	-3021
▁चू	-3022
दम	-3023
فا	-3024
▁किर	-3025
▁मही	-3026
ङ्कळ	-3027
▁मृत्य	-3028
▁सिद्ध	-3029
ेल्या	-3030
ᱮᱨ	-3031
▁حی	-3032
ᱚᱫ	-3033
पूर्ण	-3034
ात्म	-3035
ण्या	-3036
ᱚᱭ	-3037
ॊंड	-3038
▁इट	-3039
▁ما	-3040
वन्नु	-3041
ber	-3042
▁बीच	-3043
जु	-3044
▁حص	-3045
▁निर्णय	-3046
हण	-3047
awk	-3048
▁अनि	-3049
انا	-3050
▁नइ	-3051
▁एत	-3052
قو	-3053
▁लोगोसे	-3054
रस	-3055
▁kat	-3056
ary	-3057
یہ	-3058
▁नु	-3059
ल्प	-3060
नै	-3061
▁اخ	-3062
ुन्नत्	-3063
ig	-3064
ॆगॆ	-3065
▁गाय	-3066
▁em	-3067
▁ڦ	-3068
ादी	-3069
षण	-3070
▁ꯃꯥ	-3071
▁कान	-3072
▁طرح	-3073
रै	-3074
▁چون	-3075
▁केस	-3076
▁تاری	-3077
डिय	-3078
▁دل	-3079
िस्तान	-3080
िस़	-3081
▁ꯑꯃꯒꯤ	-3082
▁وچ	-3083
हित	-3084
▁शै	-3085
▁किहा	-3086
▁दक्ष	-3087
ᱛᱟ	-3088
तक	-3089
्य़ा	-3090
मार	-3091
निफ्राय	-3092
▁پیش	-3093
▁कहीं	-3094
ائم	-3095
ष्क	-3096
▁गण	-3097
▁गुर	-3098
▁जानकारी	-3099
▁وئی	-3100
▁दाख	-3101
▁مٿ	-3102
▁इन्	-3103
▁po	-3104
▁{	-3105
▁22	-3106
▁نن	-3107
ꯦ꯫	-3108
▁साव	-3109
गै	-3110
▁श्रृ	-3111
▁ar	-3112
▁जल्	-3113
ुकळ	-3114
▁مار	-3115
▁बले	-3116
▁ꯀꯪꯂꯩ	-3117
ोनां	-3118
▁تمام	-3119
्लु	-3120
▁समुद	-3121
▁प्रक	-3122
▁बिश्ब	-3123
▁राव	-3124
uk	-3125
ورن	-3126
▁kum	-3127
▁अऱ	-3128
▁tih	-3129
ڻو	-3130
बाक	-3131
पास	-3132
ापन	-3133
र्न	-3134
▁बच	-3135
▁रंग	-3136
भर	-3137
▁कन	-3138
द्व	-3139
▁उल्ले	-3140
▁دیھ	-3141
▁मार्	-3142
ताल	-3143
▁وڏی	-3144
्यु	-3145
ांनी	-3146
▁وارو	-3147
▁नेता	-3148
▁ꯆꯠ	-3149
▁नाय	-3150
▁whi	-3151
फा	-3152
▁ꯑꯃꯗꯤ	-3153
▁हिस्	-3154
▁مختلف	-3155
▁पोइ	-3156
عو	-3157
▁उपल	-3158
▁pe	-3159
▁हॊ	-3160
▁पऱ	-3161
▁मैं	-3162
▁یس	-3163
▁भेल	-3164
awm	-3165
▁संप	-3166
▁सल	-3167
त्तिय	-3168
▁साइ	-3169
ंक	-3170
▁अपना	-3171
ung	-3172
▁ᱫᱤᱥᱚᱢ	-3173
اہی	-3174
▁ad	-3175
खां	-3176
ऱ्ऱि	-3177
yr	-3178
▁भाज	-3179
ani	-3180
▁ون	-3181
▁असे	-3182
ᱯᱷ	-3183
▁दौ	-3184
▁गुबुन	-3185
▁شاع	-3186
षि	-3187
▁ریاست	-3188
▁}	-3189
▁کٔشیٖر	-3190
▁تاریخ	-3191
वाह	-3192
▁जित	-3193
▁प्रभाव	-3194
▁अऊ	-3195
▁अख	-3196
▁۱	-3197
र्त	-3198
▁सॆ	-3199
▁बढ	-3200
▁नया	-3201
प्पा	-3202
डियो	-3203
बां	-3204
ट्स	-3205
▁री	-3206
▁ᱮᱞ	-3207
▁علائ	-3208
▁कां	-3209
तिय	-3210
مہ	-3211
ादे	-3212
▁गोल	-3213
▁तिर	-3214
▁खा	-3215
▁छू	-3216
▁باب	-3217
▁ᱦᱟ	-3218
ण्टु	-3219
▁भने	-3220
▁ڪار	-3221
▁اوس	-3222
ٽن	-3223
▁दिया	-3224
▁ᱨᱮᱱ	-3225
▁ꯁꯦꯝ	-3226
ऱ्प	-3227
▁ꯗꯒꯤ	-3228
me	-3229
▁गेजेर	-3230
▁꯴	-3231
▁खास	-3232
▁पहिले	-3233
▁آز	-3234
▁गरेको	-3235
▁नौ	-3236
ास्थ्य	-3237
▁केल	-3238
▁प्रस	-3239
ST	-3240
ریون	-3241
ॊळ्ळ	-3242
▁वास्तव	-3243
ूब	-3244
so	-3245
▁भाषा	-3246
▁ꯃꯌꯥ	-3247
भे	-3248
▁kha	-3249
▁عمر	-3250
▁शहर	-3251
▁जीव	-3252
त्तॆ	-3253
▁زند	-3254
य़ार	-3255
▁हाज	-3256
ᱟᱨᱤ	-3257
▁करोना	-3258
ᱞᱤ	-3259
चं	-3260
eg	-3261
▁ᱫᱷ	-3262
▁आश	-3263
لن	-3264
▁समझ	-3265
▁नॆ	-3266
▁Y	-3267
▁थियो	-3268
▁ओह	-3269
▁ᱞᱟ	-3270
▁ہند	-3271
माने	-3272
▁نم	-3273
تم	-3274
▁ڪا	-3275
ust	-3276
دین	-3277
▁दौरान	-3278
▁ث	-3279
▁शामिल	-3280
क्षी	-3281
▁पय	-3282
दिन	-3283
▁dei	-3284
▁جس	-3285
▁होती	-3286
▁हात	-3287
▁पौ	-3288
ाकि	-3289
▁all	-3290
▁ri	-3291
िसिद	-3292
▁दाब	-3293
▁br	-3294
पति	-3295
▁संद	-3296
ᱟᱹᱭ	-3297
▁अय	-3298
▁इर	-3299
▁राजा	-3300
ष्ट्रीय	-3301
▁साहित्य	-3302
ब्ध	-3303
ꯔꯤꯛ	-3304
क्षित	-3305
ard	-3306
▁देइ	-3307
मंत्री	-3308
20	-3309
▁انگری	-3310
ाकार	-3311
▁جم	-3312
वागि	-3313
▁प्रश्न	-3314
▁tur	-3315
▁رہیو	-3316
ॆन्न्	-3317
ꯣꯏ	-3318
▁ï	-3319
▁आब	-3320
▁شھر	-3321
ानिकि	-3322
ामे	-3323
ोप	-3324
▁श्रृंग	-3325
▁ᱠᱟᱱ	-3326
▁50	-3327
▁सत	-3328
▁मल	-3329
▁his	-3330
ome	-3331
▁پنج	-3332
▁पक	-3333
नुं	-3334
च्च्	-3335
▁آف	-3336
ᱛᱩ	-3337
ᱚᱝ	-3338
▁ٻی	-3339
▁पां	-3340
افی	-3341
▁حڪو	-3342
▁समी	-3343
▁hn	-3344
▁سک	-3345
بن	-3346
▁सांग	-3347
ꯅꯕ	-3348
▁رس	-3349
ᱰᱟ	-3350
रक	-3351
च्चि	-3352
▁आफाद	-3353
▁शिक्षा	-3354
▁चॆय्य	-3355
विध	-3356
न्दा	-3357
ꯑꯣꯏ	-3358
▁ڏینہن	-3359
▁जवाब	-3360
▁pawh	-3361
र्ब	-3362
▁ڪل	-3363
ضی	-3364
▁धर्म	-3365
▁ᱢᱟ	-3366
▁उपर	-3367
▁श्रृंगेरी	-3368
▁नयँ	-3369
▁दोलो	-3370
▁ओह्	-3371
द्दु	-3372
▁ٻولی	-3373
ामुळे	-3374
चो	-3375
▁दिह	-3376
्कळ्	-3377
ᱮᱴ	-3378
ꯦꯜ	-3379
▁را	-3380
▁ꯑꯆ	-3381
बनि	-3382
▁क़	-3383
▁تب	-3384
▁बुध	-3385
▁اچی	-3386
▁सेइ	-3387
▁लेई	-3388
▁देखा	-3389
▁मूंखे	-3390
ृद्धि	-3391
▁ᱥᱚᱨ	-3392
िकळ	-3393
awi	-3394
▁हुए	-3395
▁सोल	-3396
डल	-3397
▁ᱞᱮᱠᱷᱟ	-3398
▁ᱮᱱᱟ	-3399
▁197	-3400
▁चर	-3401
▁ᱡᱟᱱᱟ	-3402
▁मोदी	-3403
▁हां	-3404
▁आवश्य	-3405
▁संख्या	-3406
▁صاح	-3407
▁ꯍꯤ	-3408
▁फार	-3409
स्तु	-3410
▁खान	-3411
▁زمین	-3412
खार	-3413
▁sp	-3414
▁ꯇꯤ	-3415
▁لفظ	-3416
नं	-3417
▁मंग	-3418
▁हवय	-3419
सद	-3420
▁198	-3421
▁مول	-3422
▁2020	-3423
▁بھ	-3424
▁गरि	-3425
▁گھ	-3426
▁मृत	-3427
ظم	-3428
▁ꯌꯥꯝ	-3429
टै	-3430
▁माग	-3431
▁ڪرا	-3432
▁اف	-3433
चाल	-3434
▁ag	-3435
ुक्र	-3436
▁گا	-3437
cc	-3438
▁ta	-3439
▁hian	-3440
▁वाय	-3441
▁ᱠᱮᱫ	-3442
▁ᱛᱟᱭᱚᱢ	-3443
धारण	-3444
ᱠᱩ	-3445
▁एर	-3446
▁ᱚᱱ	-3447
ावी	-3448
▁परमे	-3449
क्कुम्	-3450
چھ	-3451
सुक	-3452
तार	-3453
▁युव	-3454
▁بنیا	-3455
▁ꯅꯨ	-3456
मेल	-3457
य्	-3458
▁समस्या	-3459
डिया	-3460
▁रां	-3461
▁عمل	-3462
▁خلاف	-3463
▁ꯀꯪꯂꯩꯄꯥꯛ	-3464
▁ꯎ	-3465
्ली	-3466
▁फ्र	-3467
हान	-3468
ꯠꯇ	-3469
iang	-3470
▁सिर	-3471
ونی	-3472
▁شر	-3473
▁ظ	-3474
▁वऴ	-3475
िकी	-3476
▁दुनिया	-3477
▁कथ	-3478
▁زبان	-3479
ᱟᱹᱲ	-3480
▁ꯃꯔ	-3481
▁पहिल	-3482
ूँ	-3483
▁अमा	-3484
फम	-3485
▁फराय	-3486
▁ज्ञ	-3487
▁᱓	-3488
▁लु	-3489
▁अंद	-3490
▁बड़	-3491
▁अद्	-3492
▁23	-3493
▁मुत	-3494
▁नेइ	-3495
▁جیڪا	-3496
▁आजि	-3497
वो	-3498
▁ꯀꯧꯕ	-3499
زن	-3500
▁व्यक्ति	-3501
फे	-3502
▁१५	-3503
▁टीम	-3504
▁कहल	-3505
▁اول	-3506
▁ٻین	-3507
▁१२	-3508
▁ऎल्ल	-3509
▁सप	-3510
▁حض	-3511
ڊی	-3512
▁पहुं	-3513
अर	-3514
▁उदाह	-3515
ात्त	-3516
▁حڪومت	-3517
▁ध्यान	-3518
▁सामान्य	-3519
▁बिभिन्न	-3520
▁اج	-3521
▁da	-3522
▁मऱ्ऱुम्	-3523
▁मुंब	-3524
▁hu	-3525
एन	-3526
ाबाद	-3527
▁ᱚᱠ	-3528
▁मॆ	-3529
▁صاحب	-3530
शत	-3531
▁फा	-3532
▁गर्ने	-3533
च्छे	-3534
▁गत	-3535
निवास	-3536
▁ᱨᱟᱡᱽ	-3537
▁long	-3538
▁ꯃꯅꯤꯄ	-3539
▁वाह	-3540
▁कहे	-3541
▁मध्ये	-3542
▁इव	-3543
oc	-3544
कां	-3545
ction	-3546
▁मख	-3547
ᱚᱡ	-3548
▁केवल	-3549
han	-3550
त्तै	-3551
▁जाई	-3552
غیر	-3553
▁nong	-3554
▁پیر	-3555
▁सिनि	-3556
फ्	-3557
▁होर	-3558
▁कुर	-3559
ऱ्ऱ्	-3560
▁कम्प	-3561
लाइन	-3562
▁ong	-3563
الا	-3564
ातील	-3565
▁ᱥᱟᱞ	-3566
▁पश्च	-3567
म्मी	-3568
ꯌꯦꯛ	-3569
▁धन्यवाद	-3570
▁जाये	-3571
▁کٲشر	-3572
वड	-3573
▁कप	-3574
▁जाने	-3575
मर	-3576
वरी	-3577
▁میر	-3578
बक	-3579
धर	-3580
mp	-3581
▁कुट	-3582
चल	-3583
▁बाग	-3584
▁यस	-3585
▁नार	-3586
डर	-3587
ᱵᱷ	-3588
फुं	-3589
سین	-3590
▁ویا	-3591
्यं	-3592
िबलै	-3593
छा	-3594
▁बेर	-3595
▁माण	-3596
तरी	-3597
▁स्थानी	-3598
▁عال	-3599
▁आहिनि	-3600
▁गोनां	-3601
▁श्रीनिवास	-3602
▁चीन	-3603
▁हार	-3604
▁काज	-3605
اں	-3606
माऩ	-3607
नॆ	-3608
▁तै	-3609
भार	-3610
▁किसान	-3611
▁आँ	-3612
▁पाव	-3613
ूत	-3614
बस	-3615
▁रिपो	-3616
्यार	-3617
▁इल्ल	-3618
▁प्रे	-3619
▁196	-3620
युक्त	-3621
▁ذری	-3622
ोरी	-3623
ynta	-3624
पै	-3625
▁धार	-3626
▁ᱥᱚᱦ	-3627
ुत्तदॆ	-3628
▁أ	-3629
▁He	-3630
ast	-3631
ख्र	-3632
▁डिस	-3633
▁बछ	-3634
▁chi	-3635
▁खुल	-3636
▁नहि	-3637
सभा	-3638
▁2021	-3639
ꯕꯁꯤ	-3640
▁शेष	-3641
में	-3642
▁نالی	-3643
देह	-3644
▁कांग	-3645
नां	-3646
▁बैं	-3647
▁पेर	-3648
▁जुल	-3649
▁ᱵᱤᱨ	-3650
ऊन	-3651
▁एकर	-3652
्रम	-3653
▁قسم	-3654
ould	-3655
▁مخ	-3656
▁वह	-3657
▁दुइ	-3658
▁ꯆꯜꯂꯤ	-3659
▁रै	-3660
▁حال	-3661
ꯥꯔ	-3662
▁आछे	-3663
▁ऑफ	-3664
دم	-3665
▁ऱ	-3666
▁अञ्च	-3667
ہور	-3668
▁जांच	-3669
▁ब्य़	-3670
▁وڏو	-3671
ट्र	-3672
جہہ	-3673
▁छै	-3674
▁ꯏꯟꯗꯤ	-3675
اھ	-3676
▁ᱠᱟᱹᱢᱤ	-3677
गळि	-3678
▁ٿئی	-3679
▁᱖	-3680
र्भ	-3681
▁पइ	-3682
▁प्रेम	-3683
▁ᱮᱱ	-3684
्मी	-3685
▁होने	-3686
▁मतलब	-3687
▁تعلیم	-3688
▁अनुष्ठ	-3689
थो	-3690
त्त्	-3691
▁خط	-3692
▁एकरा	-3693
▁शब्द	-3694
تہٕ	-3695
▁ज्या	-3696
▁शी	-3697
▁ꯃꯈ	-3698
▁आर्	-3699
▁अवरु	-3700
क्ना	-3701
با	-3702
ꯣꯔ	-3703
िबि	-3704
▁پری	-3705
▁खोज	-3706
▁फि	-3707
▁سام	-3708
▁off	-3709
▁वेण्ट	-3710
▁उद्योग	-3711
ᱱᱟᱹ	-3712
व्ह	-3713
ڙا	-3714
▁इंड	-3715
▁अभी	-3716
▁नई	-3717
गल	-3718
▁ᱧᱟᱢ	-3719
▁न्यू	-3720
بار	-3721
▁کرنے	-3722
▁ꯉ	-3723
▁११	-3724
▁ᱛᱟᱦᱮᱸᱫ	-3725
▁part	-3726
▁सरकारी	-3727
ꯅꯤ꯫	-3728
▁अच	-3729
▁सघ	-3730
▁also	-3731
▁IST	-3732
▁ꯃꯊ	-3733
ुलो	-3734
aka	-3735
تن	-3736
▁کم	-3737
زار	-3738
▁आरोप	-3739
▁मैथ	-3740
▁अपनी	-3741
▁हिन्द	-3742
ङो	-3743
काल	-3744
▁बन्ध	-3745
▁अश	-3746
inister	-3747
ᱮᱭᱟ	-3748
ꯈꯟ	-3749
▁पता	-3750
▁नेईं	-3751
▁شاہہ	-3752
▁दं	-3753
▁काहेकि	-3754
vern	-3755
▁नाव	-3756
ef	-3757
▁ᱛᱟᱞ	-3758
▁यांनी	-3759
झे	-3760
▁टा	-3761
ᱟᱹᱱ	-3762
▁وٽ	-3763
▁बाहर	-3764
▁᱕	-3765
▁been	-3766
ंस	-3767
▁घे	-3768
▁खुद	-3769
▁हुई	-3770
▁चिक	-3771
वॆ	-3772
ादेर	-3773
ञ्	-3774
ाती	-3775
▁ᱜᱚᱴᱟᱝ	-3776
▁قب	-3777
▁ٹی	-3778
tu	-3779
▁hri	-3780
ाणे	-3781
▁सात	-3782
्द	-3783
▁ꯏꯟꯗꯤꯌꯥ	-3784
▁मार्च	-3785
aih	-3786
ायत	-3787
▁पत	-3788
ूरी	-3789
▁26	-3790
श्वर	-3791
्ये	-3792
▁आर्थ	-3793
▁उल्लेख	-3794
▁सभी	-3795
▁हवे	-3796
▁पूरी	-3797
▁28	-3798
▁مص	-3799
▁پور	-3800
ाजिक	-3801
ڪس	-3802
▁रेल	-3803
▁me	-3804
▁ٻن	-3805
▁یم	-3806
▁दास	-3807
▁आनी	-3808
▁ماڻہو	-3809
▁पोस्ट	-3810
▁तथ	-3811
▁स्थिति	-3812
▁कुझ	-3813
▁...	-3814
णं	-3815
▁केला	-3816
न्ने	-3817
▁پاکستان	-3818
▁इतिहास	-3819
▁श्रे	-3820
▁बाय	-3821
▁काव	-3822
िलि	-3823
डो	-3824
ंटे	-3825
ous	-3826
▁ꯌ	-3827
یس	-3828
یات	-3829
▁समान	-3830
▁بچ	-3831
▁पत्	-3832
ind	-3833
▁ᱵᱤ	-3834
▁قائم	-3835
▁कोन	-3836
▁عبدال	-3837
aj	-3838
▁बिजेपि	-3839
▁प्रमाण	-3840
▁بڻ	-3841
टर्	-3842
▁सहित	-3843
▁ड्र	-3844
▁लौ	-3845
ꯐꯝ	-3846
ृष्टि	-3847
eh	-3848
िऱतु	-3849
ꯍꯤ	-3850
▁झाल	-3851
▁ꯀꯥꯈꯟ	-3852
ानक	-3853
िकल	-3854
ुंब	-3855
▁مذ	-3856
रीर	-3857
▁ᱞᱮᱫ	-3858
▁फोटो	-3859
▁चर्	-3860
▁उपलब्ध	-3861
▁انت	-3862
▁शुक्र	-3863
िंचि	-3864
▁हिस	-3865
▁कमि	-3866
▁ऎं	-3867
▁سید	-3868
ꯦꯡ	-3869
▁देखि	-3870
्ती	-3871
▁व्या	-3872
▁ꯑꯗꯨꯒ	-3873
ाइट	-3874
▁27	-3875
ub	-3876
▁नागरिक	-3877
▁ᱟᱥ	-3878
▁हाथ	-3879
ꯕꯨ	-3880
بہ	-3881
▁उदाहरण	-3882
ऴि	-3883
▁तमि	-3884
▁رہن	-3885
▁हतो	-3886
▁ꯄꯨꯋꯥ	-3887
▁تق	-3888
ꯂꯦꯝ	-3889
▁2019	-3890
▁किछु	-3891
▁तन	-3892
▁मोनसे	-3893
ated	-3894
आई	-3895
▁ٿیڻ	-3896
all	-3897
زا	-3898
▁पात	-3899
▁केली	-3900
▁मनु	-3901
▁दिय़े	-3902
▁اہا	-3903
▁इउ	-3904
ᱜᱽ	-3905
गोन	-3906
ᱜᱮ	-3907
بت	-3908
▁फोन	-3909
▁फल	-3910
▁तुम्	-3911
उण	-3912
▁बड़े	-3913
میر	-3914
▁100	-3915
िको	-3916
▁बातन	-3917
▁गरी	-3918
▁ऐखोय़	-3919
▁res	-3920
سٹ	-3921
बगी	-3922
og	-3923
लेज	-3924
ᱟᱦᱟ	-3925
▁सेहो	-3926
ऴ्	-3927
▁ꯈꯨ	-3928
▁Ch	-3929
▁खबर	-3930
▁ruh	-3931
▁संक्रम	-3932
▁हीं	-3933
▁देर	-3934
▁ꯂꯝ	-3935
▁मुक्त	-3936
▁बैदि	-3937
छी	-3938
▁बन्द	-3939
ᱲᱤ	-3940
▁थका	-3941
▁हमर	-3942
▁بین	-3943
िपि	-3944
▁29	-3945
दोंमोन	-3946
▁گیا	-3947
▁सामाजिक	-3948
▁आता	-3949
ानानै	-3950
▁लोगन	-3951
िलुं	-3952
▁आत्म	-3953
▁खिला	-3954
▁आपणे	-3955
▁कंपनी	-3956
▁پھ	-3957
▁कूडा	-3958
आत	-3959
▁समूह	-3960
,000	-3961
वरु	-3962
▁शो	-3963
▁सही	-3964
▁2018	-3965
▁आवेदन	-3966
ैयुम्	-3967
▁कभी	-3968
▁اک	-3969
▁ᱮᱛ	-3970
▁ꯂꯥꯢꯔꯤꯛ	-3971
वारी	-3972
▁खूब	-3973
▁چھے	-3974
▁نق	-3975
सरे	-3976
ᱩᱴ	-3977
▁करिब	-3978
हरी	-3979
▁स्टे	-3980
वेश	-3981
ताक	-3982
▁انسان	-3983
▁shi	-3984
सान	-3985
▁बैठक	-3986
▁सोच	-3987
▁आसान	-3988
▁ᱩᱱ	-3989
▁سپ	-3990
वाय	-3991
▁प्रयोग	-3992
▁ꯂꯣꯟ	-3993
▁nih	-3994
ाणि	-3995
▁᱔	-3996
▁आर्थिक	-3997
oll	-3998
ान्नि	-3999
िऩ्	-4000
▁पोलीस	-4001
▁सभा	-4002
ार्थी	-4003
लाय	-4004
ाबो	-4005
▁विजय	-4006
दर्शन	-4007
अइ	-4008
▁per	-4009
ꯦꯠ	-4010
ुन्नारु	-4011
▁तुल	-4012
▁ضلعی	-4013
▁पट्ट	-4014
▁تک	-4015
▁कउ	-4016
▁किं	-4017
▁परिण	-4018
یرو	-4019
नाम	-4020
if	-4021
▁خی	-4022
्ते	-4023
وری	-4024
▁तॆल	-4025
ید	-4026
▁गाह	-4027
ागी	-4028
▁شری	-4029
▁ne	-4030
▁रिपोर्ट	-4031
▁प्रव	-4032
▁पंहिं	-4033
▁بہت	-4034
▁who	-4035
▁कय़	-4036
▁तल	-4037
داد	-4038
▁दक्षिण	-4039
▁واپ	-4040
▁آخ	-4041
▁مشہور	-4042
لے	-4043
तै	-4044
▁कैल	-4045
▁ओकरा	-4046
▁सबइ	-4047
19	-4048
شت	-4049
ॆयल्लि	-4050
▁ꯃꯅꯤꯄꯨꯔ	-4051
▁Te	-4052
▁pol	-4053
ꯦꯛ	-4054
▁سڏ	-4055
▁comp	-4056
सेन	-4057
▁حو	-4058
खान	-4059
▁ꯂꯤ	-4060
▁माज	-4061
▁बजे	-4062
ꯝꯕ	-4063
▁اہم	-4064
▁ꯃꯩ	-4065
चु	-4066
▁ڏنو	-4067
▁ᱜᱮᱭᱟ	-4068
▁مج	-4069
िसुव	-4070
▁मतम	-4071
म्बा	-4072
▁were	-4073
▁ᱢᱤᱫᱴ	-4074
▁حضرت	-4075
▁स्कूल	-4076
▁اپنے	-4077
▁वर्	-4078
vernment	-4079
▁ꯏꯁ	-4080
▁दुर्	-4081
▁ننڍ	-4082
تؠ	-4083
श्चित	-4084
ाइछि	-4085
▁thl	-4086
▁उपस्थित	-4087
▁40	-4088
▁विल	-4089
▁inc	-4090
▁آم	-4091
ꯨꯛ	-4092
ᱫᱤ	-4093
لاح	-4094
▁अल्ल	-4095
▁प्राप्त	-4096
▁डो	-4097
▁१८	-4098
hah	-4099
ren	-4100
▁जय	-4101
رم	-4102
▁काफी	-4103
▁سہ	-4104
▁जिल	-4105
▁हता	-4106
स्सर	-4107
▁am	-4108
▁kane	-4109
▁انہیء	-4110
▁आलो	-4111
ھان	-4112
ठे	-4113
▁कळ	-4114
▁साब	-4115
▁बहोत	-4116
▁वक़	-4117
▁ᱟᱹᱛᱩ	-4118
age	-4119
▁बिर	-4120
ریل	-4121
सक	-4122
▁اڪ	-4123
माण्	-4124
▁बिय	-4125
▁or	-4126
िकॆ	-4127
▁तैय	-4128
▁ऎऩ्ऱु	-4129
रिबा	-4130
▁लाल	-4131
▁ᱵᱟᱨ	-4132
टिंग	-4133
▁دوران	-4134
ंतॆ	-4135
▁व्याप	-4136
एफ	-4137
ᱮᱢ	-4138
ितु	-4139
▁نش	-4140
रिगॆ	-4141
▁ملی	-4142
▁रॆ	-4143
र्श	-4144
▁نظر	-4145
تان	-4146
▁चुनाव	-4147
धीन	-4148
▁बं	-4149
वानी	-4150
▁सुरक्षा	-4151
▁sng	-4152
द्धा	-4153
نٛ	-4154
▁बैंक	-4155
▁دا	-4156
▁मरि	-4157
▁ضر	-4158
یوں	-4159
▁मृत्यु	-4160
▁प्रक्र	-4161
क्ता	-4162
ग्री	-4163
▁जौ	-4164
फो	-4165
▁महान	-4166
▁ठे	-4167
▁घोषणा	-4168
ादेश	-4169
▁नर	-4170
▁परमेस्सर	-4171
▁वियो	-4172
वण	-4173
▁काठ	-4174
ident	-4175
िरुद्ध	-4176
बत	-4177
▁महत्व	-4178
▁अवर	-4179
▁تعلق	-4180
▁ꯃꯁꯤꯗꯒꯤ	-4181
▁چونڊ	-4182
▁अक्	-4183
▁194	-4184
ेरि	-4185
ाय़क	-4186
▁इत्य	-4187
▁ꯍꯥꯏꯕꯁꯤ	-4188
त्ते	-4189
ोरा	-4190
▁لیے	-4191
ther	-4192
▁करवा	-4193
▁اچ	-4194
▁सुरु	-4195
षु	-4196
टुक्क	-4197
▁वात	-4198
र्ज	-4199
▁nei	-4200
▁पुरु	-4201
▁करदे	-4202
▁جنگ	-4203
fter	-4204
▁वाट	-4205
▁ᱜᱤᱫ	-4206
ꯣꯜ	-4207
▁ग्	-4208
ांश	-4209
ount	-4210
▁ماڻہن	-4211
▁प्रत्येक	-4212
▁نام	-4213
ागत	-4214
▁ہل	-4215
▁वें	-4216
ᱪᱮᱫ	-4217
▁अथवा	-4218
▁नाइ	-4219
▁परिस्थ	-4220
▁kam	-4221
▁کہا	-4222
स़न	-4223
ियु	-4224
▁सकता	-4225
جا	-4226
▁लोको	-4227
स्ता	-4228
ज्ज	-4229
त्तर	-4230
▁मक्क	-4231
▁تنہن	-4232
्यासाठी	-4233
▁ᱭ	-4234
▁प्रदान	-4235
ायद	-4236
▁ᱟᱡᱟᱜ	-4237
ासै	-4238
ylla	-4239
▁स्पष्ट	-4240
▁ڪجہہ	-4241
▁شہ	-4242
ियल	-4243
▁صرف	-4244
ꯂꯣꯟꯒꯤ	-4245
ᱯᱟ	-4246
▁ٿیل	-4247
▁یتھ	-4248
▁हाँ	-4249
▁St	-4250
▁बिभाग	-4251
ाईं	-4252
▁कउनो	-4253
वुम्	-4254
ue	-4255
▁سبب	-4256
िकेट	-4257
▁विस्त	-4258
ᱛᱚ	-4259
▁थाक	-4260
शोध	-4261
ोंने	-4262
क्किय	-4263
▁घेत	-4264
▁माइ	-4265
ादक	-4266
ायख	-4267
▁नदी	-4268
▁नां	-4269
▁this	-4270
▁which	-4271
▁सूर	-4272
नेट	-4273
▁दान	-4274
▁ab	-4275
▁समाव	-4276
▁जायो	-4277
▁वय	-4278
▁गीत	-4279
▁मना	-4280
मित	-4281
▁स्थाप	-4282
ाये	-4283
▁ᱠᱟᱱᱟᱭ	-4284
गद	-4285
ष्टा	-4286
ारो	-4287
▁ꯌꯦꯡꯂ	-4288
मल	-4289
ual	-4290
▁बड़ी	-4291
छू	-4292
▁جب	-4293
ڙن	-4294
▁ᱜᱟᱱ	-4295
▁ᱠᱟᱱᱟ᱾	-4296
ॆन्नुं	-4297
पछि	-4298
▁आगे	-4299
▁निय़	-4300
▁مسلمان	-4301
▁195	-4302
▁صدر	-4303
▁धन	-4304
ुत्ति	-4305
طر	-4306
पन	-4307
ङाव	-4308
▁ꯍꯧ	-4309
स्थान	-4310
न्द्	-4311
▁वध	-4312
▁सङ्	-4313
ंतु	-4314
▁करके	-4315
▁kyn	-4316
ांक	-4317
▁दीआं	-4318
▁अइसन	-4319
ide	-4320
ᱫᱷ	-4321
भग	-4322
▁ᱵᱮᱱᱟᱣ	-4323
▁ᱟᱢ	-4324
▁बध	-4325
▁भए	-4326
▁पाह	-4327
ओइ	-4328
▁आठ	-4329
▁मरु	-4330
झा	-4331
ov	-4332
▁khaw	-4333
तना	-4334
▁गुण	-4335
यै	-4336
▁ᱠᱤᱞ	-4337
▁اندر	-4338
्रह्म	-4339
▁कमी	-4340
ूक	-4341
▁ہیء	-4342
▁यात्र	-4343
جر	-4344
bah	-4345
▁بار	-4346
▁मंद	-4347
ट्टी	-4348
▁खुं	-4349
▁एकटा	-4350
▁सुख	-4351
▁चाहि	-4352
▁पूर्ण	-4353
▁شم	-4354
▁नथी	-4355
ৱৰ	-4356
▁31	-4357
▁di	-4358
▁&	-4359
▁آبادی	-4360
देन	-4361
▁जन्य	-4362
▁᱙	-4363
ारम	-4364
▁तुट	-4365
▁मखोय़	-4366
▁ऎस्	-4367
ᱟᱹᱦ	-4368
ट्ट्	-4369
▁एटा	-4370
▁government	-4371
▁ٻئی	-4372
▁ᱰᱤ	-4373
out	-4374
▁آسان	-4375
ताब	-4376
▁मुंहिं	-4377
▁ꯃꯥꯂꯦꯝ	-4378
▁आवी	-4379
▁ओर	-4380
▁खौर	-4381
فت	-4382
▁गौ	-4383
र्फ	-4384
▁एखन	-4385
▁पहु	-4386
ुरि	-4387
▁ऋ	-4388
भ्य	-4389
थाइ	-4390
▁PM	-4391
▁chhu	-4392
▁مون	-4393
ळिऩ्	-4394
hen	-4395
▁فیص	-4396
ढे	-4397
चारी	-4398
रूप	-4399
▁ساتھ	-4400
port	-4401
ꯂꯨ	-4402
▁मामले	-4403
ात्मक	-4404
▁कइल	-4405
▁राजनी	-4406
बानी	-4407
▁खाली	-4408
▁हुने	-4409
्वे	-4410
▁दिव	-4411
▁सहयोग	-4412
▁ᱯᱨᱚ	-4413
▁खाम	-4414
ैयै	-4415
ran	-4416
▁بد	-4417
▁गोबां	-4418
▁روز	-4419
▁वधी	-4420
▁ꯆꯠꯅ	-4421
▁हाबा	-4422
▁पाणी	-4423
▁ठीक	-4424
▁ڇو	-4425
▁बॉ	-4426
▁اسڪ	-4427
परि	-4428
▁یع	-4429
▁पाकिस्तान	-4430
▁विद	-4431
▁तेल	-4432
▁ꯑꯣꯏꯅ	-4433
کس	-4434
▁आत	-4435
▁مث	-4436
पट	-4437
ावत	-4438
▁परीक्षा	-4439
▁विधान	-4440
दल	-4441
ृतिक	-4442
िनॆ	-4443
▁विध	-4444
▁ᱢᱟᱨᱟᱝ	-4445
ase	-4446
▁شاہ	-4447
▁हिस्सा	-4448
▁᱗	-4449
ोम	-4450
बान	-4451
ma	-4452
▁बिफ	-4453
▁मानु	-4454
▁बास	-4455
لم	-4456
▁आपण	-4457
▁मुंबई	-4458
▁आपके	-4459
▁जिन	-4460
▁भव	-4461
ऩ्प	-4462
▁मंज़	-4463
▁कोटि	-4464
▁2017	-4465
▁thei	-4466
▁माध्यम	-4467
▁katei	-4468
▁بو	-4469
▁बोलि	-4470
मॆ	-4471
▁تھے	-4472
ुरी	-4473
▁लगते	-4474
ैया	-4475
awl	-4476
य़न	-4477
▁न्याय	-4478
ताना	-4479
▁एक्स	-4480
रिक्क	-4481
▁man	-4482
▁ओका	-4483
ꯈꯤ꯫	-4484
▁چھہ	-4485
▁नस	-4486
ङ्कर	-4487
si	-4488
انہ	-4489
गाव	-4490
▁दिनै	-4491
آباد	-4492
िरिक्क	-4493
▁किलो	-4494
▁भूम	-4495
▁ᱥᱟᱢ	-4496
▁ꯏꯁꯩ	-4497
▁ڪندی	-4498
िछिल	-4499
▁min	-4500
▁New	-4501
ᱟᱹᱣ	-4502
▁परिब	-4503
ु॒	-4504
ᱪᱷ	-4505
ढी	-4506
ोग्य	-4507
▁मग	-4508
ure	-4509
उने	-4510
लोक	-4511
तॆ	-4512
▁ब्रि	-4513
▁ꯑꯍ	-4514
ریا	-4515
▁ڪندو	-4516
▁ٿیندو	-4517
▁غیر	-4518
मायि	-4519
सोर	-4520
ार्ट	-4521
▁अट	-4522
▁अत्य	-4523
▁पहिं	-4524
▁पहले	-4525
▁تھی	-4526
ियें	-4527
▁लइ	-4528
क्षक	-4529
▁नों	-4530
▁हुआ	-4531
ꯦꯁ	-4532
बन	-4533
اون	-4534
▁مدد	-4535
▁بخ	-4536
▁جیئن	-4537
▁آس	-4538
▁चॊ	-4539
▁करता	-4540
▁الا	-4541
▁बेह	-4542
प्ट	-4543
▁ꯊꯣꯛ	-4544
कीय	-4545
राज	-4546
ᱩᱨᱩ	-4547
▁आवश्यक	-4548
▁اتھ	-4549
▁आस्तै	-4550
▁उनाव	-4551
▁केले	-4552
▁چھےٚ	-4553
्लि	-4554
▁असल	-4555
▁अतिक	-4556
ꯇꯥ	-4557
ऱिय	-4558
▁گذ	-4559
▁हक	-4560
ھا	-4561
▁मंड	-4562
are	-4563
त्ब	-4564
▁बर्ष	-4565
▁हादोर	-4566
्यता	-4567
▁थमां	-4568
▁उन्होंने	-4569
्राम	-4570
▁निय़े	-4571
▁شع	-4572
▁अभिने	-4573
▁हय़ेछे	-4574
▁ꯃꯇꯨꯡ	-4575
्रिय	-4576
▁मंत्री	-4577
▁वॆळ	-4578
▁आए	-4579
کا	-4580
साव	-4581
رائی	-4582
▁فار	-4583
▁किश	-4584
▁गाम	-4585
▁रोक	-4586
لب	-4587
सिआ	-4588
man	-4589
▁१४	-4590
▁चयो	-4591
ृत्त	-4592
▁आम्	-4593
▁वाली	-4594
▁गुजर	-4595
फल	-4596
huh	-4597
▁پڙ	-4598
▁आध	-4599
▁ꯃꯅꯨꯡꯗ	-4600
ुळ्ळतु	-4601
▁ٻہ	-4602
र्कळ	-4603
▁लोकां	-4604
میت	-4605
sh	-4606
▁अंश	-4607
▁लगभग	-4608
ऩ्ऱु	-4609
००	-4610
▁تان	-4611
▁फु	-4612
▁सैन	-4613
▁हागू	-4614
▁करवामां	-4615
▁ऒक	-4616
▁नह	-4617
ᱥᱟ	-4618
▁नीड	-4619
خص	-4620
▁याय़	-4621
▁कोर	-4622
▁पस	-4623
▁कें	-4624
▁समिति	-4625
ꯣꯌ	-4626
▁भइल	-4627
ियिल्	-4628
▁सकदा	-4629
▁گل	-4630
िरी	-4631
गळल्लि	-4632
जूद	-4633
du	-4634
▁سین	-4635
▁सप्त	-4636
▁मौत	-4637
▁खरी	-4638
▁ꯏꯪ	-4639
▁भाई	-4640
قن	-4641
▁पर्	-4642
▁वाच	-4643
गनि	-4644
▁वक़्त	-4645
▁मक	-4646
िंचारु	-4647
▁सत्य	-4648
▁tawh	-4649
▁हिर	-4650
▁कॊण्ट	-4651
▁चिकि	-4652
one	-4653
ꯈꯤꯕ	-4654
▁صورت	-4655
▁ہون	-4656
wei	-4657
ऱ्कु	-4658
▁حیدر	-4659
▁ᱫᱚᱨ	-4660
▁हतुं	-4661
वय	-4662
जिक	-4663
▁गाँ	-4664
▁अभियोग	-4665
▁کار	-4666
▁होननानै	-4667
▁جیڪڏہن	-4668
▁सवाल	-4669
िकार	-4670
तील	-4671
्तमान	-4672
वाग	-4673
पण	-4674
▁ᱫᱟᱲ	-4675
▁स्वी	-4676
▁ꯃꯇꯝꯅꯤ	-4677
ost	-4678
▁Re	-4679
▁en	-4680
ڳو	-4681
▁ڏک	-4682
▁ᱯᱟᱨ	-4683
▁सम्ब	-4684
▁وغیر	-4685
ꯂꯥ	-4686
शील	-4687
वादी	-4688
▁यात	-4689
ite	-4690
▁ᱣ	-4691
▁शक्ति	-4692
▁ᱠᱚᱢ	-4693
▁ᱨᱤᱱᱤᱡ	-4694
फि	-4695
▁राष्ट्रीय	-4696
▁लोगों	-4697
▁che	-4698
▁Z	-4699
केँ	-4700
ुदु	-4701
rei	-4702
▁ah	-4703
▁ꯒ	-4704
▁समर्थ	-4705
▁सीमा	-4706
▁ᱴᱚᱴ	-4707
▁مال	-4708
▁छथि	-4709
थाव	-4710
▁ꯗꯅ	-4711
ायिरुन्नु	-4712
ूम	-4713
▁un	-4714
त्न	-4715
کٹ	-4716
▁संर	-4717
▁बिषय़	-4718
ठो	-4719
ोलन	-4720
▁زندگی	-4721
▁महीने	-4722
قل	-4723
▁एवं	-4724
▁دیو	-4725
▁after	-4726
▁सके	-4727
▁समुदाय	-4728
▁᱘	-4729
▁लगी	-4730
▁हिम	-4731
▁पथ	-4732
ass	-4733
झार	-4734
▁جل	-4735
▁رنگ	-4736
▁अस्त	-4737
र्य	-4738
▁Com	-4739
▁नडॆ	-4740
.5	-4741
▁खोल	-4742
▁tl	-4743
ोना	-4744
▁their	-4745
نہ	-4746
ोजित	-4747
▁पंच	-4748
▁बुं	-4749
टिव	-4750
त्या	-4751
▁हाय़ब	-4752
▁قان	-4753
ान्ति	-4754
گا	-4755
▁یعنی	-4756
▁तरफ	-4757
▁تحری	-4758
नायाव	-4759
▁नीति	-4760
षा	-4761
▁साफ	-4762
▁भेट	-4763
▁احمد	-4764
ꯞꯄ	-4765
ख़	-4766
▁An	-4767
hal	-4768
ٗر	-4769
▁मेरी	-4770
▁इंटर	-4771
▁२०२	-4772
▁مض	-4773
▁ᱠᱚᱲᱟ	-4774
▁یونیو	-4775
▁ہوئے	-4776
▁प्रती	-4777
▁#	-4778
ङ्कि	-4779
▁᱒᱐᱐	-4780
ᱟᱹᱨᱤ	-4781
ित्व	-4782
▁بابت	-4783
ٿی	-4784
▁हबे	-4785
ہین	-4786
ence	-4787
डं	-4788
स्कार	-4789
▁ब्रह्म	-4790
ड़ो	-4791
▁भगवान	-4792
▁विश्वास	-4793
▁ᱚᱞ	-4794
▁باد	-4795
▁अभिन	-4796
▁बेल	-4797
▁ڪیائین	-4798
▁وغیرہ	-4799
▁جاری	-4800
▁جۆ	-4801
▁अमेरिका	-4802
▁کش	-4803
▁अनुस	-4804
▁طری	-4805
▁मनई	-4806
▁क्रम	-4807
▁जिउ	-4808
▁ᱥᱚᱦᱚᱨ	-4809
ऩाल्	-4810
▁ꯄꯥ	-4811
▁ꯏꯟꯗꯤꯌꯥꯒꯤ	-4812
▁याव	-4813
ound	-4814
ाहाटी	-4815
لان	-4816
▁آئی	-4817
ople	-4818
ition	-4819
▁pat	-4820
▁ᱥᱮᱪᱮᱫ	-4821
▁स्थित	-4822
टेल	-4823
▁परिणाम	-4824
▁آیو	-4825
▁ڪہ	-4826
▁कण	-4827
▁बय	-4828
रर	-4829
▁tw	-4830
▁निर्देश	-4831
rict	-4832
▁ॾ	-4833
▁छैक	-4834
ियर	-4835
॒व	-4836
ᱤᱴᱚᱨ	-4837
▁وری	-4838
▁پنجاب	-4839
ᱠᱟᱨ	-4840
▁ꯋ	-4841
▁انگریزی	-4842
सब	-4843
▁पच	-4844
وار	-4845
▁ᱴᱚᱴᱷᱟ	-4846
पक्ष	-4847
▁اتر	-4848
धानी	-4849
ियान	-4850
ातार	-4851
▁پٽ	-4852
▁२००	-4853
▁ڪندا	-4854
▁ڪراچی	-4855
▁बळ	-4856
नत	-4857
स्तो	-4858
भुत	-4859
▁منز	-4860
جب	-4861
▁तन्न	-4862
▁ओक	-4863
ail	-4864
▁ꯃꯊꯪ	-4865
▁१३	-4866
▁ᱥᱩ	-4867
ꯒꯠ	-4868
ical	-4869
▁عو	-4870
▁ڪیا	-4871
▁शायद	-4872
▁سگہ	-4873
दारी	-4874
ٕنٛز	-4875
▁علام	-4876
▁علم	-4877
▁نظام	-4878
ळु	-4879
▁आदर	-4880
सिक	-4881
▁राज्य़	-4882
▁पुरुष	-4883
▁प्रतिक	-4884
▁سگہی	-4885
vel	-4886
▁مڪ	-4887
▁ïa	-4888
▁जेल	-4889
▁पञ्च	-4890
᱐ᱮ	-4891
▁ꯍꯥ	-4892
ंदड़	-4893
▁लानानै	-4894
▁होवे	-4895
▁तुस	-4896
▁گہٽ	-4897
▁जाल	-4898
▁کام	-4899
▁अरे	-4900
▁नेप	-4901
▁؛	-4902
▁चेय	-4903
मता	-4904
▁मार्ग	-4905
ग्रा	-4906
▁थिय	-4907
ाऩ	-4908
▁پٲ	-4909
▁ہوندو	-4910
ame	-4911
▁अंदर	-4912
▁भित	-4913
▁प्रज	-4914
▁ह्या	-4915
شش	-4916
▁बिक	-4917
गण	-4918
ᱚᱸᱰ	-4919
▁अलारम	-4920
▁نمبر	-4921
क्रा	-4922
्बा	-4923
▁विविध	-4924
پر	-4925
ऎस्	-4926
ꯆꯥ	-4927
▁ईमेल	-4928
▁नीक	-4929
▁बने	-4930
्ही	-4931
▁सफल	-4932
ादि	-4933
ᱦᱚᱸ	-4934
orkar	-4935
▁गेले	-4936
▁शुभ	-4937
ुकय	-4938
▁सव	-4939
▁नेर	-4940
▁बाकी	-4941
طی	-4942
ꯅꯤꯡ	-4943
▁duh	-4944
▁होनना	-4945
▁وف	-4946
تیار	-4947
ांच्या	-4948
▁ꯅꯤꯡ	-4949
▁स्वास्थ्य	-4950
डक	-4951
▁एके	-4952
▁फिन	-4953
▁प्रसि	-4954
द्दरु	-4955
▁pl	-4956
▁Pat	-4957
▁ꯃꯃꯤꯡ	-4958
▁झा	-4959
शल	-4960
िकळ्	-4961
▁सम्म	-4962
▁उत्पादन	-4963
▁rec	-4964
▁کرنہٕ	-4965
▁आली	-4966
▁मांग	-4967
ائو	-4968
ेम्बर	-4969
▁करै	-4970
▁कोवि	-4971
▁स्तर	-4972
▁up	-4973
▁گژ	-4974
▁دیا	-4975
▁بیان	-4976
▁अरु	-4977
▁चम	-4978
▁कूट	-4979
▁मैथिली	-4980
▁ملا	-4981
اع	-4982
माड	-4983
▁خیال	-4984
▁बें	-4985
▁قومی	-4986
▁آمری	-4987
रल	-4988
▁شخص	-4989
ورو	-4990
▁दस	-4991
ꯋꯥꯢ	-4992
▁म्हणून	-4993
▁२४	-4994
▁नवी	-4995
ंतो	-4996
▁᱒᱐᱑᱑	-4997
क्के	-4998
▁मनो	-4999
ہا	-5000
नाइ	-5001
ायनि	-5002
▁मला	-5003
शाल	-5004
▁लां	-5005
ूरु	-5006
▁आमि	-5007
▁एने	-5008
र्मा	-5009
▁कोल	-5010
ेंद्र	-5011
▁कोट	-5012
نس	-5013
कट	-5014
▁ꯍꯥꯢ	-5015
ᱡᱟ	-5016
▁ꯑꯆꯧ	-5017
▁हाबाफ	-5018
▁कंग	-5019
▁शनि	-5020
▁छोड़	-5021
ꯆꯠ	-5022
تل	-5023
ینڊ	-5024
ापे	-5025
▁مقر	-5026
▁साध	-5027
▁वीडियो	-5028
▁ꯋꯥꯔꯤ	-5029
▁ᱠᱮ	-5030
▁हेठ	-5031
▁its	-5032
पड	-5033
▁समेत	-5034
▁गृह	-5035
▁माय	-5036
▁ꯆꯍꯤ	-5037
ᱤᱭᱚᱱ	-5038
▁ᱳ	-5039
▁वन	-5040
▁तद	-5041
▁अन्न	-5042
ॆयुं	-5043
▁اند	-5044
▁ہیٺ	-5045
ाम्ना	-5046
ge	-5047
▁ꯑꯃꯁꯨ	-5048
▁ऎऩ्प	-5049
▁سما	-5050
▁आले	-5051
▁year	-5052
लां	-5053
نڊ	-5054
ستی	-5055
▁जुन	-5056
▁धो	-5057
रत	-5058
▁حڪ	-5059
▁ھئی	-5060
▁रायजो	-5061
▁یونیورس	-5062
▁होण	-5063
ताबिक	-5064
▁out	-5065
▁मिस	-5066
▁विरोध	-5067
▁سندن	-5068
مانی	-5069
ाकर	-5070
▁जेकर	-5071
▁آزاد	-5072
क्कुन्न	-5073
▁منہن	-5074
ुका	-5075
▁꯲꯰꯰꯰	-5076
▁चिल	-5077
▁प्रतिशत	-5078
▁मिथ	-5079
▁اش	-5080
ꯔꯕ	-5081
▁उप्प	-5082
▁बिट	-5083
▁پنھن	-5084
▁परंतु	-5085
ꯒꯥ	-5086
▁ᱴᱷᱟ	-5087
▁मन्त्री	-5088
▁zawng	-5089
▁अस्प	-5090
▁३०	-5091
▁म्या	-5092
▁over	-5093
▁गोर	-5094
ꯄꯇꯤ	-5095
▁बिसायख	-5096
▁रहिस	-5097
सोल	-5098
▁शरीर	-5099
▁सभाप	-5100
▁हल्क	-5101
ड़क	-5102
▁بڑ	-5103
▁ꯑꯣꯢꯕ	-5104
▁१६	-5105
▁शिक्षक	-5106
ctor	-5107
▁cha	-5108
ळव	-5109
▁आफ्	-5110
▁एकटि	-5111
▁पिछले	-5112
▁ᱦᱟᱹ	-5113
▁मुदा	-5114
ऱ्या	-5115
▁प्रतिनि	-5116
▁महिर	-5117
▁गासै	-5118
▁जावे	-5119
ास़	-5120
▁ॿ	-5121
ट्च	-5122
ip	-5123
मैन	-5124
ational	-5125
▁उद्देश	-5126
▁बांल	-5127
طان	-5128
orm	-5129
▁پاڻی	-5130
▁ᱡᱟᱱᱟᱢ	-5131
▁बिना	-5132
▁چار	-5133
▁पति	-5134
▁गं	-5135
▁सारे	-5136
▁महिल	-5137
▁ڪیل	-5138
▁कट्ट	-5139
▁एज	-5140
▁tha	-5141
ागो	-5142
▁मुताबिक	-5143
फ्त	-5144
▁بح	-5145
▁thin	-5146
साठी	-5147
▁ختم	-5148
▁बाइ	-5149
ائل	-5150
ङाइ	-5151
▁پاکستٲنؠ	-5152
.1	-5153
▁गोज	-5154
▁दुआ	-5155
▁عورت	-5156
▁ᱩᱯ	-5157
र्गत	-5158
षक	-5159
▁आण	-5160
मीन	-5161
انہن	-5162
▁मश	-5163
▁ڪندڙ	-5164
मद	-5165
▁कारन	-5166
ꯊꯧ	-5167
▁انس	-5168
यार	-5169
▁करदा	-5170
▁तारी	-5171
▁उल	-5172
▁छि	-5173
▁वच्च	-5174
निक	-5175
▁दुख	-5176
▁साधारण	-5177
▁अभियान	-5178
▁ᱡᱟ	-5179
ꯥꯟꯕ	-5180
ꯂꯝ	-5181
yng	-5182
صی	-5183
▁ایو	-5184
▁दोस्त	-5185
जीत	-5186
ॉल	-5187
ालत	-5188
▁वज	-5189
ज़ी	-5190
्ण	-5191
ꯔꯥ	-5192
▁dis	-5193
▁महिरबानी	-5194
▁حصو	-5195
्वी	-5196
▁बिहार	-5197
▁जरूरी	-5198
ٕچ	-5199
▁ꯏꯌꯦꯛ	-5200
ram	-5201
▁کل	-5202
नाया	-5203
▁मुस	-5204
ریء	-5205
▁साग	-5206
▁नक	-5207
कर्ता	-5208
▁जाम	-5209
▁جتی	-5210
अद	-5211
िरुक्क	-5212
ᱸᱰᱮ	-5213
ुंदि	-5214
▁ᱤᱱ	-5215
पार	-5216
ڀر	-5217
▁कृषि	-5218
▁छोट	-5219
▁सक्	-5220
mi	-5221
▁فق	-5222
▁Team	-5223
▁ꯆꯥꯎꯄ	-5224
ओय़ा	-5225
ٺو	-5226
▁ᱧᱮᱞ	-5227
▁مولانا	-5228
▁dang	-5229
▁ꯁ꯭	-5230
▁उम्मी	-5231
bor	-5232
▁कुऱ	-5233
▁ꯂꯧ	-5234
▁ꯇꯀꯤ	-5235
▁अमै	-5236
▁मामला	-5237
▁वाल	-5238
▁ꯍꯥꯏꯄꯇꯤ	-5239
ᱨᱟᱹ	-5240
सने	-5241
उं	-5242
▁عم	-5243
▁होल	-5244
ꯁ꯭	-5245
▁प्यार	-5246
ations	-5247
▁پس	-5248
▁آہ	-5249
▁ادار	-5250
िसल	-5251
ꯂꯩꯄ	-5252
▁ات	-5253
▁कण्ट	-5254
▁उम	-5255
▁पऱञ्ञ	-5256
▁बेनि	-5257
▁महारा	-5258
ꯑꯣꯏꯄ	-5259
ٗن	-5260
گو	-5261
▁अंक	-5262
▁प्रस्तुत	-5263
▁सगळ	-5264
▁इद	-5265
▁ꯃꯂꯨ	-5266
▁ꯑꯆꯧꯄ	-5267
▁꯴ꯂꯩꯄ	-5268
▁ꯃꯂꯨꯑꯣꯏꯄ	-5269
▁आरोग्य	-5270
▁people	-5271
▁तृ	-5272
▁ꯃꯊꯪꯀꯤ	-5273
▁करून	-5274
▁ᱯᱷᱤᱞ	-5275
▁टै	-5276
▁फोसाव	-5277
र्जा	-5278
गम	-5279
طن	-5280
ऱ्ऱु	-5281
ुरा	-5282
▁वित	-5283
▁زیا	-5284
नीय	-5285
▁ᱢᱚᱱ	-5286
▁شیخ	-5287
▁सेना	-5288
ाजा	-5289
▁گھر	-5290
▁جۆم	-5291
30	-5292
▁करिबा	-5293
▁प्रशासन	-5294
▁माझ	-5295
▁विव	-5296
ریٖ	-5297
▁ꯁꯦꯝꯄ	-5298
सिंग	-5299
▁ᱞᱮᱱ	-5300
▁ꯏꯌꯦꯛꯅ	-5301
▁ꯃꯤꯇꯩꯀꯤ	-5302
▁अएं	-5303
बेकु	-5304
▁कोण	-5305
▁cl	-5306
थाङा	-5307
ावल	-5308
घाट	-5309
▁प्रधानमन्त्री	-5310
per	-5311
▁کوئی	-5312
▁रिहा	-5313
ڊیا	-5314
▁ꯅꯠꯇ	-5315
▁ڪمپ	-5316
▁गि	-5317
▁एफ	-5318
▁زر	-5319
क्ल	-5320
▁کرتے	-5321
▁बिशेष	-5322
ڪاری	-5323
▁बंग	-5324
▁जाब	-5325
▁لئے	-5326
ॊरु	-5327
▁कोर्ट	-5328
▁तैयार	-5329
▁बोसोर	-5330
▁आपल्या	-5331
डून	-5332
▁जितना	-5333
ृत्व	-5334
▁اثر	-5335
▁काळ	-5336
▁बधाई	-5337
▁सोन	-5338
ांस	-5339
▁खिलाफ	-5340
▁अनुभव	-5341
▁कार्यालय	-5342
▁युद्ध	-5343
▁सुधार	-5344
▁रहेको	-5345
▁वळ	-5346
ङ्का	-5347
▁ٿیون	-5348
▁केँ	-5349
▁ऑन	-5350
▁चिकिॎ	-5351
▁पत्नी	-5352
▁सुम	-5353
▁सम्मान	-5354
▁US	-5355
▁प्रार	-5356
▁ताम	-5357
رل	-5358
▁علیہ	-5359
▁मन्त्र	-5360
▁रवि	-5361
▁ꯖ	-5362
▁khu	-5363
ꯁꯥ	-5364
▁१७	-5365
▁ऐसे	-5366
न्दर	-5367
▁ایر	-5368
तान	-5369
▁२५	-5370
▁ᱛᱟ	-5371
▁देह	-5372
▁मन्थ	-5373
▁बाप	-5374
िसर	-5375
▁ترقی	-5376
▁तरु	-5377
शिष्ट	-5378
▁हरि	-5379
▁صف	-5380
▁मुक़	-5381
▁पश्चिम	-5382
▁थिए	-5383
▁acc	-5384
ोब	-5385
ियम	-5386
لوم	-5387
▁विन	-5388
ाद्य	-5389
त्तिल	-5390
ble	-5391
iz	-5392
▁ڏا	-5393
▁सकदे	-5394
▁संभव	-5395
▁जनता	-5396
▁दृ	-5397
▁कार्ड	-5398
▁ᱠᱚᱣᱟᱜ	-5399
▁आदेश	-5400
▁देल	-5401
यां	-5402
▁उम्मीद	-5403
मीर	-5404
▁ᱱᱟᱜ	-5405
▁गल	-5406
▁काण	-5407
्थि	-5408
▁Cong	-5409
▁Uday	-5410
▁35	-5411
▁مقرر	-5412
ute	-5413
▁अद्भुत	-5414
▁हत्या	-5415
JP	-5416
che	-5417
▁بند	-5418
istrict	-5419
▁मळ	-5420
▁वेल	-5421
▁सबै	-5422
▁इतर	-5423
▁इय़ा	-5424
avani	-5425
▁चहि	-5426
▁मन्द	-5427
▁कित	-5428
▁ہوا	-5429
▁ڇڏیو	-5430
ॆस्	-5431
▁Udayavani	-5432
▁गति	-5433
▁नत	-5434
▁sorkar	-5435
گل	-5436
▁सोद	-5437
ायला	-5438
▁बाँ	-5439
क्कुं	-5440
▁जाता	-5441
ond	-5442
▁ٲ	-5443
इन	-5444
टिक	-5445
िरा	-5446
▁हिं	-5447
ꯍꯩ	-5448
▁بادش	-5449
▁मार्क	-5450
▁जिय	-5451
▁सासे	-5452
▁اگر	-5453
ष्टि	-5454
▁ꯃꯍꯥꯛꯀꯤ	-5455
▁ञ	-5456
▁अनुमति	-5457
ꯃꯛ	-5458
▁تبدی	-5459
▁उनले	-5460
ण्यात	-5461
▁मोह	-5462
ान्स	-5463
▁लक्ष्य	-5464
▁करिथिले	-5465
नगर	-5466
▁वर्ग	-5467
▁तप	-5468
▁तमे	-5469
ुकळ्	-5470
▁२१	-5471
▁अङ	-5472
▁करेन	-5473
षे	-5474
▁चीज	-5475
ँग	-5476
ID	-5477
▁ڏکڻ	-5478
▁चला	-5479
▁صدی	-5480
▁lam	-5481
▁خدا	-5482
▁होनाय	-5483
ᱞᱩ	-5484
اڻو	-5485
▁असा	-5486
ᱚᱛᱚ	-5487
▁जिन्ह	-5488
▁बाअद	-5489
ूर्	-5490
▁कऽ	-5491
ᱟᱨᱮ	-5492
▁सार्व	-5493
▁वस्त	-5494
▁लक्ष्मी	-5495
▁ꯑꯉ	-5496
▁اڳو	-5497
▁کس	-5498
▁कछू	-5499
▁دین	-5500
▁کسی	-5501
▁ब्या	-5502
▁انھن	-5503
▁पोलिस	-5504
▁उत्स	-5505
int	-5506
▁ڏئی	-5507
nder	-5508
▁आय़	-5509
▁एहा	-5510
▁उनके	-5511
▁پیو	-5512
▁ᱛᱤᱨ	-5513
्लै	-5514
▁करण्यात	-5515
▁सुधी	-5516
▁ᱥᱮᱱ	-5517
▁मुंद	-5518
ٹری	-5519
ास्ट	-5520
षन्	-5521
ek	-5522
▁ملک	-5523
hian	-5524
▁sngi	-5525
ᱥᱚᱱ	-5526
▁लं	-5527
ातु	-5528
लर	-5529
au	-5530
▁ओप	-5531
▁मीओइ	-5532
▁महाक	-5533
▁दिय़ा	-5534
nong	-5535
ꯪꯕ	-5536
▁کین	-5537
▁कॆल	-5538
▁निर्म	-5539
▁حیدرآباد	-5540
▁ڏیڻ	-5541
▁سیاسی	-5542
▁اتی	-5543
▁اٿ	-5544
▁ᱥᱩᱨ	-5545
کل	-5546
▁سالن	-5547
جڻ	-5548
ाण्ड	-5549
rad	-5550
▁द्र	-5551
ᱫᱮᱥ	-5552
▁कृष्ण	-5553
▁वल	-5554
ڏی	-5555
▁ᱨᱩ	-5556
▁त्व	-5557
िंचिन	-5558
▁अच्छा	-5559
▁ڪائون	-5560
▁ذریعی	-5561
▁ڇپ	-5562
ैर	-5563
انو	-5564
ङै	-5565
सरी	-5566
▁रचना	-5567
▁int	-5568
▁मंत्र	-5569
▁ضرورت	-5570
خل	-5571
ब्य	-5572
बादी	-5573
▁Minister	-5574
ुपर्	-5575
▁رھ	-5576
▁जों	-5577
▁उट	-5578
लें	-5579
▁اصل	-5580
▁खौ	-5581
ायण	-5582
▁सृष्टि	-5583
मेन्ट	-5584
▁प्रदर्शन	-5585
▁add	-5586
▁BJP	-5587
▁विभिन्न	-5588
ादु	-5589
▁भवि	-5590
क्शन	-5591
▁पूर	-5592
त्री	-5593
▁ᱟᱠᱟᱱ	-5594
▁بنیاد	-5595
▁य़ा	-5596
▁महाम	-5597
ꯇꯔ	-5598
▁मुख्यमंत्री	-5599
▁छह	-5600
▁तयार	-5601
▁ᱪᱟ	-5602
▁انتظ	-5603
iss	-5604
▁ᱠᱤᱞᱚᱢ	-5605
▁लागे	-5606
پوء	-5607
▁ہیو	-5608
▁पोली	-5609
▁स्त्री	-5610
▁lai	-5611
▁हं	-5612
बन्ध	-5613
रिंद	-5614
ꯝꯒꯤ	-5615
▁گام	-5616
ाय़ी	-5617
▁دری	-5618
▁Congress	-5619
ꯑꯣꯢ	-5620
गळिगॆ	-5621
्वि	-5622
▁ᱟᱭᱢᱟ	-5623
▁آو	-5624
ुवि	-5625
▁सचिव	-5626
ach	-5627
▁कर्मचारी	-5628
▁हेब	-5629
▁म्हणजे	-5630
▁काठमाड	-5631
▁گہڻو	-5632
ٽا	-5633
▁इंग	-5634
▁ꯃꯩꯇꯩ	-5635
▁cont	-5636
तिम	-5637
▁ग्रे	-5638
ᱚᱱᱟ	-5639
▁غلام	-5640
ुत्व	-5641
▁स्थानीय	-5642
गड़	-5643
▁तह	-5644
ंबर	-5645
च्य	-5646
▁जाव	-5647
ᱦᱟ	-5648
दय	-5649
زر	-5650
▁संगीत	-5651
▁नए	-5652
▁ᱟᱠᱟᱫ	-5653
▁गाउँ	-5654
क्षेप	-5655
कम	-5656
िलेन	-5657
xt	-5658
▁रहेन	-5659
▁eng	-5660
▁app	-5661
▁اپنی	-5662
टिक्क	-5663
युटॆ	-5664
ᱤᱧ	-5665
थमिक	-5666
ायै	-5667
▁मौके	-5668
ुप्	-5669
▁راج	-5670
ियाक	-5671
▁मथ	-5672
▁मीडिया	-5673
▁मोक	-5674
ारिनि	-5675
▁Am	-5676
ेंगे	-5677
▁हाइ	-5678
لقی	-5679
▁कठ	-5680
▁ꯑꯁꯨ	-5681
▁नाट	-5682
▁माहिती	-5683
▁बिधान	-5684
▁ꯆꯩꯆꯠ	-5685
लाइ	-5686
▁Chu	-5687
▁sa	-5688
श्क	-5689
▁निऱ	-5690
▁करिछन्ति	-5691
ुनिक	-5692
بلی	-5693
ance	-5694
षद	-5695
▁ꯆꯩꯁꯤꯡꯂꯣꯟ	-5696
▁they	-5697
▁شو	-5698
روری	-5699
ark	-5700
▁سائی	-5701
▁ادب	-5702
ᱴᱟ	-5703
तीय़	-5704
नात	-5705
िद्य	-5706
ुटऩ्	-5707
▁पहुंच	-5708
वात	-5709
▁मिनि	-5710
्कि	-5711
▁وٺی	-5712
▁पूजा	-5713
آن	-5714
▁त्यामुळे	-5715
▁जादा	-5716
▁ज्ञान	-5717
▁इस्त	-5718
▁Ha	-5719
वसाय	-5720
▁महाराष्ट्र	-5721
न्क	-5722
▁وارن	-5723
ꯩꯅ	-5724
▁कारणे	-5725
▁ꯌꯦꯡꯂꯗꯤ	-5726
▁again	-5727
▁अवसर	-5728
णम	-5729
ash	-5730
▁حق	-5731
▁Con	-5732
▁डाक	-5733
▁लागू	-5734
▁पुस्त	-5735
▁60	-5736
▁अप्र	-5737
▁Del	-5738
▁ᱫᱟᱲᱮ	-5739
▁आसा	-5740
▁इम	-5741
▁निश्चित	-5742
▁अंतर	-5743
▁اسڪول	-5744
▁Kan	-5745
सला	-5746
ुकि	-5747
▁مز	-5748
ᱚᱜᱼᱟ	-5749
▁खर्च	-5750
▁हँ	-5751
ٽری	-5752
▁इसके	-5753
झि	-5754
▁offic	-5755
▁नग	-5756
▁सायाव	-5757
▁चर्चा	-5758
▁पृथ	-5759
گن	-5760
▁ꯄꯨꯋꯥꯂꯤ	-5761
▁नतुन	-5762
ाखौ	-5763
▁मोका	-5764
▁باقی	-5765
▁सेल	-5766
▁पद्ध	-5767
▁बिथाङा	-5768
▁मुह	-5769
▁CO	-5770
▁चां	-5771
▁कुन	-5772
ious	-5773
ꯚꯤ	-5774
▁گی	-5775
▁اردو	-5776
साल	-5777
▁do	-5778
ष्प	-5779
▁hl	-5780
बदा	-5781
▁दुई	-5782
▁Ar	-5783
▁ڊاڪ	-5784
▁خاندان	-5785
▁जोर	-5786
▁उनका	-5787
▁नुम	-5788
ٽیء	-5789
बै	-5790
▁जल्दी	-5791
▁निर्बा	-5792
ائش	-5793
ोधी	-5794
ᱣᱟᱜ	-5795
सत	-5796
▁ऒंदु	-5797
खल	-5798
▁उक्त	-5799
oun	-5800
▁जेका	-5801
▁ᱚᱠᱛᱚ	-5802
वासी	-5803
▁نیو	-5804
▁रौ	-5805
▁आछिल	-5806
لیس	-5807
देव	-5808
स्म	-5809
ꯊꯣꯛ	-5810
▁इरुन्त	-5811
صر	-5812
ास्	-5813
▁Shi	-5814
ुको	-5815
▁ai	-5816
कल्प	-5817
ग्ग	-5818
पात	-5819
ᱵᱤᱡ	-5820
▁ᱮᱢᱟᱱ	-5821
▁सन्त	-5822
▁کانپوء	-5823
▁وس	-5824
▁ꯄꯅꯥ	-5825
▁विमान	-5826
▁उप्पर	-5827
ᱲᱟᱜ	-5828
▁रस	-5829
▁معنی	-5830
दिंद	-5831
اتی	-5832
▁خٲ	-5833
पत्र	-5834
▁बताए	-5835
▁مری	-5836
▁चिन्त	-5837
ازی	-5838
ꯃꯩ	-5839
पत	-5840
▁سیڪ	-5841
▁जून	-5842
ंगे	-5843
▁सहाय	-5844
▁संदर्भ	-5845
▁طرفان	-5846
यी	-5847
▁मिन	-5848
▁تعلقی	-5849
لاس	-5850
ाम्प	-5851
▁पव	-5852
प्प्	-5853
पर्य	-5854
चित्र	-5855
▁चै	-5856
साद	-5857
ॉक	-5858
▁संयुक्त	-5859
▁गलत	-5860
त्तिन्ऱॆ	-5861
▁ڇڏی	-5862
▁प्रवेश	-5863
क्सि	-5864
▁ꯃꯄ	-5865
▁ست	-5866
▁जम	-5867
▁ᱯᱚᱨ	-5868
▁2016	-5869
▁प्रत	-5870
ᱟᱹᱛ	-5871
ays	-5872
▁state	-5873
▁ᱡᱮᱜ	-5874
▁مگر	-5875
▁मण	-5876
▁दाखल	-5877
ांची	-5878
▁ڪور	-5879
▁अस्पताल	-5880
▁It	-5881
▁भूमिका	-5882
دیم	-5883
▁ᱯᱨ	-5884
ᱚᱯ	-5885
▁دہ	-5886
ᱥᱟᱨ	-5887
▁बहिन	-5888
िरुन्त	-5889
▁फोरमाय	-5890
▁समें	-5891
▁सभापति	-5892
▁व्ह	-5893
तं	-5894
देशी	-5895
انے	-5896
नक	-5897
▁चाहत	-5898
▁नेई	-5899
▁खाब	-5900
ions	-5901
▁मन्थ्रि	-5902
▁बड	-5903
▁count	-5904
▁शास	-5905
ानां	-5906
▁प्रण	-5907
▁संख्य	-5908
▁बड़ा	-5909
पूर	-5910
ाइआ	-5911
▁करैत	-5912
مون	-5913
▁नंबर	-5914
▁शाख	-5915
ᱛᱷᱟ	-5916
▁असं	-5917
ांगौ	-5918
▁ioh	-5919
▁अण	-5920
्रोम	-5921
▁theih	-5922
▁जरु	-5923
दुना	-5924
▁ताइ	-5925
پل	-5926
kh	-5927
िक्त	-5928
▁आक्र	-5929
گار	-5930
▁सञ्च	-5931
▁امام	-5932
▁फिल	-5933
▁होगा	-5934
▁आओ	-5935
داری	-5936
▁पालन	-5937
▁कं	-5938
ath	-5939
▁ڄاڻ	-5940
▁द्ब	-5941
ina	-5942
▁ناہی	-5943
▁لوگ	-5944
▁وفات	-5945
▁समस्त	-5946
▁पुरस्कार	-5947
▁शाह	-5948
ुति	-5949
▁امی	-5950
▁ᱦᱩ	-5951
▁पहों	-5952
▁धरती	-5953
▁नेतृत्व	-5954
यु	-5955
▁تص	-5956
▁नोट	-5957
▁अशी	-5958
نٛد	-5959
▁मेड	-5960
▁ڏنی	-5961
▁ꯃꯤꯑꯣꯢ	-5962
▁बर्	-5963
▁जू	-5964
ियत	-5965
थार	-5966
▁बिन	-5967
▁چین	-5968
▁ویندی	-5969
हुँ	-5970
▁حقی	-5971
▁देब	-5972
▁मुला	-5973
ईल	-5974
ासि	-5975
▁ᱵᱟᱰ	-5976
▁हैछिल	-5977
▁पूछ	-5978
ास्त्र	-5979
▁टका	-5980
▁پہرین	-5981
ᱛᱷ	-5982
اپ	-5983
लेस	-5984
ضو	-5985
▁कार्य्य़	-5986
▁ꯑꯁꯨꯞꯄ	-5987
▁करणु	-5988
षी	-5989
▁संगठन	-5990
▁धी	-5991
ᱟᱦᱟᱨ	-5992
ावरण	-5993
▁बृह	-5994
▁बान	-5995
ne	-5996
▁वेण्टुम्	-5997
न्हा	-5998
عہ	-5999
▁पारां	-6000
ish	-6001
▁Delhi	-6002
त्तिन्	-6003
ᱯᱚᱱ	-6004
▁ओनसोल	-6005
▁हेल	-6006
ायल	-6007
▁टिक	-6008
ظیم	-6009
▁مذہ	-6010
▁وٺ	-6011
ेस	-6012
ایت	-6013
▁भय	-6014
▁उॎ	-6015
▁وان	-6016
▁We	-6017
▁تقری	-6018
▁᱐ᱮ	-6019
▁ڏس	-6020
▁$	-6021
▁بال	-6022
▁رکھ	-6023
ree	-6024
▁संस्थान	-6025
▁जानाय	-6026
▁पारे	-6027
▁sec	-6028
▁ᱯᱩᱭ	-6029
▁नुक	-6030
ꯤꯡ	-6031
▁कत	-6032
▁मशी	-6033
▁वाहन	-6034
▁اوڀر	-6035
स्ट्र	-6036
▁ᱥᱚᱢ	-6037
▁पाछ	-6038
ᱨᱮᱧ	-6039
rou	-6040
▁qu	-6041
▁can	-6042
لومی	-6043
▁गंभ	-6044
▁रहत	-6045
▁संशोध	-6046
یاتی	-6047
▁पात्र	-6048
▁पिता	-6049
▁गरिएको	-6050
▁घु	-6051
▁आला	-6052
ᱡᱤ	-6053
▁गेजेराव	-6054
ेरै	-6055
یاری	-6056
▁علامہ	-6057
▁गुल	-6058
दीप	-6059
▁ᱯᱚ	-6060
▁जरि	-6061
▁सोरखार	-6062
▁तत	-6063
▁خد	-6064
▁sawi	-6065
▁क्रिकेट	-6066
▁Chi	-6067
सालि	-6068
कत	-6069
▁इतु	-6070
ym	-6071
▁कीते	-6072
▁ٻیو	-6073
्भ	-6074
▁cent	-6075
▁بلو	-6076
▁बौ	-6077
ग्रह	-6078
▁व्यवस्थ	-6079
old	-6080
त्तिऩ्	-6081
्कु	-6082
▁سٟ	-6083
▁उन्हें	-6084
▁ज्यादा	-6085
▁اڄ	-6086
▁सुरू	-6087
▁प्रोग	-6088
▁बाजार	-6089
▁ᱞᱮᱫᱟ	-6090
▁जाना	-6091
▁ꯍꯤꯟꯗꯤ	-6092
पल	-6093
▁सामने	-6094
اڙ	-6095
▁हेळ	-6096
▁اختیار	-6097
▁ꯄꯤ	-6098
ᱵᱚᱨ	-6099
▁آگ	-6100
▁193	-6101
ᱮᱸ	-6102
▁शासन	-6103
▁۲	-6104
▁आहिन	-6105
▁मने	-6106
▁ہوندی	-6107
▁क्यों	-6108
▁ہندوستان	-6109
▁बेळे	-6110
▁तँ	-6111
▁रहें	-6112
ہڻ	-6113
▁कांग्रेस	-6114
▁सकलो	-6115
▁हिंद	-6116
विधान	-6117
▁ᱵᱷᱟᱨ	-6118
▁मुक़रर	-6119
▁سمن	-6120
▁मरी	-6121
▁शर	-6122
▁ᱠᱤᱞᱚᱢᱤᱴᱚᱨ	-6123
▁ᱠᱩᱲᱤ	-6124
▁जागोन	-6125
▁ꯕꯤ	-6126
ुनो	-6127
ement	-6128
▁other	-6129
▁مغ	-6130
▁तलै	-6131
ार्कळ्	-6132
ॆयन्नु	-6133
▁एप्र	-6134
ᱳᱨ	-6135
▁ताङ्क	-6136
▁پاران	-6137
▁ताक	-6138
▁चंद्र	-6139
ार्ज	-6140
टार	-6141
ᱴᱚᱨ	-6142
▁गइ	-6143
▁مشت	-6144
▁जमा	-6145
▁ज्य	-6146
ष्ठान	-6147
▁ꯅꯤꯡꯊꯧ	-6148
उछि	-6149
ल्लो	-6150
▁جسم	-6151
ट्लु	-6152
▁bawk	-6153
ᱠᱷᱟᱱ	-6154
▁پاس	-6155
▁टॆ	-6156
▁Kum	-6157
▁अपे	-6158
▁رہے	-6159
▁lead	-6160
▁प्रचार	-6161
▁भारी	-6162
▁ᱮᱴ	-6163
▁पूर्ब	-6164
▁طا	-6165
▁ꯃꯃ	-6166
▁2015	-6167
▁उनी	-6168
ासाठी	-6169
esh	-6170
ाहि	-6171
▁फी	-6172
resident	-6173
॒ह	-6174
▁ٿیا	-6175
▁थई	-6176
▁चिं	-6177
▁ھیو	-6178
▁۱۹	-6179
▁दृष्ट	-6180
▁कला	-6181
▁भाजप	-6182
▁मूल्य	-6183
ॊळ	-6184
सम्म	-6185
▁दैदेन	-6186
ᱞᱮᱫ	-6187
घट	-6188
▁hyn	-6189
ens	-6190
▁سٟتؠ	-6191
बाइल	-6192
▁दीप	-6193
▁ᱥᱟᱶᱛᱮ	-6194
ुतो	-6195
کے	-6196
▁فوج	-6197
▁ꯑꯔꯤꯕ	-6198
▁फुट	-6199
▁ہٿ	-6200
ادو	-6201
▁नम्म	-6202
▁व्यवसाय	-6203
नार	-6204
ुमायि	-6205
▁ᱥᱮᱨᱮᱧ	-6206
▁कक्रा	-6207
▁संस्था	-6208
▁हासल	-6209
▁comm	-6210
▁جواب	-6211
▁सज	-6212
ैकळ्	-6213
ियार	-6214
▁शिल	-6215
▁जल्द	-6216
ियल्लि	-6217
िसलु	-6218
▁झाली	-6219
ासा	-6220
खिबा	-6221
▁विवाद	-6222
▁गावनि	-6223
▁ठिक	-6224
▁more	-6225
▁दाव	-6226
uru	-6227
▁فائ	-6228
▁जर्म	-6229
▁कक्राझार	-6230
▁सथ	-6231
▁قی	-6232
▁الی	-6233
▁موجب	-6234
ोनो	-6235
ᱦᱚ	-6236
बाह	-6237
▁वट	-6238
own	-6239
▁گئی	-6240
▁کری	-6241
▁ऊर्जा	-6242
▁हाई	-6243
▁مرڪ	-6244
▁मजब	-6245
अत	-6246
اتا	-6247
हरा	-6248
▁tam	-6249
शिंगी	-6250
▁देने	-6251
न्दो	-6252
▁बियाब	-6253
ेंद	-6254
▁जरूरत	-6255
चिय	-6256
▁बू	-6257
▁رہیا	-6258
ऴ्च	-6259
▁य़ाम्ना	-6260
▁नेपाली	-6261
▁ڪائونسل	-6262
▁आसे	-6263
शारु	-6264
▁सों	-6265
भाबे	-6266
▁गांधी	-6267
▁कल्प	-6268
▁बताया	-6269
انس	-6270
▁कम्म	-6271
▁لیکن	-6272
रेन्द्र	-6273
▁ᱥᱟᱢᱟᱝ	-6274
▁देखे	-6275
िश	-6276
bs	-6277
▁thil	-6278
▁ᱢᱚᱦ	-6279
▁ngai	-6280
حا	-6281
▁خبر	-6282
ᱭᱟᱱ	-6283
िल्लै	-6284
ंदनि	-6285
ऎं	-6286
▁ᱴᱷᱟᱶ	-6287
▁प्राथमिक	-6288
▁ڀر	-6289
▁गरेका	-6290
▁जाथाय	-6291
पद	-6292
▁दश	-6293
▁शके	-6294
▁पाँच	-6295
▁मरा	-6296
▁new	-6297
▁मिक	-6298
▁मंदिर	-6299
▁45	-6300
▁पठ	-6301
▁work	-6302
द्दी	-6303
▁jylla	-6304
یان	-6305
▁جائے	-6306
▁नाथाय	-6307
▁छैन	-6308
▁उद्ध	-6309
▁बुद्ध	-6310
▁वाढ	-6311
▁ᱡᱚᱛᱚ	-6312
▁वधु	-6313
▁भो	-6314
जनिक	-6315
▁थांनाय	-6316
▁गुजरात	-6317
▁अनुष्ठित	-6318
ہار	-6319
ꯗꯝ	-6320
ourt	-6321
▁वधीक	-6322
ꯔꯤꯁ	-6323
خو	-6324
▁संग्रह	-6325
▁हॉ	-6326
▁टो	-6327
ꯣꯠ	-6328
▁ᱟᱠᱟᱫᱟ	-6329
▁पार्	-6330
▁इन्न	-6331
▁तूं	-6332
▁us	-6333
▁سنگ	-6334
سلم	-6335
▁pr	-6336
▁उंट	-6337
▁कैसे	-6338
▁व्यवस्था	-6339
▁होखे	-6340
ष्टु	-6341
▁दें	-6342
▁فلم	-6343
▁उज	-6344
▁संक्रमण	-6345
ace	-6346
▁चेस्त	-6347
▁आदरॆ	-6348
▁रज	-6349
▁तीव	-6350
▁मिले	-6351
▁पॊली	-6352
चक	-6353
च्छी	-6354
▁اھو	-6355
▁her	-6356
اک	-6357
ꯅꯨ	-6358
▁سڀنی	-6359
▁जैसे	-6360
▁बृद्धि	-6361
ैल	-6362
खिआ	-6363
ꯕꯒꯤ	-6364
▁ꯑꯉꯥꯡ	-6365
▁about	-6366
▁खेती	-6367
▁ڍ	-6368
▁चिर	-6369
یندا	-6370
▁چاہ	-6371
▁꯲꯰	-6372
▁प्रक्रिया	-6373
▁थिबा	-6374
▁ꯑꯁꯤꯒꯤ	-6375
ces	-6376
▁بج	-6377
रेक	-6378
▁गेजेरजों	-6379
पालिका	-6380
ाइस	-6381
ait	-6382
▁ग्राह	-6383
▁Rs	-6384
▁خٲطر	-6385
ڊیو	-6386
▁پہریون	-6387
▁बण	-6388
▁خر	-6389
▁under	-6390
▁ؤ	-6391
करी	-6392
دیون	-6393
▁पृष्ठ	-6394
▁अऊर	-6395
आय	-6396
▁प्रयास	-6397
▁एड	-6398
▁बाव	-6399
VID	-6400
▁but	-6401
▁اسپ	-6402
▁शुरुआत	-6403
▁گرو	-6404
ᱮᱞᱟ	-6405
▁ꯀꯨꯝꯃꯩ	-6406
▁اہڙی	-6407
डाउन	-6408
▁loh	-6409
▁नुंचि	-6410
▁خود	-6411
ہوں	-6412
▁ہا	-6413
क्सी	-6414
▁मते	-6415
▁धरि	-6416
▁खामानि	-6417
ागा	-6418
▁nam	-6419
▁महे	-6420
▁प्रस्ताव	-6421
▁प्रभुत्व	-6422
▁ڊاڪٽر	-6423
ुकॊ	-6424
▁हलइ	-6425
▁पांच	-6426
क्षम	-6427
▁हस्त	-6428
▁झाला	-6429
▁डिज	-6430
▁निर्व	-6431
▁बलेन	-6432
▁قوم	-6433
▁एही	-6434
▁डिजि	-6435
▁हस	-6436
▁बाहागो	-6437
▁अध्ययन	-6438
▁जंग	-6439
▁तेज	-6440
शिश	-6441
▁समु	-6442
▁किसी	-6443
▁वञ	-6444
▁तेने	-6445
▁मोज	-6446
▁خوش	-6447
मण	-6448
▁فن	-6449
▁चट्ट	-6450
ᱸᱜ	-6451
ank	-6452
▁जनवरी	-6453
स्स	-6454
ven	-6455
▁ꯃꯌꯥꯢ	-6456
▁two	-6457
बने	-6458
क्न	-6459
▁शिक	-6460
▁ڪریو	-6461
▁حکو	-6462
▁ꯅꯩꯅ	-6463
▁अन्	-6464
▁قدر	-6465
▁ہتی	-6466
ڄی	-6467
▁नाटक	-6468
ᱞᱟᱹ	-6469
ئون	-6470
▁شریف	-6471
▁پنھنجی	-6472
▁ہجی	-6473
▁गंभीर	-6474
▁رکی	-6475
▁inf	-6476
▁بات	-6477
▁نتی	-6478
▁बाट	-6479
▁छात्	-6480
▁against	-6481
▁سور	-6482
▁قانون	-6483
▁अहउँ	-6484
▁राजधानी	-6485
▁सिल	-6486
▁झाले	-6487
ꯅꯦ꯫	-6488
ग्गॆ	-6489
फर	-6490
▁COVID	-6491
▁इंत	-6492
ाननि	-6493
ꯨꯗ	-6494
▁विश	-6495
साइ	-6496
▁आसि	-6497
जल	-6498
िकॊंड	-6499
▁70	-6500
▁پڑ	-6501
▁उंदि	-6502
▁ऽ	-6503
pt	-6504
▁दुक	-6505
▁नेईँ	-6506
▁ग्रहण	-6507
▁مست	-6508
▁डर	-6509
▁दरम	-6510
िसिदरु	-6511
▁सार्वजनिक	-6512
▁وار	-6513
▁फाय	-6514
▁दित्त	-6515
▁मशीन	-6516
▁तर्	-6517
▁जम्म	-6518
▁صوبی	-6519
▁हाव	-6520
▁जानत	-6521
गू	-6522
▁تصو	-6523
▁करोड़	-6524
▁ڏن	-6525
ڪٽ	-6526
▁विस	-6527
▁ᱦᱚᱨ	-6528
ैव	-6529
ब्ला	-6530
▁علاق	-6531
▁दिली	-6532
▁ٻار	-6533
▁یاد	-6534
द्दे	-6535
▁नजर	-6536
▁मेरे	-6537
ꯖꯤꯟꯅ	-6538
▁आधुनिक	-6539
▁34	-6540
▁वरी	-6541
ब्या	-6542
▁اعلی	-6543
▁ᱴᱷ	-6544
▁थान	-6545
▁ڪام	-6546
▁bar	-6547
▁2014	-6548
▁खुश	-6549
▁ترج	-6550
▁وسلم	-6551
हिस	-6552
▁آب	-6553
▁وارا	-6554
▁देत	-6555
▁ᱟᱱ	-6556
▁कहिछन्ति	-6557
▁२२	-6558
▁wan	-6559
ꯗꯣꯛ	-6560
ارین	-6561
▁मौजूद	-6562
▁तलक	-6563
▁آن	-6564
▁बिथांआ	-6565
क्स्	-6566
▁ᱱᱤᱭᱟᱹ	-6567
▁त्यांनी	-6568
▁سیاست	-6569
▁ओइना	-6570
▁نئین	-6571
▁लाव	-6572
TI	-6573
▁इय	-6574
▁hap	-6575
▁कुटुंब	-6576
▁उचित	-6577
▁ڏانہن	-6578
▁ᱯᱩ	-6579
▁हें	-6580
▁ele	-6581
▁दुआरा	-6582
▁اوہان	-6583
▁तऩ	-6584
▁नड	-6585
▁असिदा	-6586
▁ꯊꯥ	-6587
▁तुर	-6588
▁ᱯᱷᱤᱞᱢ	-6589
شہ	-6590
▁उपा	-6591
▁دف	-6592
▁वीर	-6593
म्मि	-6594
ᱚᱬ	-6595
िवॆ	-6596
च्चत्	-6597
▁विट	-6598
▁बिटिसि	-6599
▁would	-6600
ालनि	-6601
▁इन्त्य	-6602
▁कइसे	-6603
ंज	-6604
arn	-6605
▁तॊटर्	-6606
▁लेकर	-6607
म्स	-6608
चेर	-6609
▁ابو	-6610
فو	-6611
▁ठाक	-6612
म्न	-6613
ेइ	-6614
न्नाण्	-6615
त्तिन	-6616
▁رپور	-6617
ital	-6618
▁علائقی	-6619
ڏھن	-6620
▁कए	-6621
▁Indian	-6622
ᱠᱟᱱ	-6623
▁میمبر	-6624
▁जाति	-6625
ابل	-6626
▁टु	-6627
▁नंतर	-6628
▁अग्	-6629
▁शर्मा	-6630
▁समाधान	-6631
▁गुव	-6632
कोट	-6633
▁ہزار	-6634
▁फ्ल	-6635
▁पंहिंजे	-6636
आइ	-6637
▁कौन	-6638
▁आयन	-6639
مینٽ	-6640
ुमत	-6641
▁दिए	-6642
▁केरळ	-6643
pui	-6644
डू	-6645
याव	-6646
▁یور	-6647
▁ꯀ꯭	-6648
▁तइ	-6649
▁मोट	-6650
ियाँ	-6651
गाँ	-6652
▁᱑᱐	-6653
▁खौरां	-6654
▁५०	-6655
ᱤᱢ	-6656
▁छान	-6657
.2	-6658
ख्रे	-6659
▁ᱥᱮᱫ	-6660
ॆयि	-6661
टाए	-6662
▁दाबि	-6663
थोक	-6664
▁आइन	-6665
▁32	-6666
मती	-6667
▁भौ	-6668
▁وزیراع	-6669
دید	-6670
ᱮᱛᱟᱱ	-6671
▁مشتمل	-6672
ाय्	-6673
▁لاہ	-6674
▁قدیم	-6675
ंत्रि	-6676
rit	-6677
▁फरायसा	-6678
घर	-6679
▁किए	-6680
▁192	-6681
▁उं	-6682
ꯄꯨ	-6683
्य़ु	-6684
▁सें	-6685
▁अनुप	-6686
ya	-6687
▁Mar	-6688
▁भाजपा	-6689
▁डीं	-6690
▁परत	-6691
▁तरीके	-6692
▁कुम	-6693
▁زی	-6694
▁फुल	-6695
॒य	-6696
म्मे	-6697
पूर्व	-6698
▁हॆच्च	-6699
▁महाक्ना	-6700
▁report	-6701
▁ٿیندی	-6702
▁हउँ	-6703
▁केन्द	-6704
▁वजह	-6705
▁ऎन्नि	-6706
▁ساڳ	-6707
▁سواء	-6708
ाणा	-6709
▁नुप	-6710
▁معلوم	-6711
▁आसामनि	-6712
▁ᱵᱷᱟ	-6713
▁सका	-6714
ᱵᱤ	-6715
▁सन्द	-6716
lic	-6717
▁रोड	-6718
▁बुङो	-6719
شنل	-6720
▁अगले	-6721
ियुटॆ	-6722
ꯅꯕꯥ	-6723
▁قل	-6724
▁वन्त	-6725
▁صن	-6726
ater	-6727
▁किंवा	-6728
▁सिख	-6729
ष्ट्	-6730
▁जेह्	-6731
▁संभ	-6732
▁घलो	-6733
ates	-6734
▁ᱥᱮᱞᱮᱫ	-6735
ॉन	-6736
▁नवा	-6737
▁37	-6738
▁अजु॒	-6739
▁सेर	-6740
लाम	-6741
▁भूमि	-6742
▁प्रहरी	-6743
▁ᱯᱩᱭᱞᱩ	-6744
▁प्री	-6745
▁दस्त	-6746
▁ताप	-6747
ana	-6748
▁आट	-6749
गन	-6750
िकर	-6751
▁ꯑꯣꯢꯔꯤꯕ	-6752
▁kal	-6753
मनि	-6754
टेड	-6755
▁किन	-6756
▁mynta	-6757
ادر	-6758
▁ꯑꯣꯢꯅ	-6759
▁Is	-6760
▁अनुक	-6761
▁ꯁꯤꯖꯤꯟꯅ	-6762
लकइ	-6763
▁कविता	-6764
▁واریاہ	-6765
▁ꯑꯩ	-6766
ोली	-6767
▁पान	-6768
▁सप्ताह	-6769
सँग	-6770
कर्त	-6771
▁imp	-6772
प्पिक्क	-6773
▁police	-6774
ट्टा	-6775
▁तॆरि	-6776
ज्य	-6777
▁करइ	-6778
िरुन्न	-6779
▁गाहाइ	-6780
▁घटि	-6781
▁राइ	-6782
▁वापस	-6783
▁ᱮᱥ	-6784
सह	-6785
ꯁꯤꯡꯗ	-6786
▁مڪمل	-6787
▁آء	-6788
▁ग़	-6789
ᱚᱸᱡᱽ	-6790
▁کٔر	-6791
▁बुझ	-6792
▁عدال	-6793
▁बरस	-6794
ꯔꯤꯡ	-6795
▁बांलादेश	-6796
िदरु	-6797
▁ٺاہ	-6798
ियुनि	-6799
▁सकती	-6800
▁विद्यार्थ	-6801
▁दिने	-6802
▁زیادہ	-6803
▁ᱵᱮᱵ	-6804
قب	-6805
▁ڪان	-6806
▁شاھ	-6807
शो	-6808
बाव	-6809
▁परीक्ष	-6810
▁تیار	-6811
حد	-6812
य्य	-6813
وہ	-6814
▁हाय़ना	-6815
▁एबा	-6816
कन	-6817
▁जाप	-6818
▁ژ	-6819
त्त्व	-6820
▁करार	-6821
ᱤᱥᱟ	-6822
▁so	-6823
▁shnong	-6824
▁रह्या	-6825
▁आवाज़	-6826
▁tu	-6827
काम	-6828
ᱤᱭᱟᱹᱨᱤ	-6829
▁lah	-6830
ory	-6831
मानि	-6832
▁तथ्य	-6833
ित्स	-6834
धाए	-6835
▁dawn	-6836
▁ᱜᱟᱰᱟ	-6837
▁she	-6838
▁होइछि	-6839
▁समस्य	-6840
▁भाबे	-6841
▁ملڪن	-6842
▁विस्तार	-6843
घा	-6844
▁استمال	-6845
▁काढ	-6846
▁हुननि	-6847
▁हथ	-6848
▁والے	-6849
rib	-6850
▁बाक	-6851
ध्या	-6852
▁ᱠᱷᱟᱱ	-6853
▁उंड	-6854
▁تحقی	-6855
▁انج	-6856
▁एप	-6857
बाब	-6858
▁पित	-6859
छन्	-6860
▁قیا	-6861
▁اسٽ	-6862
दिक	-6863
ڌی	-6864
▁उपरे	-6865
▁ᱪᱟᱞ	-6866
▁Pathian	-6867
चान	-6868
▁گورن	-6869
▁ᱮᱛᱚᱢ	-6870
ᱤᱯ	-6871
▁बनी	-6872
▁हिच	-6873
LA	-6874
▁fir	-6875
▁कोशिश	-6876
ण्य	-6877
▁حم	-6878
नें	-6879
▁تٔ	-6880
▁सुवि	-6881
▁انداز	-6882
▁اھ	-6883
▁पासे	-6884
▁ᱡᱤᱭᱚᱱ	-6885
▁रस्त	-6886
▁सुरक्षित	-6887
्टन	-6888
▁ᱵᱟᱹᱲ	-6889
ापा	-6890
▁ᱪᱮᱛᱟᱱ	-6891
▁ᱥᱟᱨ	-6892
▁सकल	-6893
꯭ꯔꯒ	-6894
▁رات	-6895
▁شاعر	-6896
्ने	-6897
▁خٲطرٕ	-6898
▁حسین	-6899
▁یمن	-6900
तेक	-6901
ण्टा	-6902
▁کتاب	-6903
▁रक्त	-6904
िनाय	-6905
▁one	-6906
लेट	-6907
ावइ	-6908
▁reg	-6909
चें	-6910
▁ऎऴ	-6911
ᱭᱟᱨ	-6912
खत	-6913
erv	-6914
▁Th	-6915
व्हां	-6916
▁मनखे	-6917
▁191	-6918
मारी	-6919
▁پھر	-6920
ade	-6921
गिन	-6922
riew	-6923
اہم	-6924
▁वृ	-6925
▁होन्ना	-6926
ोकर	-6927
▁बाबा	-6928
▁ꯂꯥꯢꯅꯤꯡ	-6929
्तन	-6930
▁सिने	-6931
ंका	-6932
▁स्कुल	-6933
▁भविष्य	-6934
▁Thi	-6935
▁मस	-6936
▁संस	-6937
▁ꯁꯤꯟ	-6938
▁बिध	-6939
▁जिल्लानि	-6940
▁रहिछि	-6941
▁पछ	-6942
▁2011	-6943
▁ناو	-6944
▁hre	-6945
▁مین	-6946
▁दिखाई	-6947
▁सुत	-6948
▁thaw	-6949
विद्य	-6950
pa	-6951
▁मरियु	-6952
▁योग्य	-6953
▁किसे	-6954
▁co	-6955
गान	-6956
▁पुऱ	-6957
▁ورتو	-6958
▁आक्	-6959
▁चॆप्प	-6960
धिकार	-6961
▁ہوں	-6962
शय	-6963
▁ᱠᱚᱨ	-6964
▁तिळ	-6965
▁हृ	-6966
▁मित्र	-6967
▁चुके	-6968
▁حر	-6969
▁थबक	-6970
▁دۄ	-6971
الن	-6972
▁قرآن	-6973
▁کرن	-6974
ऩा	-6975
▁आयु	-6976
▁ᱮᱴᱟᱜ	-6977
▁مقص	-6978
▁मंगल	-6979
▁मरण	-6980
ada	-6981
▁ᱦᱮ	-6982
▁हौजिक	-6983
ळ्ळि	-6984
ुम्बा	-6985
▁معی	-6986
▁मेर	-6987
ासिनो	-6988
श्ट	-6989
▁ding	-6990
ꯔꯝ	-6991
हूँ	-6992
▁ꯃꯐꯝ	-6993
▁पॆरु	-6994
ितो	-6995
प्पॆट्ट	-6996
جد	-6997
▁गांव	-6998
▁घंटे	-6999
▁ताँ	-7000
▁जाइत	-7001
▁رح	-7002
▁امہ	-7003
▁वेंदो	-7004
ult	-7005
▁खेत	-7006
ित्ब	-7007
▁ᱵᱤᱨᱫ	-7008
ङ्कळै	-7009
▁खराब	-7010
uring	-7011
شم	-7012
▁nge	-7013
ᱩᱣ	-7014
▁ताईं	-7015
▁منظ	-7016
जनक	-7017
▁होना	-7018
▁तव्हां	-7019
▁mah	-7020
▁तेना	-7021
▁ꯅꯠꯇ꯭ꯔꯒ	-7022
▁उय	-7023
▁तेबे	-7024
▁تف	-7025
▁मोबाइल	-7026
▁سط	-7027
▁سائن	-7028
▁noh	-7029
▁देखल	-7030
▁कीमत	-7031
▁you	-7032
▁उण	-7033
▁ज़ि	-7034
ुकिऱतु	-7035
▁लागत	-7036
▁समाचार	-7037
ꯣꯀ	-7038
▁लक	-7039
▁जद	-7040
▁पुस्तक	-7041
▁جھ	-7042
ेऩ्	-7043
हुदु	-7044
▁परम	-7045
▁हमे	-7046
▁सुल	-7047
▁वक्त	-7048
▁मन्त्	-7049
▁जीत	-7050
▁एथ	-7051
▁गिबि	-7052
▁رہا	-7053
▁खि	-7054
▁چان	-7055
मेंट	-7056
▁हिसाब	-7057
ळरे	-7058
▁बछर	-7059
▁अमदि	-7060
▁पाट	-7061
▁रीते	-7062
▁کور	-7063
▁भइ	-7064
stit	-7065
▁करोड	-7066
म्मा	-7067
▁सर्कार	-7068
چو	-7069
▁बाळ	-7070
▁प्रकाशित	-7071
णै	-7072
न्सि	-7073
▁dec	-7074
▁طاقت	-7075
▁रन	-7076
▁paid	-7077
▁दोसर	-7078
▁मुताबिक़	-7079
भिड	-7080
▁थाना	-7081
tic	-7082
rang	-7083
्कळ	-7084
▁लैबा	-7085
टुत्तु	-7086
▁ꯆꯥ	-7087
▁ᱫᱷᱚᱨ	-7088
ोम्	-7089
▁بلوچ	-7090
▁80	-7091
▁आयोग	-7092
▁ऑनलाइन	-7093
▁ph	-7094
▁مسلم	-7095
▁क्व	-7096
न्तर	-7097
▁तॆलु	-7098
▁साध्य	-7099
▁केंद	-7100
▁भाब	-7101
▁माता	-7102
صل	-7103
तियोग	-7104
▁त्यांच्या	-7105
▁ꯊꯪꯕ	-7106
▁bu	-7107
▁ہندستان	-7108
▁आदमी	-7109
ake	-7110
द्धे	-7111
▁सेव	-7112
▁36	-7113
▁ष्ट	-7114
र्द	-7115
▁ᱤᱫ	-7116
हिर	-7117
स़ी	-7118
ँदा	-7119
▁ᱟ᱾	-7120
न्ज	-7121
▁ᱢᱤ	-7122
▁वाक	-7123
amp	-7124
▁Q	-7125
▁हाय	-7126
▁نواز	-7127
▁विद्या	-7128
▁ꯅꯣꯡ	-7129
▁विरुद्ध	-7130
▁क्	-7131
▁बाटे	-7132
ुली	-7133
▁य़ें	-7134
पॆ	-7135
कडे	-7136
ائر	-7137
▁پوری	-7138
ुक्ति	-7139
50	-7140
फिक	-7141
भाइ	-7142
▁سطح	-7143
ापि	-7144
▁वैद्य	-7145
▁सिनिम	-7146
med	-7147
-19	-7148
ंडु	-7149
▁پک	-7150
▁गॾ	-7151
▁एक्	-7152
▁तिन	-7153
कू	-7154
फ्ट	-7155
▁इरुक्क	-7156
▁लगातार	-7157
गौ	-7158
▁pre	-7159
▁उत्तम	-7160
▁सङ्गे	-7161
▁करीब	-7162
▁पचन्क	-7163
▁ओइबा	-7164
▁रण	-7165
▁सैते	-7166
▁ऎऩ्ऩ	-7167
قا	-7168
घात	-7169
▁ब्यब	-7170
▁ᱛᱟᱞᱟ	-7171
▁संविधान	-7172
▁अळ	-7173
आर्	-7174
▁एऱ्प	-7175
▁no	-7176
▁शह	-7177
▁चले	-7178
▁करब	-7179
شیا	-7180
▁शक्त	-7181
ᱜᱼᱟ	-7182
▁लोके	-7183
▁tra	-7184
▁گے	-7185
▁कोय	-7186
▁सिरि	-7187
angin	-7188
▁ᱡᱮᱜᱮᱛ	-7189
▁exp	-7190
▁विवाह	-7191
त्थ	-7192
▁ᱩᱛ	-7193
▁स्वयं	-7194
▁आँख	-7195
لس	-7196
कुल	-7197
णां	-7198
▁اسٽی	-7199
▁Read	-7200
▁भक्त	-7201
▁عالم	-7202
▁मन्दिर	-7203
▁कलेज	-7204
▁समीक्षा	-7205
▁مسئ	-7206
▁ڳالہ	-7207
▁پنہنجو	-7208
▁मट्ट	-7209
▁لگ	-7210
▁जंदा	-7211
▁होग	-7212
▁انٛ	-7213
▁ꯌꯥꯎ	-7214
▁کچھ	-7215
▁माट	-7216
ेलि	-7217
▁विप	-7218
▁ᱜᱷ	-7219
ुवुदु	-7220
फोन	-7221
ala	-7222
ꯥꯡꯕ	-7223
मन्त्	-7224
▁सभई	-7225
▁नइखे	-7226
▁मिली	-7227
▁وو	-7228
▁दोलोनि	-7229
▁ꯄꯔꯤꯡ	-7230
र्तन	-7231
▁योगदान	-7232
▁ہمی	-7233
▁मध	-7234
▁घरे	-7235
▁कर्त	-7236
▁बोर्ड	-7237
व्हा	-7238
ुमे	-7239
▁ओनके	-7240
▁ڳالہہ	-7241
▁तारा	-7242
▁कऴ	-7243
▁ngut	-7244
▁भोजन	-7245
▁शिशु	-7246
▁सड़क	-7247
▁ᱥᱴ	-7248
बेक	-7249
▁त्यांना	-7250
▁Un	-7251
▁av	-7252
▁सारी	-7253
माना	-7254
▁संभाव	-7255
▁मिश्र	-7256
▁ᱱᱚᱸᱰᱮ	-7257
▁आपणी	-7258
▁عوام	-7259
▁myn	-7260
▁यात्रा	-7261
▁kit	-7262
▁गार	-7263
▁आशा	-7264
▁नाहि	-7265
सिं	-7266
▁संस्कृति	-7267
ल्ला	-7268
▁क्री	-7269
▁मंच	-7270
▁राहुल	-7271
▁कले	-7272
दिआं	-7273
▁आलोचना	-7274
یاب	-7275
▁सुविधा	-7276
ाकै	-7277
▁कुऱि	-7278
▁ᱜᱤᱫᱽ	-7279
क्षर	-7280
ाप्र	-7281
▁मई	-7282
▁ass	-7283
▁there	-7284
▁مثال	-7285
ٕہ	-7286
ंदगी	-7287
▁अनुर	-7288
▁مقام	-7289
▁दार	-7290
▁ᱯᱮ	-7291
▁اسلامی	-7292
जब	-7293
▁ᱥᱤᱨ	-7294
▁ओल	-7295
ڈی	-7296
ांति	-7297
▁ꯃꯌꯥꯝꯒꯤ	-7298
सट	-7299
▁ڪیترائی	-7300
▁گژھان	-7301
ادٕ	-7302
▁काठमाडौं	-7303
▁माडि	-7304
ग्न	-7305
▁अवकाश	-7306
▁परिच	-7307
जात	-7308
▁खङ	-7309
▁@	-7310
राम	-7311
▁विवर	-7312
▁ڪالی	-7313
ove	-7314
ुतुन्न	-7315
▁آیا	-7316
ꯂꯤꯌꯥ	-7317
▁घो	-7318
ावि	-7319
▁ڈی	-7320
ीय़ा	-7321
▁ro	-7322
▁حکومت	-7323
یح	-7324
▁२३	-7325
▁वेळ	-7326
ᱱᱟᱢ	-7327
ॊंदि	-7328
▁Bah	-7329
▁ᱟᱫ	-7330
ियॆ	-7331
▁स्वर	-7332
▁متع	-7333
▁मनइ	-7334
▁ادبی	-7335
समूह	-7336
▁ꯍꯥꯌ	-7337
▁ظاہر	-7338
▁Ass	-7339
ᱮᱥᱚᱱ	-7340
ालाई	-7341
ठि	-7342
▁जणे	-7343
▁ꯀꯥꯡꯂꯣꯟ	-7344
▁خدمت	-7345
▁बुल	-7346
ओय़ार	-7347
▁جنرل	-7348
▁अक्ट	-7349
हल	-7350
▁यार	-7351
ریشن	-7352
ایا	-7353
ाइज	-7354
▁तोहका	-7355
▁سائین	-7356
▁मसिगी	-7357
▁इसे	-7358
▁दुः	-7359
▁नुंडि	-7360
▁जोड़	-7361
cy	-7362
▁महास	-7363
▁سون	-7364
ुवत	-7365
▁tang	-7366
फार	-7367
.4	-7368
र्घ	-7369
र्मी	-7370
▁ᱠᱤ	-7371
▁प्राण	-7372
▁जोजना	-7373
▁बेटी	-7374
▁असिगी	-7375
▁कद	-7376
▁खिल	-7377
lud	-7378
ꯃꯦ	-7379
ced	-7380
▁قیمت	-7381
▁सूर्य	-7382
▁बिद्य	-7383
▁पॉ	-7384
ुके	-7385
▁ᱡᱤ	-7386
▁عالمی	-7387
▁फाल	-7388
ङ्ङळि	-7389
▁یونین	-7390
▁चिऱ	-7391
▁वयो	-7392
▁विस़	-7393
▁लाए	-7394
▁ᱵᱟᱝᱞᱟ	-7395
▁سیڪڙو	-7396
▁وزیراعظم	-7397
ꯌꯥꯝ	-7398
लॆ	-7399
प्पुडु	-7400
▁वस	-7401
▁तसे	-7402
▁थाय	-7403
▁प्रिय	-7404
▁नेट	-7405
▁छिल	-7406
▁ᱫᱮ	-7407
न्नबा	-7408
केट	-7409
▁وڻ	-7410
▁وڪ	-7411
▁आरम्भ	-7412
बहुदु	-7413
▁सुबु	-7414
▁party	-7415
▁ᱵᱟᱰᱟᱭ	-7416
▁ہونے	-7417
▁वस्तु	-7418
▁भरो	-7419
ॆयाण्	-7420
▁दुल	-7421
▁तीसुक	-7422
▁منت	-7423
▁पाउ	-7424
▁सकते	-7425
▁`	-7426
▁पदार	-7427
▁आकार	-7428
▁kyr	-7429
ंगळ	-7430
▁دست	-7431
▁ڪون	-7432
ꯔꯛ	-7433
▁तोरा	-7434
▁سخت	-7435
सानि	-7436
▁सोद्रो	-7437
▁ꯑꯃꯥ	-7438
▁AM	-7439
व्व	-7440
▁आफ्नो	-7441
ूर्ण	-7442
▁बेटा	-7443
▁संबाद	-7444
▁सय	-7445
▁ᱠᱷᱟ	-7446
ٲر	-7447
ورس	-7448
▁आया	-7449
▁कहत	-7450
▁तॆर	-7451
▁बिजॆ	-7452
▁अशा	-7453
ळन	-7454
▁द्	-7455
اض	-7456
▁मिरु	-7457
ऴिञ्ञ	-7458
▁तादेर	-7459
र्न्त	-7460
नेस	-7461
ाद्	-7462
شا	-7463
ळित	-7464
▁ویندا	-7465
▁ᱢᱟᱹ	-7466
▁पहिली	-7467
्याने	-7468
▁बनाव	-7469
ٽس	-7470
▁चॆय्तु	-7471
▁rem	-7472
▁ei	-7473
▁आगामी	-7474
und	-7475
▁ꯁꯛꯇ	-7476
▁हाबाफारि	-7477
▁पयो	-7478
▁ڪجھ	-7479
▁dep	-7480
▁ꯐꯨꯔ	-7481
▁पूरे	-7482
ेंस	-7483
▁انہوں	-7484
▁थाके	-7485
ember	-7486
▁آرٹری	-7487
▁ꯌꯨ	-7488
▁अमेरिक	-7489
▁sc	-7490
▁ᱛᱤ	-7491
▁الدین	-7492
▁मोननाय	-7493
ارتی	-7494
▁ᱚᱲᱟᱜ	-7495
है	-7496
▁जियादा	-7497
▁आफादगिरि	-7498
مار	-7499
▁महिना	-7500
ᱥᱴ	-7501
▁य़ाइ	-7502
▁श्	-7503
▁गॆ	-7504
▁असल्या	-7505
▁lak	-7506
ालीन	-7507
▁बणा	-7508
▁शिक्षण	-7509
▁चिकित्स	-7510
द्दा	-7511
▁फीस	-7512
▁थाग	-7513
iak	-7514
▁kin	-7515
▁अना	-7516
▁खाते	-7517
्योति	-7518
▁por	-7519
▁حسن	-7520
▁ind	-7521
▁अदालत	-7522
▁چئ	-7523
▁लाई	-7524
▁महरै	-7525
▁जातीय़	-7526
ातून	-7527
िबे	-7528
ज़र	-7529
▁तुम्ह	-7530
▁सिनिमा	-7531
▁मणि	-7532
▁सक्रिय	-7533
▁प्रारंभ	-7534
▁ᱞᱮᱠᱟᱱ	-7535
▁अड	-7536
▁निं	-7537
▁बग्गॆ	-7538
▁ram	-7539
▁داخل	-7540
ꯁꯤꯡꯅ	-7541
▁गर्दै	-7542
▁سمیت	-7543
▁मोरे	-7544
▁पहिलां	-7545
▁ٻیا	-7546
▁बजार	-7547
▁ᱵᱷᱟᱨᱚᱛ	-7548
ᱚᱰ	-7549
▁अपरा	-7550
▁भीतर	-7551
امن	-7552
▁یق	-7553
्यावर	-7554
▁माण्ह	-7555
दनि	-7556
▁लेखक	-7557
▁official	-7558
ुंट	-7559
مس	-7560
▁आऊ	-7561
गिर	-7562
▁किछि	-7563
▁कर्ना	-7564
▁तुसीं	-7565
ای	-7566
▁عربی	-7567
▁व्यापार	-7568
▁अवर्	-7569
िय़ाल	-7570
▁प्राक	-7571
▁दाय़	-7572
ities	-7573
ायनाय	-7574
▁Comm	-7575
▁رکیو	-7576
▁चुना	-7577
▁ओकरे	-7578
▁ꯀꯌꯥ	-7579
▁इले	-7580
्रोत	-7581
▁स़ुरू	-7582
▁ᱠᱚᱞᱮ	-7583
▁जॆ	-7584
▁दूसर	-7585
▁देण	-7586
▁मुख्य़	-7587
▁رسول	-7588
▁पऱञ्ञु	-7589
फोराव	-7590
हेको	-7591
▁ओड़ि	-7592
▁کھو	-7593
ᱟᱹᱜᱟᱲ	-7594
▁पर्व	-7595
▁बइ	-7596
▁मनइयन	-7597
▁ٻولیء	-7598
▁औष	-7599
▁तमिऴ	-7600
▁PTI	-7601
च्चा	-7602
ाइत	-7603
▁بور	-7604
▁सारा	-7605
▁ᱯᱩᱨ	-7606
▁ber	-7607
ᱟᱹᱦᱤᱛ	-7608
▁राजकीय	-7609
aluru	-7610
▁نس	-7611
िनि	-7612
▁ᱯᱟᱲ	-7613
ثیت	-7614
▁भ्र	-7615
▁हुण	-7616
▁ऎंद	-7617
▁पैलेस	-7618
तन्त्र	-7619
▁جما	-7620
▁ڪیترن	-7621
ारनि	-7622
ꯂꯣꯢ	-7623
▁ہٕنٛز	-7624
▁सांसद	-7625
▁ᱨᱚᱲ	-7626
▁जमीन	-7627
▁पछी	-7628
▁ضلک	-7629
▁ꯐꯨꯔꯨꯞ	-7630
▁بخش	-7631
ire	-7632
▁श्रेणी	-7633
▁हफ़	-7634
▁इहो	-7635
▁مک	-7636
▁1,	-7637
▁سمنڊ	-7638
िद्यालय़	-7639
ted	-7640
▁hal	-7641
▁bah	-7642
▁ꯊꯧ	-7643
▁करण्या	-7644
▁सोद्रोमा	-7645
▁कुऴ	-7646
▁एख	-7647
▁अतिर	-7648
ध्यक्ष	-7649
▁आयोजन	-7650
ڪشن	-7651
▁seng	-7652
▁دار	-7653
▁चॎ	-7654
▁अभिव	-7655
न्नुं	-7656
ळं	-7657
▁form	-7658
▁टेस्ट	-7659
▁उपचार	-7660
▁विदेश	-7661
▁मइ	-7662
थिं	-7663
▁पैसा	-7664
▁प्राय़	-7665
▁रास्त	-7666
धित	-7667
▁मानसिक	-7668
न्ते	-7669
▁سرو	-7670
▁बस्	-7671
▁जोब	-7672
▁आभार	-7673
▁कृत	-7674
शीं	-7675
▁ٽن	-7676
▁फिस	-7677
▁चन्द्र	-7678
ᱩᱠ	-7679
▁सहज	-7680
▁अदुबु	-7681
प्पॆटुत्त	-7682
▁ᱡᱟᱹᱛ	-7683
▁ꯄꯥꯟꯕ	-7684
▁मफम	-7685
कृत	-7686
ᱚᱛᱮ	-7687
▁मऩ	-7688
▁सोरख	-7689
▁चॆल	-7690
▁ṭ	-7691
▁नियंत्र	-7692
▁खरीद	-7693
▁ڪڍ	-7694
▁अञ्चल	-7695
▁साहिब	-7696
▁अऴ	-7697
▁ओफ	-7698
▁مطلب	-7699
िबाकु	-7700
▁رڳو	-7701
▁मज़	-7702
ien	-7703
▁ᱥᱟᱱ	-7704
▁विज्ञान	-7705
मू	-7706
▁असेल	-7707
▁लिया	-7708
.3	-7709
▁bo	-7710
िलुम्	-7711
▁2013	-7712
▁लाइन	-7713
▁chung	-7714
ریت	-7715
▁थौ	-7716
▁अन्य़	-7717
ٲی	-7718
ᱚᱫᱚᱨ	-7719
▁گئے	-7720
▁सिस्ट	-7721
▁تعداد	-7722
▁इदु	-7723
▁तारीख	-7724
▁آفی	-7725
▁अंतिम	-7726
▁सावर	-7727
ڪت	-7728
▁Mod	-7729
بائی	-7730
▁निम	-7731
▁कएल	-7732
ᱪᱮ	-7733
सले	-7734
▁सूची	-7735
▁अहै	-7736
▁him	-7737
▁ایل	-7738
न्नाय	-7739
▁معا	-7740
▁गठन	-7741
▁33	-7742
ari	-7743
▁यांच्या	-7744
▁واپس	-7745
▁पहिर	-7746
▁ᱠᱚᱨᱮ	-7747
िलेक्क्	-7748
▁ویب	-7749
प्पटि	-7750
ᱦᱟᱣ	-7751
▁स्बा	-7752
ꯃꯥ	-7753
▁مف	-7754
ᱧᱪ	-7755
▁भुबने	-7756
▁تبدیل	-7757
▁आक्रम	-7758
▁ᱵᱤᱨᱫᱟᱹᱜᱟᱲ	-7759
▁مواد	-7760
▁ڪپ	-7761
ینا	-7762
▁ngaih	-7763
▁ꯅꯨꯄꯤ	-7764
▁مقصد	-7765
िकॊळ्ळ	-7766
▁नूआ	-7767
▁समित	-7768
णॆ	-7769
▁असून	-7770
गरी	-7771
▁बिप	-7772
▁नाहिँ	-7773
ᱭᱚ	-7774
▁دیکھ	-7775
ासु	-7776
ka	-7777
▁बच्चा	-7778
न्दै	-7779
▁᱑᱘	-7780
शनल	-7781
शिन	-7782
لیل	-7783
▁तात	-7784
▁निम्म	-7785
▁ہنڌ	-7786
▁स्वागत	-7787
▁हामी	-7788
▁जुलाई	-7789
▁येत	-7790
ङ्कळिल्	-7791
▁سٕ	-7792
ाष्ट्	-7793
▁बाथ	-7794
▁ब्रे	-7795
erson	-7796
▁पाब	-7797
▁ꯇꯧ	-7798
स्पिट	-7799
▁वरि	-7800
न्हीं	-7801
▁bynta	-7802
▁لاڳ	-7803
▁ᱮᱱᱮᱡ	-7804
▁لکی	-7805
वाला	-7806
▁कुसै	-7807
ؠن	-7808
▁अङां	-7809
▁चरण	-7810
orld	-7811
▁Eng	-7812
▁Go	-7813
▁पहिला	-7814
▁नष्ट	-7815
▁२६	-7816
▁پولیس	-7817
▁दिहे	-7818
▁जानो	-7819
त्तुव	-7820
▁गान्	-7821
निय	-7822
▁बिनि	-7823
▁نٿ	-7824
▁نور	-7825
▁काले	-7826
▁निश	-7827
▁Tin	-7828
▁सहर	-7829
लिए	-7830
▁पैदा	-7831
ᱷᱟᱣ	-7832
▁तोहरे	-7833
▁ڪالیج	-7834
▁ꯃꯇꯨꯡꯏ	-7835
▁تا	-7836
▁वित्त	-7837
▁ग्रामी	-7838
▁हुन्छ	-7839
ंट्	-7840
ᱝᱜ	-7841
▁इंडिया	-7842
▁सिगां	-7843
▁रिस	-7844
ندیون	-7845
िकु	-7846
▁नीचे	-7847
ांचे	-7848
मीय़ा	-7849
हू	-7850
▁समर्थन	-7851
▁मास्क	-7852
▁ᱛᱤᱨᱞᱟᱹ	-7853
زم	-7854
▁یونیورسٽی	-7855
▁सुप	-7856
▁महत्वपूर्ण	-7857
▁तम्म	-7858
ڙیء	-7859
ैकळ	-7860
▁अभ्यास	-7861
▁ᱢᱮᱱᱛᱮ	-7862
ुकयुं	-7863
क्कर	-7864
▁them	-7865
▁कांग्र	-7866
क्कुव	-7867
साय	-7868
▁लिआ	-7869
ꯌꯨ	-7870
▁एप्रिल	-7871
ings	-7872
▁ꯂꯥ	-7873
▁इत्या	-7874
▁ꯅꯥ	-7875
▁संपर्क	-7876
▁पाई	-7877
bo	-7878
▁जिल्	-7879
▁ꯑꯣꯏ꯫	-7880
तंत्र	-7881
ents	-7882
lh	-7883
▁नियमित	-7884
▁ꯃꯇꯨꯡꯏꯟꯅ	-7885
▁गेआ	-7886
▁गुरू	-7887
▁ᱪᱮᱫ	-7888
hei	-7889
▁हमार	-7890
▁युग	-7891
▁ᱡᱟᱱᱟᱝ	-7892
ꯨꯝꯅ	-7893
ٹس	-7894
▁साज	-7895
▁ڄام	-7896
▁آمریڪا	-7897
सरा	-7898
▁तमाम	-7899
▁ꯀꯣꯔ	-7900
ote	-7901
شڪ	-7902
▁اسی	-7903
वं	-7904
▁कौर	-7905
꯭ꯔꯤ	-7906
▁जणाव	-7907
▁कों	-7908
ह्न	-7909
▁सक्षम	-7910
▁अधि	-7911
▁रुपये	-7912
▁स्बास्थ्य	-7913
▁ᱨᱮᱭ	-7914
tt	-7915
▁प्रकरण	-7916
▁करू	-7917
▁गैर	-7918
▁عمران	-7919
کاری	-7920
▁अवधि	-7921
▁امری	-7922
ꯗꯨꯅ	-7923
▁बिजा	-7924
▁प्रयत्न	-7925
▁hynrei	-7926
▁ᱢᱟᱱ	-7927
▁مظ	-7928
▁आनंद	-7929
वानो	-7930
▁सुनि	-7931
▁मौसम	-7932
ड्डि	-7933
▁وجہ	-7934
ꯇꯣ	-7935
▁हट	-7936
▁मदु	-7937
▁صلاح	-7938
ریو	-7939
तू	-7940
▁हाम	-7941
▁includ	-7942
▁स्थानीय़	-7943
▁जइसे	-7944
▁तारि	-7945
▁वइ	-7946
ँकि	-7947
▁سج	-7948
▁jingp	-7949
ral	-7950
hai	-7951
▁hle	-7952
▁परिस्थिति	-7953
▁ओस	-7954
▁राष्ट्रपति	-7955
जिन	-7956
मेद	-7957
▁بلا	-7958
▁पढ	-7959
र्ध	-7960
▁mon	-7961
▁nu	-7962
▁तीव्र	-7963
ؤن	-7964
कळ	-7965
▁ᱫᱷᱚᱨᱚᱢ	-7966
یاں	-7967
▁कय़ा	-7968
▁हान	-7969
▁मावफुं	-7970
▁ᱨᱮᱞ	-7971
▁بنیادی	-7972
ोस	-7973
▁حیثیت	-7974
▁खन	-7975
▁इन्ह	-7976
▁प्रसिद्ध	-7977
▁महार	-7978
▁कंग्रेस	-7979
ug	-7980
▁अगस्त	-7981
▁दोनों	-7982
▁धेरै	-7983
▁हिचापे	-7984
▁सम्पादक	-7985
▁اڻ	-7986
▁وانگر	-7987
▁स्टेशन	-7988
▁हाय़बसि	-7989
ꯟꯕ	-7990
▁va	-7991
ाण्ट	-7992
▁सम्बन्ध	-7993
amil	-7994
▁کرنا	-7995
▁حس	-7996
▁حوالی	-7997
वें	-7998
▁पोक	-7999
▁بیت	-8000
▁चन	-8001
▁पिऱ	-8002
▁पुतिय	-8003
बेन	-8004
▁गोख्र	-8005
▁अनुष्ठान	-8006
दना	-8007
वाना	-8008
▁ᱥᱟᱭ	-8009
िआव	-8010
▁حالت	-8011
सित	-8012
▁मेलॆ	-8013
▁किहे	-8014
▁90	-8015
▁मध्य़रे	-8016
▁चेर	-8017
▁मिथिला	-8018
▁करायाइ	-8019
▁केइ	-8020
▁ᱤᱥ	-8021
▁अनुमान	-8022
द्योग	-8023
ऩि	-8024
टरी	-8025
▁jaka	-8026
▁چوندا	-8027
▁اڃ	-8028
▁होयो	-8029
▁जहां	-8030
▁हित	-8031
▁ہنن	-8032
▁रहने	-8033
स्ति	-8034
▁चाहिए	-8035
थाए	-8036
▁मॉ	-8037
▁अंग्रे	-8038
انن	-8039
ांचा	-8040
▁ꯁꯦꯝꯄꯅꯤ꯫	-8041
رفت	-8042
▁आन्द	-8043
▁उपज	-8044
▁ter	-8045
▁وڃن	-8046
पाक	-8047
ᱟᱹᱞ	-8048
▁बिद	-8049
▁हासिल	-8050
▁वर्तमान	-8051
▁खाद्य	-8052
ꯀꯥ	-8053
ڪیٽ	-8054
▁لاہور	-8055
बू	-8056
▁cro	-8057
▁जह	-8058
खान्थि	-8059
ॆट्	-8060
दात	-8061
▁दुकान	-8062
▁बजाय	-8063
▁استاد	-8064
istan	-8065
▁नाज	-8066
िपुर	-8067
र्प	-8068
ٮ۪	-8069
▁परिबार	-8070
▁अऩ	-8071
प्रदेश	-8072
▁कमे	-8073
یٖن	-8074
सिंग्टन	-8075
▁कष्ट	-8076
▁Beng	-8077
ᱡᱟᱨ	-8078
▁As	-8079
▁jingk	-8080
नीक	-8081
▁تحریڪ	-8082
स्ती	-8083
▁मूलक	-8084
चै	-8085
▁केलनि	-8086
مب	-8087
न्नारु	-8088
▁समय़त	-8089
रम	-8090
▁दर्शन	-8091
▁त्यारे	-8092
▁सञ्चाल	-8093
▁केंसिंग्टन	-8094
▁हाब	-8095
▁supp	-8096
▁country	-8097
▁ꯀꯧ	-8098
▁स्वीकार	-8099
▁ڀا	-8100
▁जय़	-8101
rs	-8102
upang	-8103
▁ڪڏہن	-8104
▁फेसब	-8105
▁अहाँ	-8106
▁फं	-8107
ᱠᱟᱱᱟ	-8108
▁ابت	-8109
भाई	-8110
ुंड	-8111
▁تحت	-8112
िसिद्दारॆ	-8113
सिम	-8114
▁लाम	-8115
▁حقیقت	-8116
▁ڪوشش	-8117
▁चाइ	-8118
▁डिप	-8119
▁नायक	-8120
▁रुपए	-8121
▁स़ाम	-8122
क्कप्पट्ट	-8123
ission	-8124
ونا	-8125
▁समावे	-8126
ڌو	-8127
▁نڪ	-8128
▁ꯎꯆ	-8129
▁ᱫᱟᱜ	-8130
▁गोठ	-8131
▁آخر	-8132
्यापक	-8133
▁अक्क	-8134
▁ᱩᱯᱚᱡ	-8135
▁राजनीतिक	-8136
▁ꯀꯤꯡ	-8137
▁केन्द्	-8138
▁चर्च	-8139
▁ꯁꯤꯔꯤꯁ	-8140
▁जांदा	-8141
▁चेशारु	-8142
▁स्मार्ट	-8143
ution	-8144
▁ٿیندا	-8145
▁एट	-8146
▁चौध	-8147
वानुं	-8148
▁बाड़	-8149
▁ꯊꯋꯥꯢ	-8150
vers	-8151
▁any	-8152
▁प्रग	-8153
▁इक्क	-8154
▁صحیح	-8155
माणे	-8156
जण	-8157
▁بہتر	-8158
दर्श	-8159
िब्ला	-8160
ᱧᱮ	-8161
▁سمج	-8162
▁first	-8163
▁झू	-8164
▁سگہن	-8165
▁परेश	-8166
ण्याची	-8167
▁मुर	-8168
लैंड	-8169
▁ᱪᱟᱸ	-8170
▁فت	-8171
▁अयिते	-8172
▁سفر	-8173
▁ग्री	-8174
▁दस्तावे	-8175
▁ہہ	-8176
ेष	-8177
मेन	-8178
श्मीर	-8179
▁त्यस	-8180
धो	-8181
▁आने	-8182
▁रकम	-8183
▁ᱜᱷᱟᱨ	-8184
्पी	-8185
▁कर्नाटक	-8186
▁ران	-8187
▁جاناو	-8188
▁sur	-8189
▁مٿی	-8190
▁جر	-8191
عا	-8192
▁हान्	-8193
▁ᱥᱚᱫᱚᱨ	-8194
▁दर्ज	-8195
▁नुकसान	-8196
▁२७	-8197
ियलु	-8198
ाप्त	-8199
▁तुं	-8200
प्पॆट	-8201
▁reng	-8202
▁एग	-8203
▁قرار	-8204
▁ᱤᱫᱤ	-8205
ातो	-8206
▁हथिन	-8207
tern	-8208
ڙڪ	-8209
ᱮᱠ	-8210
▁कहिड़ो	-8211
▁लड़की	-8212
▁paidbah	-8213
▁ꯃꯄꯨꯡ	-8214
कृ	-8215
▁पेट	-8216
▁अनुव	-8217
ati	-8218
▁ꯁ꯭ꯇ	-8219
▁देखो	-8220
▁उभ	-8221
ans	-8222
लाम्	-8223
ؤر	-8224
▁عدالت	-8225
▁संसद	-8226
ꯁꯨꯕ	-8227
▁कल्या	-8228
्चि	-8229
▁मुटिय	-8230
ुलकु	-8231
▁आड	-8232
▁त्याला	-8233
▁सेट	-8234
▁प्रशि	-8235
▁बिटि	-8236
▁मम	-8237
▁गौर	-8238
▁भुगत	-8239
▁आबाद	-8240
डेल	-8241
▁Ad	-8242
▁काग	-8243
▁Gu	-8244
ांगिरि	-8245
▁pyr	-8246
ालनु	-8247
▁आक्रान्त	-8248
मात्र	-8249
▁पसंद	-8250
ुळ्ळार्	-8251
▁ꯁꯛꯇꯝ	-8252
र्जी	-8253
▁बादिब्ला	-8254
▁कनि	-8255
▁२८	-8256
▁मानुष	-8257
ꯟꯗ	-8258
िय़न	-8259
नैतिक	-8260
ानुं	-8261
▁ᱩᱯᱚᱡᱮᱞᱟ	-8262
▁जदों	-8263
▁अलावा	-8264
▁यूरो	-8265
▁दूसरे	-8266
▁विद्यार्थी	-8267
ᱩᱫ	-8268
▁ꯑꯉꯥꯡꯁꯤꯡꯒꯤ	-8269
▁कह्युं	-8270
▁सित	-8271
▁सोलों	-8272
▁᱑᱙᱙	-8273
▁क्षमता	-8274
▁انسانی	-8275
▁اسے	-8276
ताव	-8277
▁भाल	-8278
▁पुत्र	-8279
▁बक्ख	-8280
▁موسی	-8281
▁اعظم	-8282
وال	-8283
जना	-8284
▁नटत्त	-8285
▁तइयार	-8286
▁꯳꯰꯰꯰	-8287
ꯔꯥꯛ	-8288
्लोब	-8289
संग	-8290
âw	-8291
▁ᱥᱚᱨᱠᱟᱨ	-8292
ुम्प	-8293
कती	-8294
▁ᱵᱟᱹᱲᱛᱤ	-8295
سا	-8296
▁इलाज	-8297
lam	-8298
▁लें	-8299
▁ठाह	-8300
▁साधन	-8301
ٖر	-8302
uth	-8303
पर्यंत	-8304
▁تش	-8305
▁आश्व	-8306
वळ	-8307
व्या	-8308
▁चुन	-8309
मांथी	-8310
ुंडा	-8311
ोक्त	-8312
ᱷᱤᱢ	-8313
▁جماعت	-8314
▁ल्या	-8315
॒म	-8316
▁ᱛᱷᱟ	-8317
▁यदिओ	-8318
▁فارسی	-8319
▁निवड	-8320
▁कस	-8321
▁मिनट	-8322
▁धारा	-8323
▁वर्ण	-8324
▁ꯃꯁꯤꯒꯤ	-8325
▁संबंधित	-8326
▁چوڻ	-8327
▁नुनो	-8328
▁धा	-8329
▁चेसि	-8330
▁प्रेर	-8331
▁माख	-8332
▁फ्ही	-8333
▁सांस्क	-8334
▁देस़	-8335
▁राजी	-8336
▁ᱜᱩ	-8337
▁iss	-8338
ाखै	-8339
विल	-8340
▁करायाइछि	-8341
▁पहि	-8342
▁कुझु	-8343
▁होदों	-8344
▁اگ	-8345
▁med	-8346
▁ᱡᱷᱟᱨ	-8347
▁Kha	-8348
निं	-8349
ुमान	-8350
▁तट	-8351
▁खेला	-8352
स्त्र	-8353
▁अग्र	-8354
▁हिन्दु	-8355
nem	-8356
छो	-8357
llong	-8358
▁ꯕꯨꯛ	-8359
▁ꯃꯔꯨ	-8360
▁जेह	-8361
डिओ	-8362
ेलन	-8363
▁district	-8364
तल	-8365
▁मण्ड	-8366
▁Ma	-8367
ues	-8368
▁ꯂꯩꯔꯤꯕ	-8369
▁حک	-8370
हीन	-8371
ꯂꯦꯟ	-8372
ata	-8373
ارے	-8374
ढ़ी	-8375
▁देखते	-8376
▁भएका	-8377
▁hun	-8378
ylli	-8379
▁जबकि	-8380
▁कराया	-8381
लिक	-8382
▁ڪافی	-8383
▁ہوندا	-8384
▁उऱ	-8385
▁ᱫᱟ	-8386
▁नही	-8387
राव	-8388
▁namar	-8389
▁शोध	-8390
▁شادی	-8391
یع	-8392
▁میل	-8393
▁मतां	-8394
ळ्ल	-8395
▁मंज	-8396
▁एबे	-8397
▁भन्ने	-8398
▁फॉ	-8399
▁لکیل	-8400
डन	-8401
▁तरीका	-8402
कपा	-8403
افت	-8404
▁مہر	-8405
ret	-8406
▁तोहार	-8407
▁دان	-8408
▁زن	-8409
▁बय़	-8410
▁पाम	-8411
▁बिह	-8412
▁ꯂꯥꯏ	-8413
▁lang	-8414
▁अन्तर	-8415
▁جانور	-8416
ायनो	-8417
▁युवा	-8418
लनि	-8419
▁तें	-8420
ike	-8421
▁दळ	-8422
▁ᱠᱟᱛᱷᱟ	-8423
▁꯲꯰꯱	-8424
▁दर्श	-8425
▁अहिले	-8426
▁माने	-8427
▁ᱦᱚᱛᱮ	-8428
emb	-8429
▁छबि	-8430
▁शेयर	-8431
▁मुश्क	-8432
▁꯱꯹	-8433
▁बु॒	-8434
▁پتہٕ	-8435
▁ग्राहक	-8436
▁अजि	-8437
साग	-8438
▁ꯂꯦ	-8439
▁ꯎꯆꯦꯛ	-8440
hun	-8441
ٽل	-8442
▁maw	-8443
▁عرب	-8444
▁چیئر	-8445
ائیں	-8446
▁Pak	-8447
▁जाते	-8448
▁संचाल	-8449
▁ꯑꯍꯨꯝ	-8450
▁केही	-8451
ᱠᱤ	-8452
▁ᱱᱮ	-8453
▁دوست	-8454
▁تحقیق	-8455
▁सेहि	-8456
▁सिर्फ	-8457
▁ٽو	-8458
▁Shillong	-8459
ڈیا	-8460
▁वर्षे	-8461
मानङ्क	-8462
▁last	-8463
▁नम्बर	-8464
काले	-8465
rest	-8466
▁जोड	-8467
گرام	-8468
बह	-8469
▁علاوہ	-8470
क्कू	-8471
▁हले	-8472
ارف	-8473
▁बायदि	-8474
य़ाम	-8475
▁होइथिबा	-8476
ating	-8477
▁ᱠᱤᱱ	-8478
ाल्लो	-8479
▁अमॆ	-8480
नायखौ	-8481
▁um	-8482
▁ڪارو	-8483
ैः	-8484
▁विज	-8485
ᱚᱦᱚᱵ	-8486
ल्याने	-8487
▁निजी	-8488
▁شڪار	-8489
्ग	-8490
ors	-8491
▁बाबू	-8492
اتے	-8493
▁ꯂꯥꯢꯔꯤꯛꯁꯤꯡꯒꯤ	-8494
▁संक्रमित	-8495
▁वां	-8496
▁हुयो	-8497
ولت	-8498
▁مقاب	-8499
▁जारि	-8500
ꯊꯥ	-8501
▁कांग्रॆस्	-8502
▁आयोजित	-8503
ose	-8504
▁अद्देह	-8505
▁پئی	-8506
ुन्नत	-8507
▁आन्त	-8508
▁असर	-8509
▁संय	-8510
▁खाइ	-8511
ियिऩ्	-8512
▁मुऩ्ऩ	-8513
▁भऽ	-8514
▁मिला	-8515
▁रहिन	-8516
▁फेब्र	-8517
chi	-8518
▁स्री	-8519
▁चित	-8520
▁गोदान	-8521
▁ᱢᱤᱫᱴᱟᱝ	-8522
▁~	-8523
ल्स	-8524
▁हायो	-8525
▁वरुकि	-8526
ely	-8527
▁उसी	-8528
▁طب	-8529
▁तबे	-8530
▁ᱱᱤᱛ	-8531
سپ	-8532
▁time	-8533
ریب	-8534
▁रहै	-8535
डिंग	-8536
▁حد	-8537
ie	-8538
▁पैर	-8539
▁स्वतः	-8540
▁ऎन्त	-8541
▁فرما	-8542
▁ᱜᱤᱫᱽᱨᱟᱹ	-8543
ायी	-8544
▁قتل	-8545
▁होम	-8546
▁ङसि	-8547
▁क्लिक	-8548
▁ꯄꯥꯝ	-8549
▁सांगित	-8550
▁ڪمپنی	-8551
▁ऎंब	-8552
▁Home	-8553
ृत्ति	-8554
▁ऎर	-8555
▁ऐगी	-8556
▁id	-8557
▁ngei	-8558
▁پسند	-8559
नीति	-8560
ᱪᱚ	-8561
▁اے	-8562
▁वेबस	-8563
▁ऎन्ना	-8564
▁ꯂꯤꯔꯕ	-8565
▁दिले	-8566
▁ᱡᱟᱹᱱᱤ	-8567
▁تعالی	-8568
قر	-8569
▁खेळ	-8570
▁pri	-8571
▁कवि	-8572
ارڊ	-8573
▁दैन	-8574
▁بہترین	-8575
▁ذڪر	-8576
▁कोसं	-8577
▁شاگر	-8578
▁केन	-8579
▁ᱢᱩᱬ	-8580
چر	-8581
वले	-8582
लिअइ	-8583
॒त	-8584
▁ᱠᱚᱞᱮᱡᱽ	-8585
▁ᱜᱩᱴ	-8586
▁परिप	-8587
▁आऩाल्	-8588
▁Nong	-8589
▁सामे	-8590
گرٛ	-8591
▁Se	-8592
ᱟᱨᱟ	-8593
▁दुसरे	-8594
ुवुद	-8595
▁एतिय़ा	-8596
▁tan	-8597
भाष	-8598
थुम	-8599
▁تڏہن	-8600
भूत	-8601
▁ꯃꯥꯂꯦꯝꯒꯤ	-8602
.0	-8603
▁निकट	-8604
ितीय़	-8605
▁इऱ	-8606
▁फेसबुक	-8607
▁कूट्ट	-8608
▁काक	-8609
दू	-8610
▁विश्वविद्य	-8611
▁सम्भ	-8612
▁कऴिञ्ञ	-8613
स्ट्	-8614
ुमु	-8615
वून	-8616
osp	-8617
▁पूर्	-8618
▁डाल	-8619
ोगी	-8620
▁दैदेनगिरि	-8621
िंक	-8622
दाव	-8623
▁ᱠᱳ	-8624
▁Modi	-8625
ool	-8626
▁नुपी	-8627
▁डिग्री	-8628
पिएफ	-8629
▁सीट	-8630
▁اڪثر	-8631
कं	-8632
▁सांस्कृतिक	-8633
याळ	-8634
▁minister	-8635
िंग	-8636
घि	-8637
▁شروعات	-8638
tain	-8639
▁वापर	-8640
▁आकर्ष	-8641
▁پئ	-8642
ियन्नु	-8643
एर	-8644
▁X	-8645
▁ᱠᱚᱧᱮ	-8646
▁आसेआ	-8647
▁डॉलर	-8648
▁बानी	-8649
we	-8650
یرا	-8651
▁मरम	-8652
▁असते	-8653
▁हाणे	-8654
ॊंदिगॆ	-8655
▁48	-8656
▁प्रच	-8657
▁آواز	-8658
▁راب	-8659
▁मूर	-8660
▁ऎल्ला	-8661
▁اض	-8662
نت	-8663
▁बिजाथि	-8664
▁य़ाओ	-8665
▁वातावरण	-8666
رنگ	-8667
▁پرٛ	-8668
▁ہوئی	-8669
.6	-8670
न्नॆ	-8671
स्ट्रेल	-8672
▁افغ	-8673
ाय़त	-8674
▁लानाय	-8675
▁مسجد	-8676
▁हमरे	-8677
▁ꯑꯦꯅꯤ	-8678
ौँ	-8679
یز	-8680
▁अमनि	-8681
▁जिन्हनि	-8682
ᱮᱨᱤ	-8683
▁बुधवार	-8684
▁कच	-8685
▁प्रोग्राम	-8686
पथ	-8687
पासून	-8688
▁अर्ज	-8689
▁ꯄꯥꯎ	-8690
▁जानानै	-8691
▁ऐति	-8692
्रां	-8693
ꯚꯤꯁ	-8694
▁शत	-8695
▁विम	-8696
ٲژ	-8697
شل	-8698
▁दुर	-8699
▁पुनः	-8700
दास	-8701
न्नी	-8702
▁ᱮᱛᱚᱦᱚᱵ	-8703
▁दिब	-8704
▁بے	-8705
ामल्	-8706
ऩम्	-8707
▁उरु	-8708
awt	-8709
▁ꯁꯨ	-8710
▁when	-8711
▁ڌر	-8712
▁گۄ	-8713
▁ज्यारे	-8714
िबार	-8715
▁آخری	-8716
▁वाज	-8717
▁ٻول	-8718
سرے	-8719
▁माखासे	-8720
▁बँ	-8721
▁عہ	-8722
▁2000	-8723
्कार	-8724
ڊر	-8725
▁fil	-8726
▁घा	-8727
▁होनो	-8728
▁मुंहिंजे	-8729
▁करऽ	-8730
ुपर्ने	-8731
▁दीन	-8732
▁नोग	-8733
▁अमेरिकी	-8734
▁सिद्धान्त	-8735
▁सम्पर्क	-8736
ᱛᱟᱲ	-8737
▁सामग्री	-8738
स्ब	-8739
▁रुग्	-8740
▁संरक्षण	-8741
▁असिना	-8742
चार्य	-8743
रोइ	-8744
▁करम	-8745
▁उपन्य	-8746
खण	-8747
▁लम	-8748
▁44	-8749
اسی	-8750
▁تعمیر	-8751
▁ونان	-8752
▁سگہجی	-8753
سط	-8754
mah	-8755
▁लगे॒	-8756
▁188	-8757
▁दाम	-8758
▁आपका	-8759
▁ᱱᱩᱭ	-8760
ks	-8761
▁ڪلومی	-8762
▁ᱞᱟᱜ	-8763
त्ती	-8764
▁ꯃꯃꯥꯡ	-8765
▁cu	-8766
▁पऱय	-8767
ोजे	-8768
▁عی	-8769
alth	-8770
ern	-8771
वेदन	-8772
▁व्यवहार	-8773
▁हेले	-8774
▁شھ	-8775
▁हमका	-8776
▁दशक	-8777
ओने	-8778
▁कानून	-8779
▁सबु	-8780
▁देस	-8781
▁ᱵᱩᱨᱩ	-8782
देखि	-8783
▁उहइ	-8784
ᱜᱚᱨ	-8785
▁डिव	-8786
▁jings	-8787
पालिक	-8788
▁Sing	-8789
▁ᱥᱟᱹᱦᱤᱛ	-8790
▁सेक	-8791
▁मंदि	-8792
▁दीर्घ	-8793
तून	-8794
▁ہوتا	-8795
▁करिबाकु	-8796
▁De	-8797
▁ᱥᱟᱞᱮ	-8798
िपो	-8799
िसन	-8800
▁संसार	-8801
▁प्रवास	-8802
▁अनी	-8803
▁ꯃꯤꯑꯣꯏ	-8804
जानाय	-8805
▁ایران	-8806
▁पत्रकार	-8807
▁साथी	-8808
वाही	-8809
▁More	-8810
▁ꯄꯨꯋꯥꯔꯤ	-8811
ᱩᱨᱤ	-8812
▁وسی	-8813
▁पहा	-8814
▁pu	-8815
▁leit	-8816
▁مضمون	-8817
▁कॉलेज	-8818
▁ہاڻی	-8819
▁مارچ	-8820
▁شاعری	-8821
ुना	-8822
ेछ	-8823
ᱛᱟᱱ	-8824
ꯂꯥꯁ	-8825
▁ڪردار	-8826
▁لکھ	-8827
▁जाला	-8828
▁युक्त	-8829
▁عیس	-8830
▁नीवु	-8831
गड	-8832
▁स्थिर	-8833
▁سلس	-8834
▁पोत	-8835
▁ꯂꯩꯄꯥꯛꯀꯤ	-8836
ियूं	-8837
▁ꯅꯩꯅꯂꯣꯟꯒꯤ	-8838
▁सिङाव	-8839
▁हैदर	-8840
▁साय	-8841
▁38	-8842
ुत्तिदॆ	-8843
▁दृश्य	-8844
▁होला	-8845
▁महाप	-8846
▁ऊपर	-8847
▁१९९	-8848
▁हारि	-8849
فرن	-8850
▁ᱦᱤᱱ	-8851
بانی	-8852
▁سمجھ	-8853
▁आमार	-8854
▁इप्पो	-8855
▁ᱫᱟᱲᱮᱭᱟᱜ	-8856
▁निर्बाचन	-8857
ंघ	-8858
▁होइत	-8859
▁बघ	-8860
▁जीवित	-8861
अन	-8862
ुदे	-8863
▁त्रि	-8864
▁ڊر	-8865
▁ꯐꯥꯢ	-8866
▁उठा	-8867
▁اسیم	-8868
▁तपास	-8869
▁क्योंकि	-8870
▁बिजली	-8871
▁एसे	-8872
▁तहत	-8873
▁तस	-8874
▁महामारी	-8875
गॊंड	-8876
खालि	-8877
▁گڏیل	-8878
▁इला	-8879
▁شایع	-8880
ved	-8881
▁जेना	-8882
षेध	-8883
▁योजन	-8884
ꯂꯕ	-8885
▁ओइर	-8886
▁سوال	-8887
▁उन्नायि	-8888
▁एऱ्ऱ	-8889
▁विश्वविद्यालय	-8890
▁डि॒	-8891
▁सूच	-8892
ited	-8893
ob	-8894
द्दल	-8895
▁तन्नॆ	-8896
▁being	-8897
वर्क	-8898
ᱰᱤᱭᱟ	-8899
▁پہچ	-8900
▁परिसर	-8901
▁उसे	-8902
ऱ्यां	-8903
▁बनावत	-8904
ائیء	-8905
▁ویج	-8906
िंचिंदि	-8907
दां	-8908
▁वच्चे	-8909
बेदन	-8910
▁चलो	-8911
سوس	-8912
▁संपूर्ण	-8913
ळय़	-8914
▁भवन	-8915
▁गोसो	-8916
▁وٲ	-8917
▁२९	-8918
ہون	-8919
▁خیر	-8920
▁cor	-8921
▁डेटा	-8922
▁رض	-8923
▁कलाकार	-8924
▁नारी	-8925
▁हेन्ना	-8926
▁کمپ	-8927
▁ڪیون	-8928
▁احت	-8929
▁पाख	-8930
▁ᱡᱤᱞ	-8931
▁तेर	-8932
ासित	-8933
बासी	-8934
▁ꯋꯤ	-8935
▁امیر	-8936
▁नव्ह	-8937
lang	-8938
▁गोख्रों	-8939
▁سماجی	-8940
▁परीक्षण	-8941
▁پاسی	-8942
▁پہلے	-8943
ᱜᱟᱲ	-8944
ोजक	-8945
▁पॊरु	-8946
▁४०	-8947
▁बनाय	-8948
▁ब्यां	-8949
▁सामान	-8950
▁पिछत	-8951
▁चाक	-8952
سلام	-8953
▁फाइ	-8954
▁جلد	-8955
▁तुलना	-8956
▁माण्हू	-8957
▁मुख्यम	-8958
▁कोइ	-8959
▁مرزا	-8960
गोल	-8961
▁ᱟᱞ	-8962
▁पारटी	-8963
▁अमित	-8964
▁अम्म	-8965
▁उपस्थ	-8966
▁यौ	-8967
ps	-8968
▁अक्टो	-8969
مود	-8970
▁शरू	-8971
▁Ne	-8972
ंडी	-8973
▁لائ	-8974
▁ꯚ	-8975
▁شین	-8976
▁ᱫᱚᱦᱚ	-8977
▁ائین	-8978
▁ani	-8979
▁Pol	-8980
▁वाद	-8981
▁ꯀꯣ	-8982
▁ग्रामीण	-8983
▁गेलइ	-8984
ꯗꯥꯇꯥ	-8985
▁post	-8986
▁مطال	-8987
▁समावेश	-8988
▁अतिरिक्त	-8989
▁لیگ	-8990
▁ꯃꯥꯂꯦꯝꯗ	-8991
ڻا	-8992
ᱟᱸᱦ	-8993
ङ्ङिय	-8994
ning	-8995
▁चालू	-8996
▁tar	-8997
▁सैनिक	-8998
▁चेक	-8999
▁गुप	-9000
▁ऎति	-9001
لات	-9002
10	-9003
▁फैसला	-9004
▁case	-9005
▁ꯑꯦꯅꯤꯃꯦ	-9006
▁ꯐꯥꯎ	-9007
▁बित	-9008
ातॆ	-9009
▁गू	-9010
ुलनु	-9011
▁मालिक	-9012
▁فری	-9013
▁प्राय	-9014
▁Sh	-9015
▁گہرجی	-9016
▁वेग	-9017
روٗ	-9018
▁तर्हां	-9019
जीव	-9020
्याम	-9021
▁तॆरिव	-9022
ased	-9023
ुआ	-9024
ines	-9025
▁पदार्थ	-9026
उउ	-9027
▁रात्र	-9028
▁وفا	-9029
बद्ध	-9030
▁डीं॒	-9031
▁منصو	-9032
▁होइआ	-9033
▁طبی	-9034
▁ᱵᱚᱨ	-9035
ंहिं	-9036
▁भोट	-9037
▁राष्ट्रिय	-9038
▁शेर	-9039
▁निरी	-9040
▁भुबनेश्	-9041
اجی	-9042
न्ऱ	-9043
▁तस्य	-9044
▁अभिनेत्री	-9045
▁प्रणाली	-9046
▁२०२१	-9047
▁डे॒	-9048
ॉग	-9049
▁तव	-9050
बळ	-9051
▁भुगतान	-9052
ैयाक	-9053
ᱥᱤᱭᱟ	-9054
▁گن	-9055
ject	-9056
ابی	-9057
▁MLA	-9058
▁گول	-9059
▁زمانی	-9060
▁माऱ्ऱ	-9061
▁از	-9062
▁नरेन्द्र	-9063
ᱵᱷᱟ	-9064
▁into	-9065
▁ضروری	-9066
िना	-9067
les	-9068
▁कीएं	-9069
▁लेखा	-9070
▁हमनी	-9071
▁तेनी	-9072
▁आद्य	-9073
▁ꯑꯦꯅꯤꯃꯦꯂꯤꯌꯥ	-9074
▁निर्वा	-9075
▁Ki	-9076
भन्दा	-9077
ङ्किलुं	-9078
▁hriat	-9079
▁अचानक	-9080
یلن	-9081
▁ꯀꯤꯡꯗꯝ	-9082
▁प्रतियोग	-9083
▁bet	-9084
▁आच	-9085
▁اھی	-9086
▁briew	-9087
ट्रोल	-9088
▁जादोंमोन	-9089
▁जवान	-9090
▁نقص	-9091
▁ꯐꯥꯢꯂꯝ	-9092
▁३१	-9093
long	-9094
ट्टुण्ट्	-9095
▁ब्यक्ति	-9096
ᱚᱛᱤ	-9097
▁तॊऴ	-9098
▁मळी	-9099
▁हिअइ	-9100
फ़ी	-9101
▁गडु	-9102
ङ्गल	-9103
▁اخت	-9104
▁जुलाइ	-9105
گہ	-9106
▁फार्	-9107
▁tum	-9108
द्देश	-9109
▁सोमवार	-9110
▁ꯀꯣꯔꯗꯥꯇꯥ	-9111
ᱩᱥ	-9112
▁आंद	-9113
▁उड	-9114
▁फ़िल्	-9115
▁پڇ	-9116
▁भोग	-9117
्थै	-9118
▁विखे	-9119
▁बचा	-9120
▁गामि	-9121
फ्र	-9122
▁مجمو	-9123
ᱯᱟᱭ	-9124
▁देवी	-9125
माल	-9126
▁ꯀ꯭ꯂꯥꯁ	-9127
دس	-9128
▁ref	-9129
यिल	-9130
ꯥꯛꯇ	-9131
rans	-9132
▁कना	-9133
▁ऐक	-9134
▁ڪمی	-9135
▁स्थापन	-9136
▁समय़रे	-9137
▁तिरुव	-9138
▁الل	-9139
▁नेपालक	-9140
▁ᱵᱤᱫ	-9141
▁موڪل	-9142
मान्	-9143
ph	-9144
▁غل	-9145
▁اسیمبلی	-9146
▁मातृ	-9147
▁500	-9148
▁काह	-9149
▁ᱢᱤᱞ	-9150
ائز	-9151
▁रय़े	-9152
▁whe	-9153
▁मारा	-9154
ft	-9155
विल्लै	-9156
▁بیگ	-9157
▁ꯁꯣ	-9158
▁ᱡᱟᱹᱛᱤᱭᱟᱹᱨᱤ	-9159
▁छोटे	-9160
ᱠᱟᱨᱤ	-9161
▁ꯇꯥ	-9162
ानंतर	-9163
▁روایت	-9164
ریف	-9165
वीर	-9166
ꯂꯛ	-9167
▁पड़े	-9168
▁فتح	-9169
▁यश	-9170
▁तखन	-9171
▁कम्पनी	-9172
▁वारे	-9173
ुत्तारॆ	-9174
▁ऐखोय़ना	-9175
▁जस	-9176
ہیل	-9177
▁ꯕꯣ	-9178
▁ᱳᱰ	-9179
▁टू	-9180
▁बरु	-9181
ैंड	-9182
▁माझ्या	-9183
प्रति	-9184
▁لکیو	-9185
▁get	-9186
ision	-9187
▁ꯀꯥꯡꯂꯨꯞꯁꯤꯡꯒꯤ	-9188
▁धार्	-9189
▁आम्ही	-9190
ियाद	-9191
ٽڪ	-9192
सीन	-9193
anga	-9194
ियुं	-9195
वीं	-9196
▁افغان	-9197
▁लोड़	-9198
▁आवाज	-9199
پھ	-9200
ुनु	-9201
ener	-9202
able	-9203
प्पटुम्	-9204
▁रास	-9205
▁पहोंचा	-9206
▁मॊद	-9207
ङ्ङळुटॆ	-9208
▁बंध	-9209
▁لین	-9210
▁आगू	-9211
lem	-9212
▁ᱟᱠᱚ	-9213
िरुन्तु	-9214
▁کریں	-9215
▁हुन्	-9216
▁ꯅꯨꯡ	-9217
▁केश	-9218
▁सदा	-9219
▁भवा	-9220
्याल	-9221
▁बिजॆपि	-9222
▁नहय़	-9223
▁जिअत	-9224
▁पङ्क	-9225
▁हवा	-9226
▁پیغ	-9227
▁Thu	-9228
▁برطان	-9229
▁बारि	-9230
▁आवत	-9231
ight	-9232
िप्	-9233
▁ꯆꯥꯎꯔꯥꯛ	-9234
▁انص	-9235
▁पाण	-9236
▁नारायण	-9237
▁भेज	-9238
▁प्रभावित	-9239
▁ओनका	-9240
ynd	-9241
न्स्	-9242
▁अतु	-9243
▁नल्ल	-9244
पक	-9245
▁वं	-9246
▁ꯑꯦꯚꯤꯁ	-9247
▁जाओ	-9248
सकल	-9249
kam	-9250
▁2012	-9251
▁اجاز	-9252
▁•	-9253
▁الح	-9254
िक्का	-9255
▁नोगोर	-9256
ron	-9257
ौबा	-9258
▁ꯁꯥꯒ	-9259
णाऱ्या	-9260
nak	-9261
▁तसेच	-9262
▁سنڌو	-9263
دایت	-9264
▁बेरे	-9265
ᱨᱟᱢ	-9266
▁ᱛᱷ	-9267
▁ꯂꯥꯟ	-9268
▁क्लास	-9269
▁बाहेर	-9270
▁حل	-9271
▁पाय	-9272
تال	-9273
▁پارٽی	-9274
▁پہن	-9275
wa	-9276
pe	-9277
▁बिधाय़क	-9278
मय	-9279
ৰৱ	-9280
ुल्क	-9281
ैंट	-9282
▁वोट	-9283
▁مٿان	-9284
▁नेतृ	-9285
▁سائنس	-9286
पणे	-9287
▁एश	-9288
शिंना	-9289
▁गॾु	-9290
▁تج	-9291
ابت	-9292
शिंदा	-9293
▁खत	-9294
▁ऑफिस	-9295
▁لیک	-9296
▁ठा	-9297
▁پیداوار	-9298
गुल	-9299
▁ꯑꯆꯧꯕ	-9300
▁बिपिएफ	-9301
▁मिलियन	-9302
▁कंट	-9303
▁गुवाहाटी	-9304
खंड	-9305
▁इहा	-9306
▁گرفت	-9307
ris	-9308
▁नुंङाइ	-9309
▁गडु॒	-9310
ᱪᱟᱨ	-9311
ढा	-9312
قعی	-9313
ंदों	-9314
▁halor	-9315
वत्	-9316
▁تخ	-9317
▁سٲ	-9318
िक्	-9319
▁सर्वे	-9320
▁صحت	-9321
गां	-9322
▁قس	-9323
ٽرو	-9324
سک	-9325
▁हफ़्ते	-9326
जान	-9327
▁उद्देश्य	-9328
फु	-9329
▁आग्रह	-9330
▁ᱦᱚᱛᱮᱛᱮ	-9331
.7	-9332
▁बदले	-9333
▁مخال	-9334
▁ڀی	-9335
▁लव	-9336
म्बी	-9337
ally	-9338
▁ᱜᱚᱴᱟ	-9339
▁तदन्त	-9340
▁ᱱᱩ	-9341
▁सुना	-9342
▁آغ	-9343
ुतु	-9344
▁पर्य्य़	-9345
▁प्रधानमंत्री	-9346
▁लभ	-9347
▁ꯁꯔ	-9348
▁त्याच्या	-9349
▁गते	-9350
ुद्धे	-9351
▁लागल	-9352
▁سرڪاری	-9353
▁روپ	-9354
▁rawh	-9355
निस	-9356
टिभ	-9357
▁ᱡᱟᱭ	-9358
्बान	-9359
▁بیم	-9360
عن	-9361
ٹا	-9362
▁स्कू	-9363
olog	-9364
ानबा	-9365
▁चतु	-9366
▁ꯃꯆꯥ	-9367
▁لفٕ	-9368
▁अभ्य	-9369
▁خوب	-9370
ᱠᱟᱹ	-9371
▁لفٕظ	-9372
ᱛᱨᱤ	-9373
▁ᱡᱚᱢ	-9374
▁ke	-9375
▁मेळ	-9376
▁आमा	-9377
ᱦᱟᱨ	-9378
▁معیار	-9379
▁جاتا	-9380
▁دؤر	-9381
▁स्थापना	-9382
ᱴᱤᱧ	-9383
ामनि	-9384
▁त्यात	-9385
दीआं	-9386
▁ru	-9387
सिटी	-9388
▁राशि	-9389
▁ताकि	-9390
लकु	-9391
▁چا	-9392
▁جدید	-9393
▁ᱥᱟᱱᱟᱢ	-9394
▁ᱯᱟᱥ	-9395
▁ꯍꯥꯢꯅ	-9396
▁پال	-9397
िॎ	-9398
▁آئ	-9399
▁ᱠᱟᱨ	-9400
ास्क	-9401
राष्ट्र	-9402
▁जनम	-9403
▁سڄی	-9404
▁कोविड	-9405
▁हेर	-9406
▁बिश्बब	-9407
▁مرک	-9408
▁चेसिन	-9409
▁चांग	-9410
▁یورپ	-9411
▁فراہم	-9412
▁جبل	-9413
▁समीप	-9414
ऩार्	-9415
▁حڪم	-9416
▁ᱠᱚᱫᱚ	-9417
▁ھئ	-9418
▁सुंदर	-9419
قہ	-9420
▁ताज	-9421
▁परिस्थित	-9422
▁صلی	-9423
▁ᱡᱚᱠᱷᱟ	-9424
▁येते	-9425
▁ताह	-9426
बाई	-9427
▁اڏ	-9428
▁आवा	-9429
▁फारसे	-9430
द्दि	-9431
▁ٲس	-9432
▁भिन्न	-9433
प्रिय	-9434
▁उपाय	-9435
▁ऐसा	-9436
दैन	-9437
▁وائ	-9438
▁दाबी	-9439
▁ᱴᱷᱮᱱ	-9440
ान्न	-9441
खै	-9442
▁रिश	-9443
▁आनन्द	-9444
▁राजनीति	-9445
▁سربر	-9446
▁याइ	-9447
ालुम्	-9448
▁पक्षरु	-9449
▁ᱞᱟᱹ	-9450
▁अवि	-9451
▁پیٹھ	-9452
▁Raj	-9453
▁यहां	-9454
▁एजन	-9455
▁भुल	-9456
▁करियै	-9457
▁छूट	-9458
▁मेरा	-9459
ᱟᱹᱝ	-9460
ᱟᱞᱟ	-9461
▁संघट	-9462
▁हैदराबाद	-9463
ments	-9464
▁शीर्ष	-9465
▁پان	-9466
▁गाड़ी	-9467
▁तमिऴ्	-9468
▁उण्ट	-9469
ाहाम	-9470
▁धार्मिक	-9471
ांगोन	-9472
▁तिरु	-9473
ऩ्ऱऩ	-9474
ागे	-9475
▁मुँ	-9476
▁नल	-9477
▁جنم	-9478
▁ब्य़ब	-9479
reat	-9480
यल	-9481
▁लॻ	-9482
▁इस्तेम	-9483
▁here	-9484
▁समग्र	-9485
ᱦᱮᱫ	-9486
▁ᱵᱤᱥ	-9487
▁अंतर्गत	-9488
▁रीत	-9489
ھیل	-9490
ꯌꯔ	-9491
▁मारि	-9492
tri	-9493
▁जाणकारी	-9494
▁मुस्ल	-9495
▁ꯆꯜꯂꯤ꯫	-9496
▁रखे	-9497
▁جہڙو	-9498
▁आरोपी	-9499
▁बोर	-9500
▁محفو	-9501
▁कुनै	-9502
वागिदॆ	-9503
▁दुब	-9504
▁समुद्र	-9505
▁ꯁ꯭ꯇꯦꯠ	-9506
▁प्रतिनिध	-9507
्याच्या	-9508
स्पति	-9509
▁जाएगा	-9510
اضی	-9511
▁Pri	-9512
ैनो	-9513
▁شمار	-9514
▁جنوری	-9515
▁निर्धार	-9516
बेळे	-9517
▁میان	-9518
षिक	-9519
▁our	-9520
▁नाथ	-9521
▁President	-9522
▁प्रकट	-9523
▁ماح	-9524
▁चक्र	-9525
▁during	-9526
▁اعلان	-9527
▁लगत	-9528
टिर	-9529
▁ماہ	-9530
▁संशोधन	-9531
नीय़	-9532
▁कौण	-9533
ood	-9534
▁गरीब	-9535
▁अधीन	-9536
▁اہل	-9537
टिल	-9538
जिब	-9539
▁ᱯᱨᱚᱫᱮᱥ	-9540
▁प्राकृतिक	-9541
▁چیف	-9542
▁अबहिं	-9543
▁ꯅꯨꯃꯤ	-9544
iew	-9545
▁ꯔꯥ	-9546
▁پکی	-9547
▁rawn	-9548
▁इरुन्तु	-9549
▁जास्त	-9550
▁आफादनि	-9551
▁ᱥᱟᱥᱚᱱ	-9552
ोद	-9553
گیر	-9554
▁खुब	-9555
▁ꯃꯇꯝꯗ	-9556
دیث	-9557
▁आण्ट	-9558
▁भाइयो	-9559
▁شٲ	-9560
▁बुंथ	-9561
▁ऐस	-9562
ामान	-9563
वरि	-9564
▁काँग	-9565
▁गाइ	-9566
▁कबहूँ	-9567
ूण	-9568
वर्कळ्	-9569
▁2008	-9570
▁बजट	-9571
यिलॆ	-9572
▁भट	-9573
िनल्लि	-9574
▁نقصان	-9575
ꯂꯛꯇ	-9576
ꯔꯦꯡ	-9577
▁कड	-9578
▁ठोकर	-9579
▁मुऴ	-9580
▁اجازت	-9581
▁ول	-9582
ोकि	-9583
▁Ra	-9584
▁कुं	-9585
▁ᱠᱮᱫᱟ	-9586
▁جاناوار	-9587
▁ᱵᱟᱭ	-9588
▁प्ले	-9589
▁इंट	-9590
हाक	-9591
▁دے	-9592
लेन	-9593
हानू	-9594
ms	-9595
▁फक्त	-9596
▁महिळा	-9597
▁बॆंगळ	-9598
▁तूँ	-9599
▁पेश	-9600
ुवॆ	-9601
ꯂꯤꯁ	-9602
▁शुक्रवार	-9603
صوص	-9604
▁बलि	-9605
▁alleg	-9606
▁मनुष्य	-9607
ڊو	-9608
▁अप्प	-9609
▁فقیر	-9610
▁चाला	-9611
दुक	-9612
ᱤᱸ	-9613
▁सुन्दर	-9614
टम्	-9615
ꯇꯦ	-9616
▁آمت	-9617
▁निन्न्	-9618
لیت	-9619
کان	-9620
िल्लो	-9621
ाबी	-9622
▁پل	-9623
ईए	-9624
▁मतदान	-9625
ring	-9626
न्सी	-9627
▁محمود	-9628
॒ल्	-9629
▁तुहानू	-9630
▁تون	-9631
ery	-9632
▁than	-9633
▁आकाश	-9634
꯭ꯔꯤꯕ	-9635
▁बहिनियो	-9636
ریہ	-9637
ᱢᱟᱱ	-9638
▁Khu	-9639
▁ईसू	-9640
▁मोजां	-9641
▁गाज	-9642
▁गान	-9643
▁शता	-9644
क्लि	-9645
▁वारी	-9646
▁baroh	-9647
ट्टै	-9648
▁سگھ	-9649
▁चलचित्र	-9650
▁जें	-9651
▁टङ्का	-9652
▁हिंदी	-9653
ᱚᱵᱷᱟ	-9654
▁नाक	-9655
▁test	-9656
▁बला	-9657
▁तेरी	-9658
▁ꯃꯌꯦꯛ	-9659
▁ᱩᱰ	-9660
▁१००	-9661
ting	-9662
ᱚᱨᱟ	-9663
▁यथा	-9664
▁while	-9665
▁मातना	-9666
ादोंमोन	-9667
त्तिलॆ	-9668
▁मिळि	-9669
▁ترتی	-9670
▁तिआ	-9671
▁बाध्य	-9672
बीर	-9673
▁اط	-9674
▁दावा	-9675
▁चन्त	-9676
▁हालत	-9677
▁روش	-9678
▁डै	-9679
ign	-9680
हिन	-9681
▁माई	-9682
▁खेतर	-9683
▁होथे	-9684
▁सच्च	-9685
ज्ञानिक	-9686
order	-9687
ाइम	-9688
▁ꯂꯣꯟꯒꯤ	-9689
▁मावट्ट	-9690
▁प्रतिष्ठ	-9691
▁اظ	-9692
ٽنگ	-9693
▁resp	-9694
اتو	-9695
ꯟꯒꯤ	-9696
नल	-9697
▁الاقو	-9698
مڻ	-9699
▁रेलवे	-9700
ागल	-9701
▁मॊत्त	-9702
▁لاڙڪ	-9703
यॆ	-9704
▁کٔرتھ	-9705
uthor	-9706
ोर्	-9707
जित	-9708
▁चलि	-9709
ागुत्तदॆ	-9710
▁ثق	-9711
रुक	-9712
▁सुप्र	-9713
▁भावना	-9714
▁सभे	-9715
▁आपको	-9716
▁बोलावा	-9717
▁deuh	-9718
▁अस्ति	-9719
▁तमामु	-9720
ᱮᱱᱟ	-9721
लन	-9722
▁ꯁꯤꯟꯂꯣꯢ	-9723
uck	-9724
॒र	-9725
ᱢᱚ	-9726
िनु	-9727
गागि	-9728
▁लक्षण	-9729
▁शू	-9730
▁ꯑꯗꯨꯅꯥ	-9731
یتا	-9732
▁teh	-9733
▁पैह	-9734
▁نشان	-9735
ष्णु	-9736
▁मरो	-9737
▁Sec	-9738
▁ٺاہی	-9739
ैकळै	-9740
▁کڻی	-9741
▁Na	-9742
ospital	-9743
▁समज	-9744
▁अमरी	-9745
ᱵᱟᱫᱽ	-9746
▁جاء	-9747
ायर	-9748
مپ	-9749
▁जर्मनी	-9750
▁راز	-9751
انگ	-9752
▁वाचने	-9753
act	-9754
▁ڪال	-9755
▁हुक	-9756
▁प्रसाद	-9757
▁अनुय	-9758
ꯕꯗꯤ	-9759
▁ᱜᱚᱲ	-9760
وا	-9761
▁आन्दोलन	-9762
▁हिमन्त	-9763
▁पुलिश	-9764
نڍ	-9765
▁आजे	-9766
▁अधिन	-9767
िबो	-9768
▁श्रेष्ठ	-9769
ꯩ꯫	-9770
▁यादव	-9771
ied	-9772
▁रहले	-9773
▁बनाने	-9774
▁متا	-9775
▁تیز	-9776
▁نص	-9777
▁टाक	-9778
ᱵᱚ	-9779
▁खालामनो	-9780
▁अपि	-9781
▁डिजाइन	-9782
▁पीड़	-9783
▁hmang	-9784
▁चनत	-9785
ेंड	-9786
▁त्यो	-9787
क्ट्र	-9788
किय	-9789
तेइ	-9790
यः	-9791
ट्टुक	-9792
▁जेको	-9793
▁छेल	-9794
▁Chief	-9795
▁नहा	-9796
▁गोष्ट	-9797
▁गर्नु	-9798
▁ꯀꯨꯝꯍꯩ	-9799
▁दॊ	-9800
ाबर	-9801
▁मृ	-9802
ेंदुकु	-9803
▁नुमिॎ	-9804
▁سڃ	-9805
ावो	-9806
न्त्रण	-9807
▁आमादेर	-9808
▁ꯃꯔꯝ	-9809
دت	-9810
▁نبی	-9811
ڪٽر	-9812
▁اجلاس	-9813
▁सरकारले	-9814
ाराय	-9815
▁पुम्	-9816
तीत	-9817
▁مجھ	-9818
▁इब्र	-9819
॒ण	-9820
ick	-9821
▁हवाई	-9822
▁ᱛᱟᱦᱮᱱ	-9823
▁संत	-9824
مؠ	-9825
ूड	-9826
▁ایف	-9827
▁नयाँ	-9828
▁वैर	-9829
ज़ार	-9830
ases	-9831
न्ऱ्	-9832
▁२०२०	-9833
नेल	-9834
▁नय़	-9835
ائیندا	-9836
▁mar	-9837
▁थास	-9838
▁जनसं	-9839
▁ڏاڍ	-9840
▁والی	-9841
▁एटि	-9842
▁क्षति	-9843
ाजों	-9844
▁प्रार्थ	-9845
▁act	-9846
▁कोभिड	-9847
▁आमरा	-9848
▁ᱵᱚ	-9849
अल	-9850
▁वऴङ्क	-9851
क्खी	-9852
▁निम्न	-9853
▁امت	-9854
▁रुग्ण	-9855
▁ہیون	-9856
▁39	-9857
▁वाइ	-9858
कुम	-9859
▁तॆरिवित्त	-9860
▁متعلق	-9861
रोबर	-9862
▁years	-9863
▁لیا	-9864
▁विअ	-9865
سمبر	-9866
▁संकट	-9867
▁Ng	-9868
्बे	-9869
▁ᱛᱟᱦᱮᱸᱱ	-9870
▁अदे	-9871
▁इस्ल	-9872
▁ओहि	-9873
बसु	-9874
▁hman	-9875
▁75	-9876
▁हाउ	-9877
▁परिवर्तन	-9878
▁mat	-9879
▁meet	-9880
विक	-9881
ᱩᱡ	-9882
▁चही	-9883
▁محبت	-9884
▁꯱꯵	-9885
▁चुप	-9886
हासिक	-9887
ꯒꯨꯝ	-9888
ीय़े	-9889
▁اقت	-9890
ᱟᱞᱤ	-9891
ोने	-9892
▁खाब्या	-9893
ावै	-9894
▁بنا	-9895
▁जहाँ	-9896
▁ᱫᱤ	-9897
irus	-9898
प्पटुत्त	-9899
ٛگ	-9900
▁लख	-9901
▁बहि	-9902
ڪوٽ	-9903
▁आउर	-9904
▁दिखावइ	-9905
बेल	-9906
ङ्ङळुं	-9907
ہوٗر	-9908
▁روح	-9909
▁होही	-9910
ꯣꯝ	-9911
▁اچڻ	-9912
▁آڻ	-9913
▁तेजी	-9914
्रोमबो	-9915
▁मुतल्	-9916
▁गिरब्या	-9917
▁रक्ष	-9918
▁परा	-9919
very	-9920
DC	-9921
▁سچ	-9922
▁گہڻی	-9923
▁निष्क	-9924
जम	-9925
त्रे	-9926
▁कधी	-9927
▁लाइट	-9928
روف	-9929
▁कर्यो	-9930
▁cons	-9931
डानिकि	-9932
दमक	-9933
چہ	-9934
ᱠᱷᱚᱸᱰ	-9935
▁ᱵᱟᱵᱟ	-9936
▁आपी	-9937
▁इस्तेमाल	-9938
kai	-9939
जोर	-9940
▁विवरण	-9941
▁ᱨᱮᱫᱚ	-9942
▁बेखौ	-9943
▁अमर	-9944
गॊळ	-9945
▁آزادی	-9946
▁काउ	-9947
▁سوچ	-9948
घटना	-9949
▁court	-9950
सेस	-9951
▁चिह्न	-9952
▁رکڻ	-9953
▁सूबे	-9954
aya	-9955
ᱪᱷᱤᱢ	-9956
▁آئین	-9957
ात्री	-9958
▁ᱟᱥᱲᱟ	-9959
▁शेख	-9960
▁Mah	-9961
ᱦᱚᱵ	-9962
▁ꯂꯥꯡꯕ	-9963
▁अली	-9964
▁dan	-9965
वान्	-9966
▁विद्यालय	-9967
ीप	-9968
▁मंझि	-9969
دٕ	-9970
▁ڪیس	-9971
ंडि	-9972
▁एमन	-9973
ताण्	-9974
ज़ा	-9975
chool	-9976
▁इच्छा	-9977
वाक	-9978
▁इंद	-9979
िऱार्	-9980
▁दरव	-9981
اوت	-9982
▁बेहतर	-9983
▁प्रतिस	-9984
शाली	-9985
▁بورڊ	-9986
روں	-9987
ورا	-9988
▁ᱮᱫ	-9989
क्टर्	-9990
▁अनुकूल	-9991
▁जोन	-9992
देस़	-9993
ᱳᱞ	-9994
▁stat	-9995
▁उनकी	-9996
▁ماحول	-9997
▁केट	-9998
▁होतो	-9999
्प्प	-10000
▁आक्रमण	-10001
▁प्रसार	-10002
▁im	-10003
▁ꯅꯨꯄꯥ	-10004
▁should	-10005
▁अच्छी	-10006
▁khan	-10007
दबा	-10008
▁पिरेम	-10009
▁snem	-10010
्यूम	-10011
▁ᱪᱷ	-10012
▁अवस्थ	-10013
्मण	-10014
▁मुकाब	-10015
▁ꯁꯥꯒꯩ	-10016
▁علائقن	-10017
▁आखिर	-10018
्कुल	-10019
▁दुःख	-10020
nah	-10021
ादुर	-10022
▁ngi	-10023
▁سول	-10024
▁सिस्टम	-10025
▁पुक	-10026
▁नभ	-10027
मिति	-10028
ꯗꯕ	-10029
▁بزر	-10030
▁फोरम	-10031
▁पर्यटन	-10032
▁ᱦᱮᱡ	-10033
▁ڪورٽ	-10034
▁some	-10035
▁ڊگ	-10036
िदों	-10037
▁सपना	-10038
حی	-10039
▁ᱰᱟᱦᱟᱨ	-10040
▁अभिनेता	-10041
▁اڳواڻ	-10042
bar	-10043
▁रान	-10044
स्मि	-10045
▁घाल	-10046
▁قابل	-10047
▁इण्ड	-10048
▁मऱ	-10049
ꯖꯥ	-10050
ापुर	-10051
▁प्रोजे	-10052
▁मिथि	-10053
▁सलाह	-10054
▁تڪ	-10055
▁दैनिक	-10056
▁महाक्की	-10057
▁ac	-10058
▁ब्	-10059
▁धु	-10060
▁समर	-10061
▁पन	-10062
یٚ	-10063
▁आति	-10064
▁فوجی	-10065
▁हिन्दी	-10066
ꯈꯥꯢ	-10067
▁added	-10068
ंय	-10069
▁منہنجی	-10070
▁آہیون	-10071
▁नज	-10072
▁تجر	-10073
▁ٻاہر	-10074
▁چڪو	-10075
▁\	-10076
▁कल्याण	-10077
▁खौरांगिरि	-10078
त्तक	-10079
▁سڏیو	-10080
▁करिछि	-10081
▁چیئرمین	-10082
hed	-10083
▁कहेस	-10084
ᱛᱟᱣ	-10085
▁اڳتی	-10086
ticle	-10087
▁op	-10088
▁दह	-10089
▁इदि	-10090
▁ईंदड़	-10091
ھین	-10092
▁ثابت	-10093
▁ट्रेन	-10094
सिंह	-10095
kar	-10096
▁No	-10097
▁प्रि	-10098
▁ᱢᱮᱱᱠᱷᱟᱱ	-10099
कप	-10100
▁موجودہ	-10101
▁वेबसाइट	-10102
चीन	-10103
▁तेओँलोक	-10104
▁जेन	-10105
▁कंग्	-10106
▁ऐना	-10107
▁मजबूत	-10108
ise	-10109
▁prot	-10110
ट्टिय	-10111
निर्	-10112
▁तत्र	-10113
ार्ग	-10114
▁पहिंजे	-10115
केत	-10116
▁द्य	-10117
▁मुझे	-10118
▁हुं	-10119
▁bec	-10120
▁ꯊꯣꯛꯂꯛꯇ	-10121
▁ᱮᱠ	-10122
▁uba	-10123
▁اولھ	-10124
چیء	-10125
मुनि	-10126
▁ब्लॉग	-10127
सेना	-10128
velop	-10129
▁केंदर	-10130
▁आतंक	-10131
▁zawk	-10132
टिए	-10133
▁تاج	-10134
▁प्रॉ	-10135
ामध्ये	-10136
▁तारिख	-10137
▁मैदान	-10138
لاء	-10139
▁रिली	-10140
▁उद्धार	-10141
▁स्थल	-10142
لیف	-10143
ौल	-10144
▁prov	-10145
.8	-10146
▁तिरि	-10147
▁ᱢᱤᱫᱴᱟᱹᱝ	-10148
▁उनकर	-10149
▁ᱳᱰᱤᱥᱟ	-10150
▁क्षेत्	-10151
▁Cha	-10152
▁آج	-10153
▁सकि	-10154
▁ᱡᱚᱲ	-10155
▁ईग	-10156
▁बु॒धाए	-10157
▁राउ	-10158
فاظ	-10159
▁ꯊꯣꯛꯂꯛꯇ꯭ꯔꯤꯕ	-10160
▁बिग	-10161
ꯁꯤꯟ	-10162
▁उतर	-10163
▁42	-10164
▁कौणसि	-10165
▁माजत	-10166
▁ꯁꯦꯝꯒꯠ	-10167
▁उसके	-10168
्का	-10169
▁पुछ	-10170
▁ꯆꯤꯡ	-10171
धील	-10172
्ना	-10173
▁निगम	-10174
▁सुबह	-10175
▁ایت	-10176
▁परिषद	-10177
rist	-10178
▁ꯈꯪ	-10179
▁रूपमा	-10180
▁رق	-10181
▁सकूल	-10182
▁सकऽ	-10183
पंच	-10184
▁three	-10185
▁ᱢᱟᱹᱱ	-10186
▁زور	-10187
▁پیا	-10188
िक्कुन्न	-10189
▁इज	-10190
▁बिबान	-10191
▁खरा	-10192
▁बेसी	-10193
▁fe	-10194
▁آڪ	-10195
▁अतो	-10196
▁pla	-10197
कता	-10198
▁May	-10199
▁lawm	-10200
▁ꯃꯈꯣꯌ	-10201
▁dem	-10202
▁पैसे	-10203
▁والد	-10204
गीत	-10205
▁पद्	-10206
▁han	-10207
خواست	-10208
▁जापान	-10209
▁कानू	-10210
▁ᱟᱲ	-10211
ڊن	-10212
▁ᱦᱤᱡ	-10213
घु	-10214
▁ᱫᱟᱨ	-10215
खेआ	-10216
दूर	-10217
▁उतना	-10218
▁चीनी	-10219
ाय़े	-10220
थायनि	-10221
▁अमुक	-10222
ावां	-10223
▁सोरखारा	-10224
▁Cent	-10225
ल्ड	-10226
▁जीबन	-10227
▁वितरण	-10228
▁इन्द	-10229
▁روشنی	-10230
گیء	-10231
गढ़	-10232
▁نیا	-10233
con	-10234
▁جوڙ	-10235
▁निऱुव	-10236
▁نومبر	-10237
▁ٿیندڙ	-10238
▁गोड़	-10239
▁यही	-10240
न्ता	-10241
▁लीग	-10242
ᱱᱟᱨ	-10243
ण्यासाठी	-10244
फत	-10245
▁لوگوں	-10246
▁Man	-10247
▁पटेल	-10248
ative	-10249
▁᱑᱒	-10250
سے	-10251
ٽین	-10252
▁विभ	-10253
▁ᱱᱟᱯᱟᱭ	-10254
▁कैं	-10255
▁उनको	-10256
▁फाओ	-10257
▁مشر	-10258
▁खण्ड	-10259
ियल्	-10260
umb	-10261
▁मुम्ब	-10262
دگی	-10263
ुत्तिरुव	-10264
▁बिब	-10265
ाकीय़े	-10266
▁जाबाय	-10267
ुकळै	-10268
▁साक्ष	-10269
▁झन	-10270
▁پروگرام	-10271
▁ब्रिटि	-10272
छिलेन	-10273
▁विधानसभा	-10274
▁باز	-10275
▁वॆळ्ळ	-10276
▁نماز	-10277
▁धीरे	-10278
▁बनाए	-10279
कार्य	-10280
▁تاریخی	-10281
▁مڃ	-10282
▁भारतीय़	-10283
ered	-10284
उनि	-10285
▁करुन	-10286
▁काँग्रेस	-10287
▁ज़िल्	-10288
▁Karn	-10289
▁अफिस	-10290
▁बौद्ध	-10291
▁तेरे	-10292
▁تل	-10293
▁देवे	-10294
▁مشین	-10295
▁१९८	-10296
▁ᱦᱚᱯᱚᱱ	-10297
▁Al	-10298
▁नेहा	-10299
ाहरु	-10300
▁पार्क	-10301
▁ऱि	-10302
▁ꯏꯕ	-10303
ांतर	-10304
▁افر	-10305
▁कानी	-10306
्तु	-10307
▁स्रोत	-10308
▁وک	-10309
ile	-10310
▁कॅ	-10311
दोक	-10312
▁कृषक	-10313
ublic	-10314
ᱛᱟᱜ	-10315
्यांत	-10316
▁ٻنہی	-10317
▁person	-10318
▁باغ	-10319
▁Ex	-10320
▁باپ	-10321
▁उद्घाट	-10322
▁مذہب	-10323
▁गठ	-10324
▁बिल्कुल	-10325
▁प्रतिक्र	-10326
ataka	-10327
्यान्ड	-10328
▁Rupang	-10329
▁ᱧᱩᱛᱩᱢᱟᱱ	-10330
▁सुबि	-10331
▁2010	-10332
وٗ	-10333
▁गल्ल	-10334
▁اٺ	-10335
▁तपाईं	-10336
▁जुड़	-10337
▁مم	-10338
▁गिरफ्त	-10339
▁کیل	-10340
als	-10341
▁ᱪᱮ	-10342
नू	-10343
धिकारी	-10344
▁sam	-10345
▁तुम्ही	-10346
▁फरवरी	-10347
▁मंजू	-10348
▁حدیث	-10349
▁मंत्रालय	-10350
ills	-10351
▁shah	-10352
▁अक्ष	-10353
राई	-10354
▁पहिलो	-10355
▁मुग	-10356
▁होव	-10357
▁नीर	-10358
▁थाब	-10359
▁ओमन	-10360
्रमण	-10361
▁درخواست	-10362
▁مرح	-10363
▁Pakistan	-10364
▁pa	-10365
ریس	-10366
▁شاخ	-10367
▁हच्छे	-10368
▁ऐतिहासिक	-10369
▁चिन्ता	-10370
ञ्चि	-10371
▁ᱯᱟᱪᱮ	-10372
निट	-10373
▁ठर	-10374
▁55	-10375
▁لڳی	-10376
▁Ap	-10377
▁ent	-10378
▁निकल	-10379
हाय	-10380
▁कठिन	-10381
▁चीज़	-10382
▁नमू	-10383
ळर्	-10384
▁होगी	-10385
▁आउट	-10386
खॎ	-10387
रिंग	-10388
▁चिकित्	-10389
▁भवति	-10390
ट्टिल्	-10391
▁व्	-10392
रन	-10393
▁पूज	-10394
▁sk	-10395
▁महो	-10396
▁ओं	-10397
ोगा	-10398
▁तुहा	-10399
▁सिनेमा	-10400
▁रच	-10401
▁᱑᱙᱘	-10402
▁कूटुत	-10403
ण्डा	-10404
acc	-10405
قات	-10406
म्ल	-10407
▁سڪ	-10408
▁᱑᱕	-10409
ᱫᱩ	-10410
ꯋꯨꯗ	-10411
ळॆय	-10412
▁पुन्हा	-10413
▁پلی	-10414
▁ᱟᱱᱟᱜ	-10415
िजे	-10416
▁मनुंदा	-10417
▁पहुँच	-10418
▁वहीं	-10419
थोन	-10420
▁start	-10421
▁बिश्	-10422
▁लाक	-10423
▁ᱦᱩᱭᱩᱜᱼᱟ	-10424
गुम्बा	-10425
▁बढी	-10426
18	-10427
پن	-10428
▁चिकिॎसा	-10429
▁kaw	-10430
▁fin	-10431
▁ᱥᱟᱱᱛᱟᱲ	-10432
ffic	-10433
▁उल्ल	-10434
▁ترتیب	-10435
▁बाहिर	-10436
▁لے	-10437
ᱳᱱ	-10438
▁आश्र	-10439
▁गुं	-10440
fore	-10441
athuh	-10442
▁कमा	-10443
▁ꯍꯥꯏꯅ	-10444
ꯒꯠꯄ	-10445
▁साले	-10446
sa	-10447
▁نوجو	-10448
▁मृत्य़ु	-10449
▁फसल	-10450
▁मानुह	-10451
▁ताब	-10452
▁पऴ	-10453
▁बच्चे	-10454
रुम्	-10455
स्ऱ्ऱ	-10456
▁kn	-10457
▁किल	-10458
ara	-10459
▁तोङ	-10460
▁ᱦᱤᱡᱩᱜ	-10461
▁अदाक	-10462
िबारु	-10463
क्कार	-10464
▁आमॆ	-10465
▁ہدایت	-10466
▁हाजार	-10467
▁अही	-10468
ple	-10469
▁معام	-10470
▁आहार	-10471
▁nang	-10472
▁विकसित	-10473
▁ज्योति	-10474
▁घट्ट	-10475
▁ᱚᱠᱟ	-10476
▁विअकती	-10477
ॆल्ल	-10478
▁रय़ेछे	-10479
▁चोर	-10480
angbah	-10481
ollow	-10482
▁हाला	-10483
▁तेरा	-10484
ایل	-10485
▁सुपर	-10486
ہندی	-10487
▁बिटिआर	-10488
▁ہمیشہ	-10489
▁ᱩᱢ	-10490
ڑی	-10491
कान	-10492
▁कहानी	-10493
ib	-10494
▁haduh	-10495
▁२०१९	-10496
ोड	-10497
▁Karnataka	-10498
▁सेन	-10499
▁shuh	-10500
▁ꯄꯨꯝꯅ	-10501
▁सावराय	-10502
▁कूड	-10503
▁ᱵᱤᱡ	-10504
hip	-10505
कुमार	-10506
arli	-10507
सारि	-10508
▁बसुमत	-10509
▁विरोधी	-10510
▁नाऩ्	-10511
▁चढ़	-10512
▁सोशल	-10513
▁ꯏꯪꯂꯤꯁ	-10514
▁मन्त्रालय	-10515
▁फरायसालि	-10516
▁ᱥᱤᱧᱚᱛᱤᱭᱟᱹ	-10517
▁بول	-10518
▁لاڳاپ	-10519
रें	-10520
▁आयो	-10521
▁कुमा	-10522
▁बिस्त	-10523
▁इन्हां	-10524
▁हॊर	-10525
लनु	-10526
▁सानै	-10527
▁Bengaluru	-10528
▁माँ	-10529
बुल	-10530
فار	-10531
▁गोहो	-10532
मुळे	-10533
شو	-10534
ूपे	-10535
▁ः	-10536
▁सहभाग	-10537
▁including	-10538
▁ꯐꯪ	-10539
▁पर्यन्त	-10540
▁गईल	-10541
▁ᱵᱟᱥ	-10542
▁नित	-10543
▁खाव	-10544
▁حصہٕ	-10545
▁अधिकारि	-10546
▁इसी	-10547
▁आह्ले	-10548
▁shim	-10549
धू	-10550
ᱤ᱐	-10551
▁गाडी	-10552
▁kiwei	-10553
▁उपन्यास	-10554
▁ᱪᱤᱛ	-10555
ुवारी	-10556
▁डीं॒हु	-10557
▁खैर	-10558
▁day	-10559
▁chang	-10560
िलै	-10561
▁ڪوٽ	-10562
▁ख्ब	-10563
▁خری	-10564
हाई	-10565
▁अऩै	-10566
▁उन्हनि	-10567
▁ذات	-10568
▁bor	-10569
▁ꯃꯇꯥꯡ	-10570
▁पॊलीस्	-10571
▁ब्राह	-10572
ेंडर	-10573
▁दिहल	-10574
▁च्या	-10575
▁आयेन	-10576
गॎ	-10577
▁नोज	-10578
other	-10579
नाक	-10580
▁दोलोआ	-10581
पाट	-10582
▁बताई	-10583
ڙیون	-10584
▁सुबुंफोरा	-10585
vest	-10586
▁ابن	-10587
▁ꯃꯁꯤꯡꯅꯤ	-10588
▁ᱨᱮᱜᱮ	-10589
▁मीडिय	-10590
▁ڌاری	-10591
श्री	-10592
▁ऍ	-10593
▁گان	-10594
▁اٿس	-10595
▁पकुत	-10596
▁कउन	-10597
▁पाटी	-10598
▁خات	-10599
ꯜꯂꯤꯋꯨꯗ	-10600
▁जेबो	-10601
टेन	-10602
▁ٿر	-10603
शं	-10604
्याची	-10605
य्क्क्	-10606
▁ڪیئن	-10607
ائری	-10608
thu	-10609
▁نسل	-10610
▁खाता	-10611
ua	-10612
ording	-10613
▁Act	-10614
पान	-10615
▁ٽر	-10616
▁फर्	-10617
▁ᱨᱟᱡ	-10618
▁खुशी	-10619
ुम्पो	-10620
▁قبر	-10621
बोधन	-10622
▁बीजे	-10623
▁190	-10624
▁درو	-10625
▁उपकरण	-10626
स्र	-10627
ged	-10628
ठारे	-10629
▁अपेक्षा	-10630
▁२०७	-10631
▁असलेल्या	-10632
▁कलाक	-10633
row	-10634
विट	-10635
▁تس	-10636
्यानंतर	-10637
▁शास्त	-10638
▁धम	-10639
▁ꯁꯩ	-10640
,2	-10641
aking	-10642
गुलो	-10643
▁निजे	-10644
▁हफ	-10645
▁जत	-10646
▁चेष्टा	-10647
▁किलोमी	-10648
▁गोली	-10649
▁ꯕꯣꯜꯂꯤꯋꯨꯗ	-10650
▁daw	-10651
▁hna	-10652
▁stud	-10653
▁आरंभ	-10654
▁नये	-10655
▁ᱢᱩᱫᱽ	-10656
ण्याचा	-10657
▁कहाँ	-10658
بہٕ	-10659
िस्तुन्न	-10660
▁बुधबार	-10661
▁मंगळ	-10662
▁جڏھن	-10663
▁कोविड्	-10664
दौ	-10665
ादर	-10666
ाहरू	-10667
▁केत	-10668
▁Singh	-10669
▁बजा	-10670
रीत	-10671
▁ꯔꯤ	-10672
▁تام	-10673
▁जड़	-10674
▁बारी	-10675
पर्	-10676
्रै	-10677
बंधन	-10678
rin	-10679
▁शं	-10680
▁येन	-10681
▁چڱ	-10682
▁पॆऱ्ऱ	-10683
▁ᱩᱱᱠᱩ	-10684
▁सिंग	-10685
▁ऎऩ्पतु	-10686
لیء	-10687
▁موت	-10688
زید	-10689
▁कोह	-10690
▁सल्ल	-10691
▁इरुक्कुम्	-10692
▁करेछेन	-10693
यू	-10694
▁गेट	-10695
▁कदम	-10696
▁مرڪز	-10697
ٖزی	-10698
योग्य	-10699
▁کۄ	-10700
▁अटि	-10701
▁ایشیا	-10702
▁बिश्बबिद्यालय़	-10703
▁बग	-10704
▁विदेशी	-10705
ꯑꯣꯡ	-10706
दल्ल	-10707
▁होतं	-10708
▁مراد	-10709
घे	-10710
▁हवै	-10711
ꯔꯀ	-10712
ाहत	-10713
खाने	-10714
▁आमे	-10715
▁کھوتہٕ	-10716
▁कारवाई	-10717
▁ڪنھن	-10718
▁तंत्र	-10719
ected	-10720
▁कमेटी	-10721
▁ᱠᱚᱭ	-10722
वू	-10723
▁وج	-10724
▁ऒप्प	-10725
िय़ार	-10726
▁پلو	-10727
ꯌꯝ	-10728
पोर्ट	-10729
▁محفوظ	-10730
ward	-10731
▁जगत	-10732
ꯛꯀꯤ	-10733
▁अत्यंत	-10734
ॆयिंद	-10735
स्ते	-10736
▁गगै	-10737
ump	-10738
हनां	-10739
▁Ram	-10740
▁जायग	-10741
▁65	-10742
▁Jan	-10743
▁اعت	-10744
▁ᱢᱟᱹᱫᱽ	-10745
▁نگر	-10746
▁سگہو	-10747
▁तळ	-10748
ics	-10749
قان	-10750
va	-10751
धक	-10752
یور	-10753
न्नानै	-10754
▁स्थापित	-10755
▁Pro	-10756
▁बिषय़े	-10757
▁کال	-10758
▁ادی	-10759
▁पाच	-10760
▁नोक	-10761
▁एते	-10762
▁पद्धति	-10763
िटि	-10764
ासो	-10765
ाइँ	-10766
▁khi	-10767
ुकी	-10768
बाज	-10769
صیل	-10770
▁موقع	-10771
▁सिम	-10772
پا	-10773
▁खंड	-10774
▁ᱥᱟᱞᱟᱜ	-10775
▁क्रे	-10776
▁پریس	-10777
▁باری	-10778
▁अलावे	-10779
▁46	-10780
▁विया	-10781
▁ᱚᱨ	-10782
आन	-10783
▁इहइ	-10784
▁इत्	-10785
ٲری	-10786
▁ग्ल	-10787
▁नत्ते	-10788
पिपि	-10789
▁नियंत्रण	-10790
▁बान्	-10791
ालै	-10792
▁ꯃꯤꯡ	-10793
▁گرم	-10794
▁डॉक्टर	-10795
▁play	-10796
▁اخبار	-10797
▁دون	-10798
▁चेसुक	-10799
▁اڇ	-10800
िलु	-10801
ᱮᱢᱵᱚᱨ	-10802
▁तत्क	-10803
▁थै	-10804
▁उपयोगी	-10805
ᱸᱴ	-10806
▁ᱥᱤᱱ	-10807
▁अइसा	-10808
▁लिह	-10809
क्कम्	-10810
रुप	-10811
प्ति	-10812
प्ता	-10813
ys	-10814
▁ᱛᱟᱞᱢᱟ	-10815
▁बनि	-10816
▁सदी	-10817
ुतुंदि	-10818
گام	-10819
▁उपरांत	-10820
ाइक	-10821
रेशन	-10822
▁बृ	-10823
▁हुँ	-10824
▁घाट	-10825
▁shu	-10826
्तर	-10827
▁मनोर	-10828
▁तप्प	-10829
▁न्यायालय	-10830
▁विकल्प	-10831
▁हॊंद	-10832
▁खुर	-10833
ियाण्	-10834
थायाव	-10835
,6	-10836
be	-10837
ᱵᱟᱝ	-10838
▁ऐल	-10839
▁ᱫᱤᱱ	-10840
▁नखर	-10841
वाड	-10842
▁जिनगी	-10843
▁नेम	-10844
▁चाहीदा	-10845
▁فیصلو	-10846
▁प्रांत	-10847
मुम्	-10848
▁उत्पाद	-10849
ुकयाण्	-10850
ڏو	-10851
▁मधु	-10852
▁ᱫᱚᱥᱟᱨ	-10853
ۄم	-10854
▁ऑफ़	-10855
▁تنظیم	-10856
▁हिसे	-10857
▁ارب	-10858
ूस	-10859
ham	-10860
▁आये	-10861
ᱮᱜ	-10862
▁سامان	-10863
ked	-10864
نٛڈ	-10865
لیٖ	-10866
▁ꯃꯍꯥꯛꯅꯥ	-10867
▁ऐखोय़गी	-10868
▁قبول	-10869
फै	-10870
▁तेमना	-10871
्मा	-10872
▁दिश	-10873
हाते	-10874
▁भय़	-10875
▁पत्त	-10876
▁उपभ	-10877
▁हानाय	-10878
,5	-10879
▁نک	-10880
ctions	-10881
▁kawei	-10882
▁جمع	-10883
्रीय़	-10884
गळिंद	-10885
▁द्द	-10886
▁स्वतंत्र	-10887
بوط	-10888
▁ᱡᱟᱦᱟᱸᱭ	-10889
▁चिकित्सा	-10890
▁दर्शक	-10891
▁द्बितीय़	-10892
▁پیء	-10893
▁सालनि	-10894
▁سرگر	-10895
सूची	-10896
कारात्मक	-10897
शिक	-10898
ोनाय	-10899
प्पत	-10900
▁موضو	-10901
▁وڏا	-10902
ᱠᱮ	-10903
▁mih	-10904
▁300	-10905
▁प्रय़	-10906
ण्णि	-10907
▁مسلمانن	-10908
▁ᱵᱚᱸ	-10909
ینس	-10910
▁नोजोर	-10911
▁فض	-10912
▁क्षण	-10913
क्को	-10914
▁लोकसभा	-10915
▁शांति	-10916
जेन	-10917
▁मात्रं	-10918
ाफम	-10919
कें	-10920
ॊप्प	-10921
▁आव्या	-10922
▁far	-10923
▁ᱢᱟᱱᱟ	-10924
▁वाग	-10925
▁पोर	-10926
▁औरत	-10927
▁ھر	-10928
दाता	-10929
▁ضلعو	-10930
▁तंड	-10931
ळो	-10932
मिट	-10933
ner	-10934
▁हालाँकि	-10935
▁सिरिफ	-10936
▁स़र	-10937
▁नडॆय	-10938
▁अटुत्त	-10939
▁ज़र	-10940
▁तला	-10941
वला	-10942
▁back	-10943
िय़ान	-10944
ᱭᱟᱹ	-10945
ियोग	-10946
▁پٲک	-10947
किंग	-10948
▁भल	-10949
▁عظیم	-10950
▁साधा	-10951
▁हेउ	-10952
▁सम्पन्न	-10953
▁ᱩᱱᱤᱭᱟᱜ	-10954
▁तालुक	-10955
▁नटत्तिय	-10956
▁बिचार	-10957
▁राग	-10958
▁मेलुम्	-10959
▁सफलता	-10960
▁थोक	-10961
▁चाप	-10962
▁ᱫᱤᱞ	-10963
▁ایمان	-10964
ᱚᱪ	-10965
▁ग्रुप	-10966
▁سٕنٛز	-10967
ھور	-10968
▁ڪش	-10969
▁On	-10970
▁صل	-10971
▁चाउ	-10972
ंगाण	-10973
▁बीज	-10974
▁ᱜᱷᱟᱨᱚᱸᱡᱽ	-10975
▁मक्कळ	-10976
▁खालामनाय	-10977
▁रक्षा	-10978
▁if	-10979
तिरॆ	-10980
▁जटिल	-10981
▁ᱡᱟᱭᱜᱟ	-10982
▁थइ	-10983
ाऩ्	-10984
ाइदगी	-10985
▁अरचु	-10986
▁मीटिंग	-10987
▁सकैत	-10988
▁support	-10989
▁३५	-10990
▁आव्यो	-10991
lim	-10992
▁بغ	-10993
क्षीय़े	-10994
پلز	-10995
▁टाका	-10996
▁پٿ	-10997
▁प्रतिनिधि	-10998
▁انڊ	-10999
▁कटक	-11000
▁शुक्रिया	-11001
▁विशिष्ट	-11002
▁اپریل	-11003
▁अपील	-11004
नम	-11005
▁संस्कृत	-11006
▁crore	-11007
▁समन्	-11008
▁६०	-11009
नुसार	-11010
भळि	-11011
▁आंग	-11012
▁जेमां	-11013
▁میو	-11014
▁बिद्यालय़	-11015
▁करदी	-11016
▁फाहाम	-11017
▁समाय	-11018
सरु	-11019
▁ᱛᱟᱭᱟ	-11020
▁अप्रैल	-11021
वारु	-11022
▁देखील	-11023
न्त्	-11024
▁दरमियान	-11025
▁मूउउ	-11026
▁भले	-11027
▁सघीं	-11028
امو	-11029
▁سردار	-11030
▁ریت	-11031
▁ᱦᱤᱞ	-11032
▁दिशा	-11033
▁only	-11034
▁باو	-11035
▁होइथिला	-11036
ैयिऩ्	-11037
▁द्दौ	-11038
▁रमे	-11039
▁ᱩᱫ	-11040
ञ्ञॆ	-11041
मुळ्ळ	-11042
▁करेछे	-11043
▁पंजाब	-11044
▁सत्त	-11045
▁ꯐꯤ	-11046
▁उमेद	-11047
vent	-11048
▁मोदि	-11049
▁भरोसा	-11050
▁siam	-11051
▁सदर	-11052
لائی	-11053
▁तौबा	-11054
gn	-11055
حاظ	-11056
▁چھہٕ	-11057
▁रहीं	-11058
▁वास	-11059
▁दिला	-11060
ावेळी	-11061
▁ساز	-11062
▁ڀارت	-11063
▁बियाबनि	-11064
oth	-11065
▁मृतदेह	-11066
▁واض	-11067
▁آدم	-11068
▁लॉ	-11069
▁इय़	-11070
▁made	-11071
▁बिफाननि	-11072
▁شڪ	-11073
▁विशे	-11074
▁रब	-11075
▁वरत	-11076
▁ڏنل	-11077
▁ᱦᱟᱨ	-11078
▁سلطان	-11079
▁अल्लतु	-11080
▁ویون	-11081
▁चोरी	-11082
▁आंदोलन	-11083
ᱩᱵ	-11084
▁मन्तब्य	-11085
िक्कु	-11086
ओय़	-11087
ओँ	-11088
17	-11089
▁मक्कळ्	-11090
▁लॉक	-11091
▁गणे	-11092
▁जेकरा	-11093
▁नीडि	-11094
▁हमन	-11095
▁अतै	-11096
▁विळ	-11097
बिल	-11098
▁धान	-11099
▁sin	-11100
▁بناون	-11101
▁तेव्हा	-11102
तुं	-11103
्याद	-11104
ॊण्ट	-11105
▁बीजेपी	-11106
▁شڪل	-11107
ाव्	-11108
ڙین	-11109
कारि	-11110
मन्त्रि	-11111
▁کیلئے	-11112
▁such	-11113
ैये	-11114
▁कमल	-11115
▁ھوندو	-11116
▁اؠ	-11117
िस्म	-11118
▁نف	-11119
▁गोग	-11120
▁اڃا	-11121
ुवै	-11122
▁लिखे	-11123
mu	-11124
▁करिस	-11125
ङ्ङि	-11126
▁गाग	-11127
▁गरेर	-11128
▁तॊट	-11129
ꯔꯦꯝ	-11130
मानं	-11131
▁हिसेबे	-11132
▁पाए	-11133
▁देगा	-11134
ंडा	-11135
▁अची	-11136
ब्लाबो	-11137
▁ᱛᱟᱦᱮᱱᱟ	-11138
ुक्कुम्	-11139
▁उळ्ळतु	-11140
▁वर्षीय	-11141
▁ताङ्कु	-11142
▁कांगर	-11143
HA	-11144
▁निवास	-11145
ꯄꯥꯟ	-11146
▁लैर	-11147
▁وپھ	-11148
▁like	-11149
ोग्रा	-11150
िंत	-11151
ٽرن	-11152
▁امن	-11153
▁ᱦᱟᱹᱴᱤᱧ	-11154
▁आवश्यकता	-11155
▁कोर्	-11156
▁स्वा	-11157
बदि	-11158
▁नवीन	-11159
ریم	-11160
▁कयल	-11161
▁ᱠᱚᱞ	-11162
▁बट	-11163
حال	-11164
ाफ	-11165
▁दत्त	-11166
▁ھتی	-11167
▁Khasi	-11168
▁कॊळ्ळ	-11169
▁गय	-11170
▁वार्	-11171
,4	-11172
rent	-11173
▁भौतिक	-11174
esp	-11175
▁तर्व	-11176
▁Pre	-11177
▁پیپلز	-11178
▁انٛگری	-11179
▁अंग्रेजी	-11180
भूमि	-11181
▁करव	-11182
▁आसी	-11183
▁Dr	-11184
ालकु	-11185
▁सम्मेलन	-11186
تب	-11187
▁यहो	-11188
▁चॆल्ल	-11189
▁کرٛ	-11190
▁month	-11191
▁ڪلا	-11192
لیا	-11193
▁ꯔꯣ	-11194
▁ᱨᱤ	-11195
▁थाम	-11196
ꯔꯦ	-11197
▁ᱵᱚᱭ	-11198
▁जानु	-11199
िसिदॆ	-11200
णारे	-11201
▁कॆलस	-11202
▁असमीय़ा	-11203
▁متاثر	-11204
▁رکندڙ	-11205
یلو	-11206
▁सटी	-11207
ब्दी	-11208
▁ꯑꯗꯨꯕꯨ	-11209
ऩ्ऱऩर्	-11210
पनि	-11211
▁47	-11212
▁ओड़िशा	-11213
▁खार	-11214
▁साँ	-11215
▁रैखा	-11216
▁घेऊन	-11217
लित	-11218
▁सोना	-11219
कोर्ट	-11220
▁سنہ	-11221
ᱛᱟᱨ	-11222
▁नत्त	-11223
ंड्	-11224
मास	-11225
हाल	-11226
▁ᱵᱟᱯ	-11227
used	-11228
सीसी	-11229
▁इसलाम	-11230
▁समारो	-11231
▁गळ	-11232
▁سینی	-11233
▁इश	-11234
ڻن	-11235
▁वरिष्ठ	-11236
▁जदि	-11237
▁उहाँ	-11238
▁wom	-11239
ियाऩ	-11240
▁फूल	-11241
▁ᱥᱟᱦ	-11242
▁लग्न	-11243
▁नङा	-11244
▁ꯂꯨ	-11245
▁जनगण	-11246
खिब	-11247
▁ناول	-11248
बाल	-11249
▁नौकरी	-11250
▁तेमणे	-11251
▁जुड़े	-11252
त्सव	-11253
▁ꯑꯅ	-11254
▁नाना	-11255
▁यी	-11256
ꯦꯔꯤ	-11257
▁००	-11258
▁अ॒	-11259
▁dire	-11260
ᱟᱲᱟᱝ	-11261
▁ꯇꯨꯝ	-11262
▁عن	-11263
▁طریقی	-11264
▁पराम	-11265
▁स्क्री	-11266
▁انہیں	-11267
▁वलों	-11268
ंदिन	-11269
ee	-11270
ॊंदु	-11271
ꯂꯣ	-11272
▁बांध	-11273
ᱴᱷ	-11274
▁pak	-11275
ंजन	-11276
▁پروفی	-11277
▁बनल	-11278
یوض	-11279
▁तॆलंगाण	-11280
▁मुक्ति	-11281
▁thleng	-11282
▁السلام	-11283
कृष्ण	-11284
▁اظہار	-11285
▁आंतर	-11286
▁अधिकृत	-11287
▁असां	-11288
▁cases	-11289
न्धि	-11290
▁᱑᱙᱗	-11291
▁یمو	-11292
▁देखने	-11293
▁फाइन	-11294
▁येउँ	-11295
▁नें	-11296
▁माय़	-11297
▁अंट	-11298
mat	-11299
anch	-11300
ھیں	-11301
▁जाहेर	-11302
▁अशोक	-11303
▁चक	-11304
▁दाय़ित्ब	-11305
▁ꯄꯨꯝꯅꯃꯛ	-11306
▁तीरु	-11307
्याप्त	-11308
ذی	-11309
▁एर्	-11310
▁2009	-11311
विर	-11312
▁ꯁꯥꯒꯠꯄ	-11313
ाजन	-11314
▁मॊदल	-11315
▁This	-11316
▁हाय़रिबा	-11317
ऱतु	-11318
▁पुढे	-11319
ᱣᱟᱨ	-11320
ꯑꯦ꯫	-11321
ادیء	-11322
▁لکڻ	-11323
▁आपने	-11324
▁होटल	-11325
پٽ	-11326
▁पाय़	-11327
▁ᱥᱚᱨᱠᱟᱨᱤ	-11328
▁उड़	-11329
▁ग्रां	-11330
ण्टि	-11331
▁राज्यो	-11332
▁hapoh	-11333
र्कळुक्कु	-11334
ency	-11335
▁राजस्थान	-11336
▁الله	-11337
▁नाहीत	-11338
▁रिहिस	-11339
▁اٽ	-11340
ड्डी	-11341
▁कॊण्टु	-11342
▁مغر	-11343
▁ꯀꯧꯅꯕ	-11344
▁एन्	-11345
▁आएको	-11346
▁ᱚᱛ	-11347
▁سلطن	-11348
طیف	-11349
▁ڪیر	-11350
▁महीना	-11351
▁شہی	-11352
▁दोक	-11353
فرنس	-11354
▁ꯑꯁꯤꯗ	-11355
बड	-11356
▁District	-11357
▁माडल	-11358
▁جام	-11359
▁मोटी	-11360
ᱴᱟᱨ	-11361
▁जिले	-11362
▁فون	-11363
▁43	-11364
▁ऒळ	-11365
▁چاہی	-11366
हरूको	-11367
▁بڻجی	-11368
ान्तर	-11369
▁ᱵᱟᱡᱟᱨ	-11370
▁जणाव्युं	-11371
ᱱᱟᱹᱛ	-11372
▁ᱜᱮᱞ	-11373
▁ꯃꯗꯨ	-11374
▁law	-11375
▁ᱟᱠᱟᱱᱟ᱾	-11376
▁केतिर	-11377
▁rep	-11378
▁टेक	-11379
▁शिजि	-11380
ᱟᱹᱛᱤᱨ	-11381
▁high	-11382
وم	-11383
▁liang	-11384
▁इउपिपि	-11385
ries	-11386
▁سمجہ	-11387
11	-11388
▁यथ	-11389
▁गरा	-11390
▁वेद	-11391
प्न	-11392
▁حصی	-11393
▁सकदी	-11394
▁ڪلومیٽر	-11395
▁सेवन	-11396
ᱤᱱᱤ	-11397
ٲیی	-11398
▁पारि	-11399
्यांना	-11400
▁पडॆ	-11401
▁किछ	-11402
▁थाखो	-11403
▁स्ने	-11404
▁श्रम	-11405
▁ꯅꯦ꯫	-11406
▁ꯑꯃꯅꯦ꯫	-11407
▁ꯑꯣꯏꯑꯦ꯫	-11408
▁ꯁꯦꯝꯄꯅꯦ꯫	-11409
get	-11410
कों	-11411
ᱸᱰ	-11412
▁अगा	-11413
سف	-11414
▁हाक	-11415
▁बिटिसिनि	-11416
▁کہن	-11417
ꯉꯨ	-11418
▁इष्ट	-11419
▁एंड	-11420
▁कहना	-11421
asa	-11422
▁روڊ	-11423
▁neih	-11424
▁Next	-11425
▁عبد	-11426
▁चिंता	-11427
ॊक्क	-11428
ᱛᱚᱨ	-11429
▁गुरुवार	-11430
▁افراد	-11431
▁स्ऱ्ऱ	-11432
pur	-11433
▁ڏسی	-11434
▁राहत	-11435
▁अधिकांश	-11436
▁ᱛᱟᱸᱦ	-11437
▁विज्ञ	-11438
ंटी	-11439
▁गंट	-11440
▁इथे	-11441
▁ہاء	-11442
rough	-11443
▁cap	-11444
▁ꯁꯛ	-11445
▁ᱩᱥ	-11446
▁उमर	-11447
ल्व	-11448
▁घड	-11449
पती	-11450
ाइण	-11451
▁नॉ	-11452
टोत	-11453
▁ڳالھ	-11454
▁صاف	-11455
निंग	-11456
ारण	-11457
गाँओ	-11458
▁पयऩ्प	-11459
▁ring	-11460
▁लॆ	-11461
▁तमारा	-11462
▁बिंदु	-11463
زیشن	-11464
▁انٛگریٖزی	-11465
▁ᱨᱟᱭ	-11466
▁एच	-11467
▁बदलाव	-11468
▁hel	-11469
▁यहोवा	-11470
▁बेड	-11471
मानङ्कु	-11472
▁हावय	-11473
ावट	-11474
▁होईल	-11475
▁छोटा	-11476
▁कंपन	-11477
▁रखि	-11478
▁ᱠᱷᱟᱹᱛᱤᱨ	-11479
ओल	-11480
▁सुभ	-11481
ठारु	-11482
᱐᱐	-11483
ᱟᱱᱤ	-11484
ꯔꯒ	-11485
ابر	-11486
▁रैत	-11487
ular	-11488
▁याच	-11489
ियारि	-11490
▁अद्देहं	-11491
न्नाडु	-11492
▁आळ	-11493
ict	-11494
▁ᱪᱟᱥ	-11495
▁बंगाल	-11496
▁खाय	-11497
▁बाई	-11498
▁१९७	-11499
▁फेल	-11500
▁मेघ	-11501
مائی	-11502
▁हॆच्चु	-11503
▁केळ	-11504
▁ट्रा	-11505
▁ماڻھو	-11506
▁राजखान्थि	-11507
▁car	-11508
▁نمائ	-11509
قف	-11510
▁सुबुह	-11511
▁अनुभ	-11512
,20	-11513
▁ᱡᱷ	-11514
▁राइजो	-11515
पाद	-11516
لوی	-11517
▁असीं	-11518
▁उहनां	-11519
▁ढेर	-11520
▁दिआय	-11521
▁نواب	-11522
▁ᱵᱟᱨᱭᱟ	-11523
outh	-11524
▁नोंध	-11525
▁अधिका	-11526
धिकरण	-11527
▁لحاظ	-11528
प्रद	-11529
▁अनलाइन	-11530
▁جڳ	-11531
ुपत्र	-11532
▁चित्रपट	-11533
▁कुऱै	-11534
ٕے	-11535
▁जाती	-11536
▁दिल्ल	-11537
▁بیو	-11538
्याचे	-11539
▁Mon	-11540
▁᱑᱑	-11541
▁then	-11542
▁follow	-11543
▁کب	-11544
ॆगळ	-11545
▁संभावना	-11546
line	-11547
▁अङ्क	-11548
▁جدا	-11549
▁असु	-11550
िसलागिदॆ	-11551
gan	-11552
▁वाई	-11553
▁सघींथो	-11554
दातर	-11555
▁KK	-11556
▁रिक	-11557
▁सङ्क	-11558
▁सहाय़	-11559
▁ᱤᱝ	-11560
▁انتظام	-11561
▁Hi	-11562
▁نر	-11563
▁take	-11564
▁علائقو	-11565
ताप	-11566
▁उपस्थिति	-11567
▁देउ	-11568
भयो	-11569
ᱣᱮ	-11570
▁मप	-11571
▁नटै	-11572
▁ہنٛ	-11573
الاجی	-11574
▁बल्कि	-11575
▁वच	-11576
ताऩ्	-11577
▁प्रत्यक्ष	-11578
▁ماڻھن	-11579
ادری	-11580
▁पहली	-11581
▁अवत	-11582
▁میٽر	-11583
▁ꯃꯆ	-11584
ᱨᱤᱭᱟ	-11585
▁बिमान	-11586
▁यांना	-11587
▁पोलीस्	-11588
ᱥᱮ	-11589
▁सन्तान	-11590
.9	-11591
▁ᱟᱠ	-11592
▁लैरि	-11593
▁حاجی	-11594
ीन	-11595
▁निवडण	-11596
▁توڙی	-11597
▁rel	-11598
▁جیت	-11599
बास	-11600
▁ᱟᱯ	-11601
▁औषध	-11602
▁سلطنت	-11603
▁रिज	-11604
▁माध	-11605
बाबत	-11606
▁second	-11607
▁ट्वी	-11608
▁پہنچ	-11609
لؠ	-11610
▁وپھٕ	-11611
▁ख्बाइदगी	-11612
▁जॊ	-11613
▁आश्वस्त	-11614
سٽر	-11615
▁ᱡᱷᱟᱨᱠᱷᱚᱸᱰ	-11616
▁कन्	-11617
▁माले	-11618
▁ा	-11619
▁وڌی	-11620
▁ھئا	-11621
lai	-11622
ats	-11623
▁पेज	-11624
▁ᱦᱤᱥ	-11625
ितर	-11626
▁ꯈꯥ	-11627
▁संघर्ष	-11628
म्ना	-11629
▁وڃڻ	-11630
ीकृत	-11631
▁बगै	-11632
▁गोजौ	-11633
ियर्	-11634
▁ترجمو	-11635
▁खूप	-11636
▁दवा	-11637
▁call	-11638
ٔن	-11639
قد	-11640
▁कारो	-11641
ाणिज्य	-11642
▁शनिवार	-11643
▁फलत	-11644
▁ऋण	-11645
ियाई	-11646
▁शुद्ध	-11647
▁हेउछि	-11648
▁आधारित	-11649
▁khat	-11650
▁दुलाराय	-11651
▁आनहाते	-11652
▁इच्छ	-11653
र्वे	-11654
▁मती	-11655
retary	-11656
ाहार	-11657
▁अदोम	-11658
▁ताऩ्	-11659
▁डाइ	-11660
▁मराठी	-11661
▁समारोह	-11662
ियन्	-11663
12	-11664
▁सैन्य	-11665
▁किउं	-11666
ार्ड	-11667
ौती	-11668
▁bha	-11669
▁बुक	-11670
▁hmu	-11671
▁Oct	-11672
▁स़ामल	-11673
▁ᱟᱨᱦᱚᱸ	-11674
▁ᱱᱤ	-11675
▁Hills	-11676
▁याब	-11677
विष	-11678
ᱺᱜ	-11679
▁आसपास	-11680
▁खाना	-11681
▁ᱮᱦᱚᱵ	-11682
▁लाब	-11683
ुमाय	-11684
ائیندڙ	-11685
▁जिम्मे	-11686
▁मोठ	-11687
▁करीने	-11688
उनु	-11689
ڪارڊ	-11690
▁दिसम्बर	-11691
▁हेबा	-11692
▁vacc	-11693
▁भद्र	-11694
हनि	-11695
▁فرق	-11696
▁شاید	-11697
▁ज़े	-11698
cted	-11699
▁ترین	-11700
ुत्	-11701
ᱤᱠᱤ	-11702
▁हल्ल	-11703
▁भाइर	-11704
त्वं	-11705
▁फरी	-11706
ङ्गा	-11707
▁दृष्टि	-11708
▁राक	-11709
▁کرتا	-11710
PA	-11711
ٕم	-11712
▁होणार	-11713
▁पड़ा	-11714
▁शादी	-11715
▁बेश	-11716
ever	-11717
क्षेत्र	-11718
ट्टे	-11719
▁انڊیا	-11720
▁मौका	-11721
▁तर्वात	-11722
▁trans	-11723
▁पेल	-11724
▁chief	-11725
ियागि	-11726
▁ڪراچیء	-11727
▁नेँ	-11728
▁हम्म	-11729
▁Ro	-11730
▁ᱫᱟᱨᱮ	-11731
▁पशु	-11732
▁مضبوط	-11733
▁मुस्क	-11734
ंदन	-11735
▁अमे	-11736
▁आह्ली	-11737
कले	-11738
▁tal	-11739
▁بڈ	-11740
صف	-11741
rah	-11742
▁ᱯᱟᱲᱦᱟᱣ	-11743
▁शिर	-11744
▁पहुंचे	-11745
bal	-11746
ुला	-11747
▁खेड	-11748
▁सौथी	-11749
गञ्ज	-11750
▁ویل	-11751
▁अन्तिम	-11752
▁हाय़बा	-11753
▁ٻارن	-11754
▁اولاد	-11755
▁होनानै	-11756
ैयो	-11757
▁पेट्रोल	-11758
16	-11759
ार्स	-11760
▁रह्यो	-11761
▁महाब	-11762
▁देहा	-11763
▁set	-11764
य़ेक	-11765
▁گری	-11766
▁چھو	-11767
▁Jun	-11768
▁what	-11769
▁ᱰᱮ	-11770
▁उदय	-11771
ounc	-11772
▁सेप्ट	-11773
त्म	-11774
▁جیل	-11775
▁दोष	-11776
▁अहि	-11777
सास	-11778
▁इउपिपिएल	-11779
ower	-11780
▁میدان	-11781
▁انصاف	-11782
▁देन	-11783
yngk	-11784
▁आह्	-11785
oci	-11786
▁مذہبی	-11787
हीद	-11788
▁चम्प	-11789
▁وفاقی	-11790
ुत्तिद्द	-11791
▁now	-11792
▁डिसेम्बर	-11793
ूबर	-11794
▁प्रतिर	-11795
डीओ	-11796
▁صنعت	-11797
▁sub	-11798
▁ब्रिटिश	-11799
लक्ष	-11800
फोरजों	-11801
▁उत्क	-11802
▁कात	-11803
ट्रो	-11804
▁चौक	-11805
▁ᱵᱟᱦ	-11806
ंचल	-11807
नामा	-11808
vious	-11809
▁گۄڈ	-11810
▁ꯅꯨꯃꯤꯠ	-11811
▁رج	-11812
त्तम	-11813
▁ماء	-11814
▁سری	-11815
ᱚᱣ	-11816
▁00	-11817
▁विदि	-11818
▁नरेंद्र	-11819
▁چم	-11820
▁2001	-11821
▁ऎण्ण	-11822
साधन	-11823
▁अमगी	-11824
▁अनुयाय़ी	-11825
ल्ह	-11826
ᱟᱹᱥᱤ	-11827
▁परिय	-11828
▁told	-11829
▁डोग	-11830
▁लोय़न	-11831
▁घटा	-11832
▁निर्वाचन	-11833
▁गेम	-11834
ân	-11835
▁बक	-11836
ोजी	-11837
▁ہوتی	-11838
▁चौधरी	-11839
▁چند	-11840
▁before	-11841
्था	-11842
▁ओळ	-11843
▁येथे	-11844
▁मैच	-11845
ꯗꯨꯅꯥ	-11846
▁saw	-11847
▁rai	-11848
▁सांबाद	-11849
▁52	-11850
▁ym	-11851
िप्राय	-11852
▁अन्वे	-11853
लिल्	-11854
▁where	-11855
▁अलि	-11856
▁ᱥᱴᱮᱥᱚᱱ	-11857
▁जावेगा	-11858
پار	-11859
हरूले	-11860
केको	-11861
▁छैकः	-11862
िवु	-11863
▁ꯃꯦ	-11864
▁जळ	-11865
▁रोजगार	-11866
ڪیشن	-11867
▁ᱨᱮᱦᱚᱸ	-11868
▁ओला	-11869
▁बिजेप	-11870
چار	-11871
्बाचन	-11872
▁2003	-11873
▁2005	-11874
▁मट	-11875
▁need	-11876
▁दिग	-11877
ٛہہ	-11878
▁ڏیکاری	-11879
▁Mi	-11880
isa	-11881
▁शाल	-11882
▁نیشنل	-11883
ility	-11884
▁article	-11885
▁lut	-11886
▁غز	-11887
▁वायरस	-11888
▁مشہوٗر	-11889
▁ᱵᱮᱵᱷᱟᱨ	-11890
▁कहां	-11891
पुत	-11892
▁तिट्ट	-11893
▁ꯑꯅꯤ	-11894
▁निष्प	-11895
▁150	-11896
▁تصور	-11897
ᱨᱮᱥ	-11898
▁मङ	-11899
ग्राम	-11900
▁bun	-11901
▁ماس	-11902
▁Khubor	-11903
न्नो	-11904
▁ابر	-11905
▁سکر	-11906
▁उन्नत	-11907
ऴै	-11908
ोटु	-11909
▁केने	-11910
▁हते	-11911
led	-11912
▁जोख	-11913
ापक	-11914
▁ड्राइ	-11915
▁نالا	-11916
▁घटन	-11917
ूरत	-11918
ᱵᱤᱫ	-11919
▁الاقوامی	-11920
ॆंब	-11921
ख्यात	-11922
▁शहेर	-11923
▁लैबाक	-11924
▁श्ब	-11925
▁इच्च	-11926
▁chh	-11927
▁सुरे	-11928
▁ᱥᱟᱸ	-11929
oi	-11930
▁संस्करण	-11931
▁गान्धी	-11932
▁नब	-11933
▁شیر	-11934
▁जोग	-11935
▁ꯂꯣꯢ	-11936
्यूं	-11937
15	-11938
त्तिऱ्कु	-11939
▁اھا	-11940
जिर	-11941
▁किसानां	-11942
▁जिव	-11943
▁ڏسڻ	-11944
लोड	-11945
झी	-11946
्प्र	-11947
بس	-11948
▁iak	-11949
▁कही	-11950
▁मोटर	-11951
▁मता	-11952
मति	-11953
▁hla	-11954
▁अदुना	-11955
▁وجود	-11956
िबा	-11957
ापु	-11958
▁वारि	-11959
▁सत्र	-11960
▁ओली	-11961
▁रेसि	-11962
الر	-11963
▁मावख	-11964
▁سوم	-11965
▁सब्	-11966
▁خا	-11967
▁गरम	-11968
ٲنی	-11969
▁श्रद्ध	-11970
ection	-11971
اوان	-11972
▁بس	-11973
ᱦᱮ	-11974
▁धोर	-11975
▁पोताना	-11976
प्पट्टतु	-11977
▁سیڪری	-11978
▁इलेक्ट्र	-11979
ouse	-11980
▁चिव	-11981
▁जनरल	-11982
راج	-11983
نگر	-11984
▁बेरेखा	-11985
▁بلوچستان	-11986
▁मुख्यमन्त्	-11987
▁बारग	-11988
▁हूअ	-11989
ाच्या	-11990
▁चह	-11991
▁अपराध	-11992
▁Meg	-11993
▁प्रभुत्वं	-11994
▁गृ	-11995
िच	-11996
▁सोमाव	-11997
▁सुठो	-11998
▁तयारी	-11999
▁मैथिल	-12000
▁راء	-12001
▁रुपमा	-12002
▁Me	-12003
▁تصویر	-12004
▁عقی	-12005
िमु	-12006
▁polit	-12007
वक	-12008
▁جانب	-12009
▁ᱡᱟᱦᱟ	-12010
▁Dec	-12011
▁माद	-12012
▁हुनका	-12013
▁मुसल	-12014
▁स्वरूप	-12015
ife	-12016
▁हीरो	-12017
▁थियणु	-12018
ोल्	-12019
▁Lal	-12020
▁ꯄꯣꯠ	-12021
don	-12022
▁आस्प	-12023
دائی	-12024
▁बिसोर	-12025
▁माफ	-12026
▁चलच्च	-12027
▁शासक	-12028
▁तॆलिप	-12029
▁علاج	-12030
▁वड	-12031
▁er	-12032
▁محسوس	-12033
्यांनी	-12034
▁team	-12035
▁फोरमायो	-12036
ुत्ब	-12037
▁भित्त	-12038
प्पटुकिऱतु	-12039
िकेल	-12040
▁nga	-12041
▁ᱡᱚᱱ	-12042
ᱟᱥᱟ	-12043
▁خوٗن	-12044
▁مجھے	-12045
▁ꯁꯦ	-12046
▁चूं	-12047
▁अभिनय	-12048
▁सुक	-12049
▁कुऱ्ऱ	-12050
▁compan	-12051
▁भोज	-12052
▁राॼ	-12053
▁सुरक्ष	-12054
प्पट्टु	-12055
काउ	-12056
▁एहार	-12057
▁कटन्त	-12058
▁नती	-12059
ध्र	-12060
▁सध्या	-12061
म्मॆ	-12062
▁hnu	-12063
र्की	-12064
iah	-12065
जरी	-12066
▁رد	-12067
▁तीस	-12068
▁kei	-12069
▁रम	-12070
▁وات	-12071
▁ग्रह	-12072
▁कलि	-12073
▁گرفتار	-12074
▁الم	-12075
ति॒	-12076
▁डाय	-12077
▁رھیو	-12078
्टर	-12079
▁رام	-12080
▁लाइरिक	-12081
▁पाकिस्त	-12082
ात्मा	-12083
▁लायो	-12084
ूर्ति	-12085
▁जानान	-12086
▁हल्के	-12087
▁स्थळ	-12088
▁pass	-12089
▁paw	-12090
ᱞᱟᱣ	-12091
ग्ध	-12092
▁सत्ता	-12093
▁कायम	-12094
▁def	-12095
▁ᱪᱟᱪ	-12096
▁वक	-12097
▁ناگ	-12098
▁۲۰	-12099
thi	-12100
yst	-12101
▁حج	-12102
जाय	-12103
▁पॆय	-12104
▁दाल	-12105
▁ꯃꯁꯥ	-12106
ٕنٛد	-12107
▁through	-12108
▁पाटु	-12109
▁सुध	-12110
▁प्रॉब्ल	-12111
ھنہٕ	-12112
▁conf	-12113
▁कने	-12114
▁मखा	-12115
▁थुन	-12116
▁आराम	-12117
ꯍꯟ	-12118
▁ᱤᱧ	-12119
▁बांग	-12120
▁مئ	-12121
▁tin	-12122
निंद	-12123
▁अल्प	-12124
▁Kumar	-12125
▁शौ	-12126
▁पाछत	-12127
▁संजय	-12128
▁Sep	-12129
▁آمریڪی	-12130
▁ᱵᱷᱤᱛ	-12131
▁زیٛ	-12132
ons	-12133
▁ताँर	-12134
▁छुट्टी	-12135
▁ᱞᱤ	-12136
फ़ेस	-12137
▁सौकर	-12138
▁शांत	-12139
▁alleged	-12140
▁काट	-12141
▁ہوء	-12142
▁واڌ	-12143
▁निश्च	-12144
▁वाल्यूम	-12145
▁ᱢᱚᱱᱛᱨᱤ	-12146
बरा	-12147
स्पिटल	-12148
▁ڪرم	-12149
▁हुनखे	-12150
▁दिहं	-12151
▁ᱠᱨᱤ	-12152
▁करय	-12153
▁disc	-12154
▁टिकट	-12155
▁पोऩ्ऱ	-12156
▁इंटरफ़ेस	-12157
▁دھ	-12158
▁हों	-12159
▁شہید	-12160
▁डु	-12161
▁met	-12162
umber	-12163
▁کنہ	-12164
ꯟꯅꯥ	-12165
▁طو	-12166
▁चैन	-12167
▁चट	-12168
क्सा	-12169
▁دوس	-12170
▁नमः	-12171
▁ꯁꯤꯡ	-12172
▁اون	-12173
▁अंदाज	-12174
्यातील	-12175
▁कहिन	-12176
▁ᱨᱟᱡᱽᱜᱟᱲ	-12177
याण्	-12178
▁कुरा	-12179
▁ऎन्निव	-12180
uss	-12181
▁کشمیر	-12182
▁यावुदे	-12183
▁ᱴᱟ	-12184
land	-12185
▁निस	-12186
▁वृत्त	-12187
▁ठाकुर	-12188
▁स्वच्छ	-12189
▁ڀٽو	-12190
ᱚ᱐	-12191
ानं	-12192
▁नील	-12193
न्नै	-12194
डम	-12195
▁ڈاک	-12196
▁گھٽ	-12197
▁रहेका	-12198
▁ꯂꯥꯢꯔꯦꯝ	-12199
▁अत्या	-12200
▁किताब	-12201
दिं	-12202
▁चारि	-12203
ᱩᱯ	-12204
▁سمو	-12205
▁ध्व	-12206
▁बिथांमोन	-12207
▁ᱢᱟᱦ	-12208
▁मोटा	-12209
▁ᱵᱟᱪᱷ	-12210
▁ین	-12211
▁मखादा	-12212
शास्त्र	-12213
▁ابڙو	-12214
▁पद्म	-12215
▁इंटरनेट	-12216
▁ऒऩ्ऱ	-12217
ऩुम्	-12218
▁बिचा	-12219
▁कळॆ	-12220
▁hrang	-12221
▁पोर्ट	-12222
عات	-12223
▁وۄ	-12224
▁इससे	-12225
▁हिंदू	-12226
▁لڳو	-12227
▁जनाइ	-12228
▁iathuh	-12229
ट्स्	-12230
ङ्कळुक्कु	-12231
ग्रहण	-12232
rem	-12233
ᱵᱟᱨ	-12234
▁पें	-12235
الح	-12236
rd	-12237
्हे	-12238
▁zir	-12239
▁Bi	-12240
ऴु	-12241
ुँ	-12242
ह्त	-12243
▁अदुम	-12244
حان	-12245
केइ	-12246
ुडु	-12247
▁ap	-12248
▁Ri	-12249
▁चान	-12250
▁پاب	-12251
▁مٽ	-12252
ꯃꯗꯥ	-12253
▁चाहीं	-12254
▁تعلی	-12255
द्दीन	-12256
व्यव	-12257
ween	-12258
▁करेंगे	-12259
ᱱᱟᱭ	-12260
▁रॆंडु	-12261
▁जाहि	-12262
न्नू	-12263
▁अटक	-12264
ائیندو	-12265
▁बुद्धि	-12266
▁म्हट	-12267
▁ᱡᱚᱲᱟᱣ	-12268
▁جذ	-12269
▁चालक	-12270
▁होन्नानै	-12271
یتن	-12272
▁मनी	-12273
खिन	-12274
▁West	-12275
꯭ꯔꯣ	-12276
▁मोड	-12277
▁बिस्व	-12278
ڙہی	-12279
▁zel	-12280
▁ننڍی	-12281
▁त्याने	-12282
▁रोज़	-12283
▁केंद्रीय	-12284
▁अउरी	-12285
▁جرمن	-12286
▁बेट	-12287
▁काछे	-12288
िंचे	-12289
▁سار	-12290
▁देना	-12291
▁News	-12292
▁लकडाउन	-12293
ذر	-12294
्कळै	-12295
▁chhung	-12296
▁مدر	-12297
▁باوجود	-12298
ᱬᱟ	-12299
▁म्यू	-12300
▁ہندی	-12301
▁ᱵᱚᱞ	-12302
▁आइजो	-12303
▁नीङ्कळ्	-12304
▁चरित्र	-12305
▁She	-12306
▁इन्तिय	-12307
▁kham	-12308
▁प्रमद	-12309
क्कै	-12310
ूटॆ	-12311
▁الع	-12312
▁حڪمر	-12313
▁ڀڳ	-12314
▁श्व	-12315
▁जोवा	-12316
▁जेला	-12317
ᱟᱜᱽ	-12318
▁عٔ	-12319
▁ᱱᱟᱜᱟᱨ	-12320
त्वा	-12321
▁Sp	-12322
ितं	-12323
▁مقامی	-12324
ट्टॆ	-12325
▁शीत	-12326
▁सडक	-12327
▁सोमबार	-12328
▁कॊरो	-12329
▁ᱥᱮᱱᱚᱜ	-12330
▁अॅ	-12331
▁पुन्सि	-12332
▁ऎन्	-12333
▁ٻڌایو	-12334
▁उत्पन्न	-12335
▁आधी	-12336
▁टीवी	-12337
थन	-12338
▁رست	-12339
▁आहिछे	-12340
▁भाषण	-12341
▁ᱥᱤᱢ	-12342
mit	-12343
▁world	-12344
▁२०१८	-12345
यूं	-12346
▁किटै	-12347
▁हिस्से	-12348
▁Jul	-12349
▁संख	-12350
▁thiam	-12351
▁बिजय़	-12352
▁kim	-12353
लार	-12354
ونہٕ	-12355
ich	-12356
▁महानगर	-12357
▁जहि	-12358
طا	-12359
ोक्ता	-12360
▁प्रशिक्षण	-12361
eneral	-12362
िआदा	-12363
▁रास्ता	-12364
▁आरा	-12365
▁खालामनानै	-12366
▁अवस्था	-12367
▁शाखा	-12368
िलाक	-12369
▁मुद्दा	-12370
▁x	-12371
शः	-12372
اسب	-12373
बाकु	-12374
▁कल्पना	-12375
▁इमार	-12376
▁इल्लै	-12377
▁56	-12378
द्रा	-12379
▁ڪین	-12380
▁नामे	-12381
▁दम	-12382
▁राति	-12383
ᱪᱟᱹ	-12384
ावतु	-12385
▁सांबादिक	-12386
▁अग्नि	-12387
▁سیڪریٽری	-12388
स्रो	-12389
▁पूर्बरु	-12390
▁हिंदु	-12391
▁ندی	-12392
▁ہجڻ	-12393
▁वल्ल	-12394
▁ᱢᱮᱛᱟᱜ	-12395
▁बाबत	-12396
▁between	-12397
फोरनो	-12398
▁عبداللہ	-12399
▁बिका	-12400
▁पंहिंजी	-12401
▁बेच	-12402
▁सोमो	-12403
▁000	-12404
▁رفت	-12405
श्म	-12406
▁लाह	-12407
يه	-12408
▁मेह	-12409
▁मतांदा	-12410
▁असतात	-12411
▁मन्त्रि	-12412
ڊل	-12413
्रीम	-12414
▁सीमित	-12415
▁बहार	-12416
ڪرو	-12417
▁बीमा	-12418
▁पंद	-12419
िल्ला	-12420
▁थौर	-12421
▁انٽر	-12422
बारे	-12423
▁عليه	-12424
▁हूंदो	-12425
▁अक्सर	-12426
ᱤᱭᱟᱱ	-12427
▁سنٛد	-12428
▁छुट	-12429
▁ᱫᱷᱟᱹ	-12430
▁ठू	-12431
गासिनो	-12432
چن	-12433
शाला	-12434
▁گورنر	-12435
قبال	-12436
टम	-12437
▁dam	-12438
▁बेशि	-12439
तांश	-12440
▁सञ्चालन	-12441
खनत	-12442
▁ڪونہ	-12443
▁China	-12444
▁गाग्लोब	-12445
▁नमो	-12446
▁युवक	-12447
▁तान	-12448
फिन	-12449
▁सुस्थ	-12450
▁सागर	-12451
ᱫᱚᱨ	-12452
▁एयर	-12453
▁बिथांनि	-12454
▁پاڻیء	-12455
▁एकदम	-12456
▁कन्नड	-12457
▁शक्य	-12458
ꯔꯝꯃꯤ	-12459
▁ऐहाक	-12460
▁शिब	-12461
िय़ाइ	-12462
▁انگریز	-12463
भिः	-12464
▁واضح	-12465
▁जबाब	-12466
ody	-12467
▁भूल	-12468
करो	-12469
▁बोले	-12470
▁दूध	-12471
▁ᱛᱮᱭᱟᱨ	-12472
▁जाही	-12473
▁वॆळि	-12474
▁मुख्यमंत्रि	-12475
lock	-12476
▁آگسٽ	-12477
▁عورتن	-12478
▁पटक	-12479
ادت	-12480
▁ڪتابن	-12481
▁चेर्न्त	-12482
ड्र	-12483
▁बॆंगळूरु	-12484
जै	-12485
ंदरॆ	-12486
▁भीड़	-12487
▁लोकप्रिय	-12488
▁नक्की	-12489
▁ꯃꯑꯣꯡ	-12490
▁बेंक	-12491
▁चयन	-12492
▁साप	-12493
▁الز	-12494
read	-12495
ेंबर	-12496
ाहं	-12497
▁अरब	-12498
▁पीछे	-12499
टं	-12500
▁निर्वह	-12501
ٲو	-12502
▁बोला	-12503
▁ڀاء	-12504
▁खरे	-12505
▁ᱟᱥᱟᱢ	-12506
▁اہڙو	-12507
▁ann	-12508
▁तमिऴक	-12509
▁बि॒	-12510
دیا	-12511
▁हउ	-12512
▁वरै	-12513
िकै	-12514
▁आमत	-12515
▁نوجوان	-12516
▁انتہ	-12517
▁प्रकृति	-12518
ᱩᱝ	-12519
▁نمونی	-12520
▁आकिय	-12521
ڪان	-12522
ारक	-12523
▁गये	-12524
▁भयो	-12525
▁उल्लेख्य	-12526
मिन	-12527
▁सोमावसार	-12528
▁गैछे	-12529
▁संकेत	-12530
▁निन्नुं	-12531
उट	-12532
▁लागिब	-12533
▁عث	-12534
▁वठी	-12535
▁पुत्त	-12536
▁ᱯᱤ	-12537
दक	-12538
▁پورو	-12539
▁bel	-12540
▁सकेला	-12541
▁لال	-12542
▁افغانستان	-12543
ॆङ्किलुं	-12544
थर	-12545
▁ꯃꯇꯝꯁꯤ	-12546
फ्रोमबो	-12547
▁49	-12548
▁سۄ	-12549
▁ناز	-12550
▁गयो	-12551
▁सहायक	-12552
▁ᱠᱷᱮᱞ	-12553
॑व	-12554
cle	-12555
ᱫᱷᱤ	-12556
्रिक	-12557
▁सर्वो	-12558
▁رپورٽ	-12559
▁बराबर	-12560
ulit	-12561
ञ्जन	-12562
▁यै	-12563
ᱚᱡᱽ	-12564
ांमध्ये	-12565
▁ju	-12566
▁꯱꯰꯰꯰	-12567
▁انگ	-12568
▁बुंदों	-12569
▁᱑᱓	-12570
ought	-12571
▁परिचाल	-12572
▁پروفیسر	-12573
▁हृदय	-12574
▁famil	-12575
▁عوامی	-12576
▁दस्तावेज़	-12577
▁pakhat	-12578
ull	-12579
▁प्रॉब्लम	-12580
▁ہار	-12581
▁फौ	-12582
▁بلکہ	-12583
▁ओडि	-12584
▁serv	-12585
▁उर	-12586
थमे	-12587
ٹو	-12588
ूपी	-12589
ecial	-12590
हं	-12591
▁पदा	-12592
ुंग	-12593
ास्थ्य़	-12594
▁انقل	-12595
▁सुद्धा	-12596
ोव	-12597
▁पॊतु	-12598
▁लेक	-12599
▁शनिबार	-12600
ᱚᱵᱽ	-12601
▁گرمی	-12602
▁ڈاکٹر	-12603
▁ꯆꯍꯤꯒꯤ	-12604
्याक	-12605
▁vek	-12606
ूर्त	-12607
▁hnen	-12608
बेश	-12609
▁कति	-12610
▁मेला	-12611
शक्त	-12612
مبئی	-12613
्ताऩ्	-12614
ञ्चल	-12615
▁आबादी	-12616
▁Cont	-12617
▁कल्ल	-12618
▁Fe	-12619
ꯊꯤ	-12620
▁पिटि	-12621
ꯉꯩ	-12622
ाः	-12623
▁तीर्	-12624
▁सेक्स	-12625
▁ᱦᱟᱛᱟᱣ	-12626
न्दों	-12627
▁बायो	-12628
سواء	-12629
▁कॊत्त	-12630
▁घायल	-12631
▁परिष	-12632
▁मौजू	-12633
اریء	-12634
ᱩᱣᱟ	-12635
▁छिलेन	-12636
▁तेमज	-12637
▁2006	-12638
کت	-12639
▁رڪارڊ	-12640
▁ब्यक्त	-12641
▁गोटिए	-12642
thei	-12643
▁bus	-12644
▁दुर्ग	-12645
▁coll	-12646
ᱲᱟᱣ	-12647
थारि	-12648
चिन	-12649
▁दियां	-12650
▁गिरफ्तार	-12651
▁hmuh	-12652
▁४५	-12653
ꯂꯦ	-12654
न्धान	-12655
▁मोन्नाय	-12656
طو	-12657
▁हमन्हीं	-12658
▁एक्सप	-12659
पुरी	-12660
▁मुंहिंजो	-12661
▁मखोय़गी	-12662
▁हूं	-12663
▁अदुगी	-12664
▁कुछु	-12665
ᱯᱷᱟ	-12666
▁प्राचीन	-12667
ale	-12668
یندڙ	-12669
▁मिर	-12670
▁ᱫᱤᱞᱞᱤ	-12671
▁मान्य	-12672
्टी	-12673
▁दरम्यान	-12674
▁चाय	-12675
जवान	-12676
िलाण्	-12677
▁डाउन	-12678
▁ser	-12679
▁ख़ास	-12680
त्मक	-12681
▁इन्ड	-12682
च्छि	-12683
गुण	-12684
▁کرو	-12685
▁वैज्ञानिक	-12686
ᱟᱹᱢ	-12687
halaya	-12688
ڈیو	-12689
▁गोद	-12690
ڪش	-12691
ुवु	-12692
▁᱑᱔	-12693
꯭ꯁ	-12694
स्थल	-12695
▁نٿو	-12696
▁hadien	-12697
▁सुता	-12698
▁आमेर	-12699
▁ᱦᱳ	-12700
▁ꯑꯅꯧꯕ	-12701
▁बिल्	-12702
▁प्रब	-12703
▁पहिंजी	-12704
ꯗꯦ	-12705
▁ڪئ	-12706
न्दन	-12707
▁आसन	-12708
▁سڌ	-12709
▁माछ	-12710
ling	-12711
▁३२	-12712
▁अदर	-12713
▁اہمیت	-12714
▁कावड़	-12715
▁La	-12716
▁ᱨᱮᱠᱚ	-12717
ᱚᱜᱽ	-12718
ायां	-12719
▁छीन	-12720
▁زمان	-12721
▁हमला	-12722
▁शास्त्र	-12723
▁संवाद	-12724
یٖم	-12725
▁ङम	-12726
▁ᱥᱚᱸ	-12727
ets	-12728
▁कण्	-12729
वाली	-12730
▁विधि	-12731
▁भेद	-12732
ᱯᱟᱨ	-12733
▁ᱠᱮᱫᱼᱟ	-12734
थुन	-12735
ैयि	-12736
▁वहां	-12737
▁मरुत्तुव	-12738
▁ओवर	-12739
▁इलाख	-12740
ड्स	-12741
▁इसलिए	-12742
▁शुक्रबार	-12743
▁करबाक	-12744
▁देइछन्ति	-12745
▁سگھی	-12746
▁2004	-12747
▁جبکہ	-12748
▁हुनजे	-12749
▁ٽیڪن	-12750
▁air	-12751
▁पोख	-12752
elf	-12753
▁دہشت	-12754
▁ग्रा	-12755
ٲدی	-12756
ेस़	-12757
ाहन	-12758
▁अपर	-12759
▁᱑᱗	-12760
▁ins	-12761
▁متح	-12762
ᱠᱷᱚᱱ	-12763
▁गड़	-12764
▁अड्ड	-12765
ंटा	-12766
▁दीं	-12767
▁अस्थ	-12768
▁थिले	-12769
▁ᱱᱚᱰᱮ	-12770
ळक	-12771
नमक	-12772
▁ᱮᱢᱟ	-12773
▁ख़बर	-12774
▁आधा	-12775
▁सुनिश्चित	-12776
कारण	-12777
nai	-12778
▁لغ	-12779
▁बुंथियो	-12780
▁چئبو	-12781
ٖن	-12782
ior	-12783
िकळै	-12784
▁श्रमिक	-12785
▁مزید	-12786
یابی	-12787
▁معاہ	-12788
नाडु	-12789
ants	-12790
▁देशी	-12791
▁نار	-12792
▁योज	-12793
▁कहने	-12794
ेंच	-12795
▁develop	-12796
खु	-12797
▁प्रोत्स	-12798
▁شان	-12799
▁خار	-12800
ᱩᱰ	-12801
▁फोरों	-12802
lei	-12803
▁آفری	-12804
▁Miz	-12805
▁invest	-12806
▁मोनदों	-12807
▁जंहिं	-12808
▁चंचल	-12809
▁ꯁꯣꯟꯅ	-12810
▁नगरपालिका	-12811
ᱩᱲ	-12812
▁गाहाय	-12813
▁पूत	-12814
श्य़	-12815
▁Meghalaya	-12816
form	-12817
▁ꯃꯅꯤꯡ	-12818
ator	-12819
رہ	-12820
▁ڪرائی	-12821
▁شاعریء	-12822
▁تیل	-12823
▁Aug	-12824
▁दुस	-12825
▁मय़	-12826
ریز	-12827
▁वलिय	-12828
ाम्बा	-12829
huan	-12830
▁ढंग	-12831
यत	-12832
▁حساب	-12833
rim	-12834
▁वृद्धि	-12835
▁جار	-12836
जने	-12837
▁National	-12838
▁पिऩ्ऩ	-12839
▁kine	-12840
▁مئی	-12841
▁Le	-12842
ुपर्छ	-12843
الب	-12844
▁حاڪ	-12845
▁होइन	-12846
,3	-12847
ꯊꯥꯞ	-12848
▁ममता	-12849
▁الب	-12850
आह	-12851
▁kitei	-12852
▁ho	-12853
▁गेई	-12854
▁sngew	-12855
▁दाद	-12856
हौ	-12857
▁गेलो	-12858
▁ᱵᱟᱯᱞᱟ	-12859
▁दूरी	-12860
یوٗ	-12861
▁آہیو	-12862
▁अमदा	-12863
▁आतिमा	-12864
▁تعلیمی	-12865
▁उम्र	-12866
▁चिक्क	-12867
▁ہج	-12868
▁بنی	-12869
▁عمارت	-12870
▁होइछन्ति	-12871
र्मे	-12872
▁जनक	-12873
▁ᱨᱟᱢ	-12874
▁गिय़े	-12875
▁परिचित	-12876
▁अक्टूबर	-12877
▁जानिय़े	-12878
▁number	-12879
िनानै	-12880
▁Court	-12881
ासत	-12882
▁chhuak	-12883
▁हाबाफार	-12884
▁लेने	-12885
▁بزرگ	-12886
▁भेटि	-12887
▁भन्दा	-12888
ासभ	-12889
▁just	-12890
▁निर्देशक	-12891
ᱠᱩᱞ	-12892
▁سیو	-12893
न्थि	-12894
▁ᱥᱤᱠᱷ	-12895
्रत	-12896
▁ملیو	-12897
▁آفیس	-12898
▁नन्न	-12899
▁कैप	-12900
▁रहमान	-12901
▁vis	-12902
क्कळ	-12903
▁दिना	-12904
कालीन	-12905
▁परियोजना	-12906
▁بھر	-12907
▁शैली	-12908
▁अमृत	-12909
न्नाइ	-12910
▁चुदा	-12911
▁समाप्त	-12912
▁बावजूद	-12913
▁किट	-12914
▁आरओ	-12915
न्दु	-12916
ism	-12917
स्वी	-12918
▁ᱲ	-12919
▁ᱦᱩᱰᱤ	-12920
▁ꯄꯊꯥꯞ	-12921
▁लइका	-12922
▁इलावा	-12923
ᱜᱟᱱ	-12924
▁पराज	-12925
स्ट्रेलिया	-12926
▁Dep	-12927
▁रुक	-12928
▁जंदी	-12929
▁हॊस	-12930
▁حصن	-12931
ꯕꯗ	-12932
िआन	-12933
वारे	-12934
▁अतिथि	-12935
▁ذہن	-12936
▁होंदा	-12937
▁चप	-12938
▁ꯆꯍꯤꯗ	-12939
ॆगळु	-12940
▁हावे	-12941
ندن	-12942
▁ꯈ꯭	-12943
▁اضاف	-12944
▁ग़ासित	-12945
जबा	-12946
▁हादर	-12947
▁ایندو	-12948
▁फ्रांस	-12949
पट्ट	-12950
▁सांगितले	-12951
▁सृष्ट	-12952
▁ꯌꯥꯝꯅ	-12953
▁असताना	-12954
▁शान्त	-12955
▁असतो	-12956
ئو	-12957
▁ہلی	-12958
▁वीट	-12959
▁꯷	-12960
▁ꯁꯤꯖꯤꯟꯅꯩ꯫	-12961
شق	-12962
▁सफळ	-12963
▁मात्रा	-12964
ہس	-12965
जाद	-12966
▁राश्ट	-12967
▁टीका	-12968
▁बाबु	-12969
विधि	-12970
▁हाग्र	-12971
ीम	-12972
▁अंगे	-12973
▁उऱु	-12974
▁शतांश	-12975
▁इसदे	-12976
ڙیل	-12977
▁مقب	-12978
▁ꯃꯤꯇꯩꯂꯣꯟꯒꯤ	-12979
एँ	-12980
▁सघे	-12981
खित	-12982
AL	-12983
tee	-12984
▁देलक	-12985
▁पश्चि	-12986
اہری	-12987
▁इत्यादि	-12988
▁الڳ	-12989
▁मंत्रि	-12990
▁جمہو	-12991
▁ڇاڪ	-12992
सकले	-12993
▁معلومات	-12994
▁बृहस्पति	-12995
▁ᱫᱷᱟᱹᱵᱤᱡ	-12996
▁एउ	-12997
▁कभ	-12998
▁केटल	-12999
illion	-13000
▁ꯌꯦꯡꯂꯕꯗꯤ	-13001
▁माली	-13002
▁आवशे	-13003
ुल्ल	-13004
ीक्षा	-13005
▁पोतु	-13006
▁ko	-13007
▁ᱪᱟᱪᱞᱟᱣ	-13008
▁सुयोग	-13009
ꯖꯤꯛ	-13010
resent	-13011
▁पेर्	-13012
म्बे	-13013
्छ	-13014
ऱ्ऱिय	-13015
▁2007	-13016
▁सैक	-13017
anc	-13018
ष्ठी	-13019
मेव	-13020
▁99	-13021
▁درمی	-13022
راق	-13023
▁جرم	-13024
urity	-13025
▁बनाई	-13026
ाजि	-13027
▁my	-13028
▁کنٹ	-13029
▁अधी	-13030
▁days	-13031
यम्	-13032
ٕر	-13033
ᱯᱚ	-13034
▁ᱵᱚᱸᱜᱟ	-13035
▁कैलेंडर	-13036
▁जॉन	-13037
▁रुपैया	-13038
▁विनो	-13039
▁مخالف	-13040
न्दे	-13041
वेल	-13042
▁घात	-13043
▁58	-13044
▁मिनिट	-13045
▁माध्यमे	-13046
▁vang	-13047
▁पटि	-13048
▁᱑᱖	-13049
▁انتظامی	-13050
orth	-13051
▁सुश	-13052
▁नामक	-13053
▁इहे	-13054
ڊا	-13055
▁ᱵᱟᱲ	-13056
▁संघटित	-13057
ांड	-13058
्याचा	-13059
ेब	-13060
▁ताके	-13061
▁मगर	-13062
▁say	-13063
लिंग	-13064
▁बरतून	-13065
केल	-13066
ुवे	-13067
▁भीम	-13068
ाबु	-13069
▁लिखा	-13070
▁हुनकर	-13071
▁ہوگ	-13072
▁धरे	-13073
ٲب	-13074
ocial	-13075
▁विदिआर	-13076
▁नीरु	-13077
▁माट्ला	-13078
▁आव्युं	-13079
▁ڀیرو	-13080
▁पुरी	-13081
▁तुऱ	-13082
▁راجا	-13083
▁ڇاڪاڻ	-13084
▁गर्दा	-13085
▁जवळ	-13086
▁ऱिप्पो	-13087
क्कुन्नत्	-13088
▁ꯑꯣꯏꯅꯁꯨ	-13089
▁मसिना	-13090
▁अनुरोध	-13091
यक	-13092
ts	-13093
▁परेशान	-13094
▁att	-13095
▁کھۄ	-13096
▁कांगरस	-13097
ٕژ	-13098
▁leaders	-13099
▁गॊ	-13100
BI	-13101
▁रात्रि	-13102
▁यान	-13103
▁꯱꯸	-13104
▁rele	-13105
्य़ाळय़	-13106
तेन	-13107
▁फ्री	-13108
▁ᱛᱟᱦᱮᱸᱱᱟ	-13109
▁दौड़	-13110
▁बसुमतारी	-13111
▁मिथिनो	-13112
ane	-13113
▁मैन	-13114
ᱠᱤᱱ	-13115
▁वकी	-13116
▁᱑᱙᱖	-13117
▁पहेला	-13118
जाम	-13119
▁help	-13120
▁हेड	-13121
▁ꯃꯅꯤꯄꯨꯔꯒꯤ	-13122
▁today	-13123
▁बरि	-13124
▁तमिल	-13125
▁خوبص	-13126
ڳی	-13127
▁پالی	-13128
▁जनसंख्या	-13129
▁قیام	-13130
्नू	-13131
duh	-13132
ٲمی	-13133
र्थः	-13134
तिन्	-13135
▁پول	-13136
ाप्	-13137
ीकरण	-13138
▁भन्दै	-13139
ओना	-13140
▁नृत्य	-13141
▁पाद	-13142
▁जनत	-13143
▁chhi	-13144
▁लम्बी	-13145
ुळ्ळऩर्	-13146
▁छलाह	-13147
▁मत्त	-13148
▁शुल्क	-13149
▁ꯇꯨꯝꯃ	-13150
थील	-13151
▁मुलु	-13152
▁संस्कार	-13153
▁ट्वि	-13154
▁ᱥᱚᱝ	-13155
▁خواہ	-13156
न्ही	-13157
▁مصر	-13158
हेँ	-13159
ीकरि	-13160
▁statement	-13161
▁مخدو	-13162
▁करण्यासाठी	-13163
▁शोक	-13164
▁ᱚᱱᱚᱞ	-13165
▁आसानी	-13166
▁ट्	-13167
خی	-13168
▁تنہنڪری	-13169
ण्टुम्	-13170
ध्य़	-13171
ᱤᱥᱛᱟᱱ	-13172
▁चलत	-13173
▁عملی	-13174
▁꯲꯰꯱꯵	-13175
▁حفاظ	-13176
ꯃꯦꯟ	-13177
▁شعر	-13178
▁अन्तर्गत	-13179
▁دلچ	-13180
▁दित्ता	-13181
▁शान्ति	-13182
▁खुंफुं	-13183
▁سلام	-13184
न्हे	-13185
▁ᱡᱤᱛ	-13186
▁Tr	-13187
▁ᱞᱟᱠ	-13188
▁द्या	-13189
دارن	-13190
تیں	-13191
▁मोहन	-13192
ढ़ि	-13193
▁بیشڪ	-13194
▁बुन	-13195
▁گز	-13196
▁प्रका	-13197
▁ꯁꯩꯔꯦꯡ	-13198
▁प्रेस	-13199
▁प्रै	-13200
▁अमल	-13201
▁तुम्हाला	-13202
▁नीं	-13203
ꯨꯞꯅ	-13204
▁ڪلام	-13205
▁ᱡᱟᱱ	-13206
ुल्लो	-13207
▁ᱥᱤᱝ	-13208
▁नौजवान	-13209
▁मुखे	-13210
▁बोली	-13211
▁रिंग	-13212
▁تعلقو	-13213
▁लिर	-13214
▁देओय़ा	-13215
▁چر	-13216
शाख	-13217
तेच	-13218
टणी	-13219
त्तुक्कु	-13220
▁चत	-13221
▁चालु	-13222
▁रॉ	-13223
हरुले	-13224
▁غلط	-13225
▁जाथे	-13226
ुपा	-13227
ुकळि	-13228
शान	-13229
▁मस्त	-13230
▁ᱜᱟᱲ	-13231
ंडर	-13232
▁حوال	-13233
▁शुं	-13234
TC	-13235
▁जाएत	-13236
io	-13237
▁بدر	-13238
teng	-13239
▁ضرور	-13240
▁गोरोब	-13241
▁कालि	-13242
▁قط	-13243
ᱥᱚ	-13244
▁भालो	-13245
▁मुफ्त	-13246
ाइबा	-13247
▁बांसिन	-13248
▁घण्ट	-13249
वेशन	-13250
▁हूंदा	-13251
▁तोहसे	-13252
▁نع	-13253
▁कया	-13254
▁ہندوستانس	-13255
▁hospital	-13256
▁لائن	-13257
▁जने	-13258
▁नम्प	-13259
▁well	-13260
िसिकॊंड	-13261
▁थाह	-13262
▁کانسواء	-13263
▁72	-13264
▁What	-13265
▁اتح	-13266
्त्तु	-13267
▁शेतक	-13268
▁خال	-13269
▁even	-13270
▁हेतु	-13271
प्पै	-13272
▁माह्नू	-13273
▁ᱥᱟᱶᱛᱟ	-13274
▁ᱦᱚᱭ	-13275
▁میچ	-13276
▁फट	-13277
▁अवर्कळ्	-13278
▁ᱵᱷᱤ	-13279
▁स्थानिक	-13280
▁मुश्किल	-13281
▁एछ	-13282
ائد	-13283
حت	-13284
▁فرمان	-13285
یاز	-13286
▁مھ	-13287
दुर	-13288
▁لاڙڪاڻی	-13289
ाबि	-13290
नीत	-13291
▁اڀ	-13292
▁नङ	-13293
▁मुख्य़मन्त्री	-13294
▁केलं	-13295
▁शिल्प	-13296
ोतु	-13297
ideo	-13298
▁गेला	-13299
▁week	-13300
kum	-13301
▁منج	-13302
ᱚᱜᱚᱨ	-13303
ꯅꯩ	-13304
▁बिजिर	-13305
▁شک	-13306
▁کرے	-13307
▁घणे	-13308
▁वॉ	-13309
▁शैल	-13310
▁नज़र	-13311
ꯃꯥꯟ	-13312
▁गज	-13313
▁ᱢᱤᱥ	-13314
डंतो	-13315
ायाः	-13316
ستانس	-13317
▁Year	-13318
घ्र	-13319
bsp	-13320
▁व्यापक	-13321
▁giv	-13322
▁लगल	-13323
▁ییٚ	-13324
▁तगर	-13325
▁رن	-13326
▁شرٛ	-13327
षं	-13328
▁بجلی	-13329
खने	-13330
▁सॉ	-13331
ki	-13332
▁الیڪشن	-13333
▁نئون	-13334
▁Police	-13335
मगी	-13336
▁सेप्टेम्बर	-13337
▁four	-13338
रहेको	-13339
▁केतना	-13340
▁ऎन्न्	-13341
ेन्द्र	-13342
▁नेशनल	-13343
▁तेमने	-13344
▁कइसन	-13345
▁हार्	-13346
▁लिमि	-13347
इया	-13348
▁कार्यकर्त	-13349
ell	-13350
▁उसने	-13351
▁ᱪᱤᱱ	-13352
▁زیر	-13353
▁یہاں	-13354
ٲرؠ	-13355
▁पुलिसआ	-13356
▁مڙ	-13357
▁Kh	-13358
उड	-13359
▁شہری	-13360
▁कार्र	-13361
राक	-13362
▁विजे	-13363
▁२०१६	-13364
▁میرے	-13365
▁स्ट्र	-13366
▁گہو	-13367
▁ہمارے	-13368
▁आंक	-13369
▁पोरा	-13370
hawm	-13371
भॻ	-13372
▁लॻभॻ	-13373
▁हल्का	-13374
▁न्	-13375
▁मारी	-13376
▁प्रतिक्रिया	-13377
मेत	-13378
▁سلسل	-13379
▁रण्ट	-13380
▁बेखे	-13381
▁लेखन	-13382
▁बिधानसभा	-13383
▁बिरुद्ध	-13384
ुतू	-13385
ऩ्ऩै	-13386
ॆङ्कि	-13387
▁खपे	-13388
▁खाने	-13389
▁برو	-13390
▁सुझ	-13391
▁अवस्थित	-13392
سہ	-13393
ॆटुक्क	-13394
▁प्रतिष्ठान	-13395
▁भसीन	-13396
▁ओनसोलनि	-13397
▁शिश	-13398
▁कुठ	-13399
उज	-13400
▁महाराज	-13401
▁सचे	-13402
▁कर्मी	-13403
▁महिन	-13404
▁1990	-13405
▁رپ	-13406
करे	-13407
▁कयलु	-13408
▁ᱥᱟᱺᱜ	-13409
ᱤᱡᱽ	-13410
▁41	-13411
▁وٺڻ	-13412
▁قدم	-13413
▁कोंग	-13414
▁president	-13415
▁गलती	-13416
▁ᱱᱩᱠᱩ	-13417
▁अऱियि	-13418
artment	-13419
▁وول	-13420
ᱠᱚᱨ	-13421
itu	-13422
▁ᱚᱯᱷ	-13423
ाइजे	-13424
▁यत्	-13425
▁दिनो	-13426
▁سزا	-13427
▁tn	-13428
▁चॊल्ल	-13429
▁شیء	-13430
▁चली	-13431
▁जखन	-13432
▁लाप	-13433
▁ꯂꯦꯞ	-13434
▁چن	-13435
▁हण	-13436
▁एहाकु	-13437
▁प्रदर्श	-13438
▁بادشاہہ	-13439
िकल्प	-13440
हेन	-13441
क्कं	-13442
▁ᱴᱤ	-13443
▁ھیا	-13444
▁माफी	-13445
▁मोत	-13446
▁होॎ	-13447
ियिंद	-13448
▁ٽیم	-13449
राण	-13450
▁तेमनी	-13451
wn	-13452
▁ꯃꯇꯝꯅꯤ꯫	-13453
atur	-13454
प्पिट	-13455
▁آڪٽو	-13456
▁یار	-13457
पुरं	-13458
▁MP	-13459
▁गंसे	-13460
▁संतो	-13461
▁सामना	-13462
जिं	-13463
िऱार्कळ्	-13464
▁चाम	-13465
▁निकाल	-13466
▁ऎऩ्	-13467
▁ᱪᱟᱸᱫᱚ	-13468
▁आखिरी	-13469
▁हमले	-13470
▁तेर्त	-13471
hak	-13472
▁کیر	-13473
बंधी	-13474
ोइ	-13475
▁ملاقات	-13476
वरॆ	-13477
डेन	-13478
▁आश्च	-13479
र्कळै	-13480
▁हलो	-13481
▁khawp	-13482
▁inform	-13483
▁आहत	-13484
ꯗꯣꯛꯄ	-13485
वली	-13486
▁सतत	-13487
▁سائیٽ	-13488
▁उन्नय़न	-13489
▁sum	-13490
▁बिषय़ा	-13491
▁ء	-13492
चन्द्र	-13493
▁mark	-13494
र्स्	-13495
▁سارو	-13496
▁पर्यटक	-13497
ोरट	-13498
ट्रिक	-13499
▁किलोमि	-13500
▁जेके	-13501
नेन	-13502
▁لاز	-13503
▁ٻیہر	-13504
▁पुढ	-13505
▁ضلہٕ	-13506
ڈر	-13507
न्हि	-13508
कॆ	-13509
تیء	-13510
▁ꯊꯤ	-13511
▁बेहद	-13512
▁یقین	-13513
▁54	-13514
▁State	-13515
▁مرد	-13516
▁नियुक्त	-13517
▁leader	-13518
ڑا	-13519
डित	-13520
▁II	-13521
▁बिफान	-13522
âng	-13523
▁सजा	-13524
سٽس	-13525
काई	-13526
▁समावनो	-13527
▁खालि	-13528
▁लागी	-13529
▁जिल्ह	-13530
▁मावथि	-13531
▁केल्या	-13532
्रु	-13533
ᱸᱫᱽ	-13534
स्टर	-13535
▁केम	-13536
▁डोगरी	-13537
▁प्रौ	-13538
,9	-13539
▁टिप्प	-13540
्के	-13541
▁शर्म	-13542
shah	-13543
ांवर	-13544
य़ेर	-13545
▁तिथि	-13546
▁चुकी	-13547
▁atta	-13548
umbai	-13549
▁موسم	-13550
▁pulit	-13551
झो	-13552
▁جانے	-13553
▁पिछला	-13554
यति	-13555
▁شیون	-13556
▁पुगे	-13557
▁ग्रामं	-13558
▁اصول	-13559
ोरि	-13560
▁मूलम्	-13561
▁स़हिर	-13562
ᱵᱟᱭ	-13563
▁आदर्श	-13564
▁खोला	-13565
र्ल	-13566
▁नॆल	-13567
बगे	-13568
▁अष्ट	-13569
ched	-13570
ितीय	-13571
ᱟᱹᱰᱤ	-13572
▁पॆट्ट	-13573
▁مہین	-13574
▁ٺٽی	-13575
▁अनिल	-13576
राष्ट्रीय	-13577
▁फीसदी	-13578
▁مشھور	-13579
▁बजेट	-13580
▁प्रम	-13581
▁मोना	-13582
▁ꯁꯨꯞꯅ	-13583
▁بۄ	-13584
▁इब्राह	-13585
▁यूनी	-13586
▁पाटील	-13587
▁शुभकाम	-13588
▁mod	-13589
▁ꯏꯟ	-13590
▁ᱱᱟᱜᱟᱢ	-13591
वाळ	-13592
▁अत्	-13593
▁इप्पट	-13594
▁lung	-13595
▁सङ्ग	-13596
▁अमैच्च	-13597
▁इव्व	-13598
▁कपूर	-13599
▁उळ	-13600
▁जइसा	-13601
▁زندگیء	-13602
ised	-13603
▁ꯌꯥꯝꯅꯥ	-13604
्टि	-13605
▁बनाये	-13606
,7	-13607
ुत्तिद्दारॆ	-13608
▁जोईए	-13609
▁ऎत्त	-13610
भाब	-13611
▁ꯄꯥꯡ	-13612
▁مکی	-13613
ाहित	-13614
डेट	-13615
वाइ	-13616
▁64	-13617
▁पश	-13618
▁लोइ	-13619
▁भट्ट	-13620
▁ھیٺ	-13621
▁पिआ	-13622
▁संघटन	-13623
फाले	-13624
▁तॆलिपारु	-13625
▁सीधा	-13626
▁وائرس	-13627
▁संदेश	-13628
▁कुट्ट	-13629
▁वर्त	-13630
▁अभिप्राय	-13631
▁ममां	-13632
▁UP	-13633
▁साइट	-13634
▁घटक	-13635
वर्त	-13636
▁मदत	-13637
▁पाल्	-13638
▁हुम	-13639
▁गिन	-13640
▁उत्तरा	-13641
ाजाब	-13642
▁टिम	-13643
▁ᱢᱟᱭ	-13644
ोलि	-13645
▁kren	-13646
▁आवास	-13647
▁खालार	-13648
ल्ली	-13649
▁प्लान	-13650
▁रहइ	-13651
▁मोनो	-13652
ियू	-13653
▁ڪرو	-13654
کشن	-13655
खण्ड	-13656
▁शृ	-13657
▁कण्टॆ	-13658
▁कारोबार	-13659
प्रधान	-13660
हें	-13661
▁मातनाड	-13662
▁سیل	-13663
ology	-13664
▁इंतजार	-13665
▁देते	-13666
▁समू	-13667
▁वीट्ट	-13668
▁सिद्धांत	-13669
ायन	-13670
▁इदे	-13671
ऽपि	-13672
पूर्	-13673
▁मान्यता	-13674
▁कूऱ	-13675
▁बयान	-13676
▁bat	-13677
▁کمی	-13678
▁آڪٽوبر	-13679
▁तापमान	-13680
▁समष्टि	-13681
▁मानिल	-13682
▁آسٽ	-13683
▁नडॆसि	-13684
मरे	-13685
▁tû	-13686
▁how	-13687
▁ᱫᱷᱟᱨ	-13688
▁दिसंबर	-13689
ायचे	-13690
▁इतिमध्ये	-13691
▁कॊर	-13692
▁ᱯᱩᱱ	-13693
▁ईश्वर	-13694
its	-13695
▁वेगळ	-13696
ternational	-13697
ैध	-13698
▁टिका	-13699
ices	-13700
▁नास	-13701
▁खतम	-13702
▁यून	-13703
▁इंजी	-13704
ures	-13705
मानी	-13706
▁سیر	-13707
▁प्रशास	-13708
▁صوفی	-13709
▁जेंना	-13710
▁टर	-13711
▁ᱞᱮᱱᱟᱭ	-13712
बिजिर	-13713
▁मुक्किय	-13714
ᱚᱬᱮ	-13715
▁जनाएको	-13716
▁سنس	-13717
▁दाय	-13718
यान	-13719
▁62	-13720
▁खालामदों	-13721
▁रिश्ते	-13722
▁لہ	-13723
▁ᱟᱹᱨᱤ	-13724
▁वण	-13725
▁کون	-13726
▁राजकोट	-13727
اڻیء	-13728
▁सौर	-13729
बाही	-13730
▁अर्थात	-13731
▁پھرین	-13732
▁डेस्क	-13733
▁قانونی	-13734
▁माथ	-13735
▁बनाया	-13736
▁اڌ	-13737
डिट	-13738
▁पेस़	-13739
▁शताब्दी	-13740
▁jingi	-13741
▁घन	-13742
بیر	-13743
▁رت	-13744
▁लोन	-13745
▁ᱢᱟᱲᱟᱝ	-13746
▁سلسلی	-13747
▁अकाली	-13748
ड़िआ	-13749
ᱪᱟ	-13750
▁تحف	-13751
▁साहम	-13752
▁पदक्षेप	-13753
▁Ab	-13754
▁बादियै	-13755
▁ڊسمبر	-13756
▁किती	-13757
▁जंगल	-13758
▁गाउँपालिका	-13759
देशन	-13760
▁सग	-13761
▁ᱥᱟᱺᱜᱤᱧ	-13762
▁आयोजना	-13763
▁پید	-13764
होस्	-13765
▁مور	-13766
▁रहस्य	-13767
▁डिजिटेल	-13768
ाखि	-13769
▁مزاح	-13770
ꯀꯩ	-13771
▁علاقہٕ	-13772
▁घ्य	-13773
म्पर	-13774
▁गंगा	-13775
सिस	-13776
▁nbsp	-13777
▁प्रभु	-13778
▁خرید	-13779
न्दि	-13780
तिबाद	-13781
▁lakh	-13782
▁tiin	-13783
▁आस्त	-13784
चीत	-13785
पनी	-13786
▁साथै	-13787
▁आज़	-13788
▁खीर	-13789
ٹن	-13790
▁تین	-13791
▁नित्य	-13792
ꯟꯅꯕ	-13793
▁ᱵᱚᱱ	-13794
▁यहाँ	-13795
▁لفظن	-13796
▁produ	-13797
▁दिके	-13798
▁ٺاہڻ	-13799
▁विरु	-13800
▁اصط	-13801
▁پنن	-13802
▁गेली	-13803
▁चुका	-13804
▁ऎतिर	-13805
▁कदा	-13806
▁लामा	-13807
his	-13808
▁इऩ्ऱु	-13809
य़ु	-13810
ॆय्	-13811
ثار	-13812
▁जिसलै	-13813
▁मत्	-13814
▁हरेक	-13815
▁पहचान	-13816
ौता	-13817
▁ज्व	-13818
▁꯲꯰꯱꯵ꯒꯤ	-13819
▁दुप	-13820
▁मतो	-13821
▁काबर	-13822
▁सर्वा	-13823
सेज	-13824
▁अच्छ	-13825
▁Prime	-13826
▁तर्क	-13827
ٺیان	-13828
▁बचन	-13829
िस्स	-13830
▁विवे	-13831
▁अदुदा	-13832
▁str	-13833
क्कुक	-13834
त्तीस	-13835
ᱢᱩ	-13836
चारिक	-13837
DP	-13838
▁eff	-13839
ङ्गी	-13840
▁कण्ण	-13841
▁तामुल	-13842
ाज़ी	-13843
▁साक	-13844
awp	-13845
▁गले	-13846
▁तीर	-13847
ᱠᱟᱞ	-13848
▁میری	-13849
▁فرانس	-13850
▁कश्मीर	-13851
▁प्रोजेक्ट	-13852
ᱪᱤ	-13853
ause	-13854
▁شرٛنٛڈ	-13855
ᱡᱚᱢ	-13856
▁ᱨᱟᱹ	-13857
▁कर्ण	-13858
▁आण्टु	-13859
क्कुन्नु	-13860
▁ext	-13861
स्ऱ्ऱ्	-13862
▁परिचय	-13863
रित	-13864
ॆंट्	-13865
▁وزن	-13866
▁पंचायत	-13867
▁कर्युं	-13868
▁बाकि	-13869
प्पतु	-13870
▁पग	-13871
ून्य	-13872
धिकारि	-13873
▁आह्बान	-13874
▁थार	-13875
प्य	-13876
ꯟꯗꯨ	-13877
▁याबे	-13878
▁haba	-13879
द्दिन	-13880
▁मीटर	-13881
▁हटाए	-13882
ꯦꯕ	-13883
▁मुऱ	-13884
▁inter	-13885
▁Mumbai	-13886
▁emaw	-13887
▁सुनी	-13888
▁ᱥᱮᱴ	-13889
▁ایڇ	-13890
▁ꯂꯥꯢꯔꯦꯝꯕꯤ	-13891
क़े	-13892
ढ़े	-13893
ئس	-13894
▁बिकाश	-13895
डिक	-13896
▁صفح	-13897
हाट	-13898
▁قاضی	-13899
khat	-13900
▁रुपैयाँ	-13901
ٽیو	-13902
▁पॆद्द	-13903
फोट	-13904
▁राज्य़रे	-13905
▁मिश	-13906
rol	-13907
▁ٹو	-13908
ानुळ्ळ	-13909
▁बाकिर	-13910
▁सम्प्र	-13911
▁अगदी	-13912
▁خطاب	-13913
▁꯵	-13914
▁these	-13915
▁बाध	-13916
▁कार्रवाई	-13917
▁बिबाह	-13918
▁pos	-13919
▁थासारि	-13920
▁ꯃꯍꯥꯛꯅ	-13921
▁चालि	-13922
▁पूर्ति	-13923
▁इळ	-13924
▁عباد	-13925
ंजी	-13926
ंडे	-13927
▁ꯑꯔ	-13928
▁poll	-13929
▁सुबिधा	-13930
▁नाले	-13931
गानिस्तान	-13932
▁ᱫᱷᱟᱣ	-13933
▁त्वा	-13934
▁ब्रा	-13935
▁तिम	-13936
▁३३	-13937
हरुको	-13938
न्दगी	-13939
▁गोजोन	-13940
दिष्ट	-13941
▁आबेदन	-13942
▁دونوں	-13943
▁ᱚᱸᱰᱮ	-13944
▁All	-13945
▁मोला	-13946
साम	-13947
▁वजन	-13948
▁फ़िल्म	-13949
जिद	-13950
▁थशे	-13951
▁ᱦᱤᱸ	-13952
▁जॉ	-13953
▁ब्य़क्ति	-13954
▁شام	-13955
ट्चि	-13956
ुकयायिरुन्नु	-13957
▁ᱵᱚᱝ	-13958
▁ꯐꯥ	-13959
ona	-13960
▁ꯈꯨꯠ	-13961
sak	-13962
▁ᱪᱷᱟ	-13963
▁ایندڙ	-13964
▁لن	-13965
▁قد	-13966
▁मैंबर	-13967
▁यात्री	-13968
▁मत्तिय	-13969
▁१९६	-13970
▁बसे	-13971
▁अनुसन्धान	-13972
ꯂꯣꯏ	-13973
द्वारा	-13974
▁देशेर	-13975
▁ڊوی	-13976
▁स्ल	-13977
▁जिते	-13978
▁माध्यमिक	-13979
ٔر	-13980
▁لب	-13981
▁मिशन	-13982
▁करणे	-13983
श्रे	-13984
ायिरुन्न	-13985
▁لیکڪ	-13986
▁जिसमें	-13987
▁خراب	-13988
▁प्रार्थना	-13989
▁तत्व	-13990
▁मशागी	-13991
▁ꯇꯝꯕ	-13992
▁آمد	-13993
▁سنڀ	-13994
▁रसो	-13995
▁صوبائی	-13996
▁بط	-13997
▁अभिवृद्धि	-13998
▁महाव	-13999
▁مسی	-14000
▁निवासी	-14001
धीश	-14002
▁२०१७	-14003
▁उलक	-14004
▁फोट	-14005
▁ओखर	-14006
▁७०	-14007
कुमा	-14008
▁तकर	-14009
▁जिंदगी	-14010
▁एजे	-14011
ouncil	-14012
ائیو	-14013
▁इन्द्र	-14014
▁आओर	-14015
▁ᱠᱟᱹᱣ	-14016
▁मल्ल	-14017
▁पागल	-14018
▁आत्महत	-14019
▁ٻولین	-14020
▁ᱫᱷᱟ	-14021
ग्ने	-14022
▁होइस	-14023
▁निलैयिल्	-14024
▁गैया	-14025
▁कृप	-14026
बिद	-14027
▁मेने	-14028
▁زیٛادٕ	-14029
▁थप	-14030
डुग	-14031
▁53	-14032
▁187	-14033
گرٛافی	-14034
▁health	-14035
▁meeting	-14036
▁आबि	-14037
▁ୱ	-14038
ᱤᱨᱟ	-14039
▁فقط	-14040
ꯄꯦ	-14041
▁ڀاڱ	-14042
न्धी	-14043
▁اٹھ	-14044
▁बैसो	-14045
▁اتان	-14046
▁چیٖ	-14047
▁उत्थ	-14048
▁परिशोध	-14049
▁सन्मान	-14050
▁قبی	-14051
ittee	-14052
▁सिटी	-14053
▁रोगी	-14054
▁رقم	-14055
▁सस	-14056
▁होवय	-14057
▁ہین	-14058
ᱯᱤ	-14059
▁पोट्ट	-14060
▁तालिब	-14061
▁तुझ	-14062
्यव	-14063
ाय़ण	-14064
मदा	-14065
▁पर्य्य़न्त	-14066
▁शारी	-14067
ंदड़ु	-14068
गदबनि	-14069
▁अजून	-14070
▁चेत	-14071
ror	-14072
खिनि	-14073
ङ्ङळॆ	-14074
▁راڄ	-14075
▁ᱢᱟᱞ	-14076
▁ट्रक	-14077
▁इप्पुडु	-14078
▁काँ	-14079
▁कुऴन्त	-14080
ᱤᱭᱚ	-14081
▁मीरु	-14082
▁करेला	-14083
एच	-14084
▁officials	-14085
देस	-14086
म्मद	-14087
▁opp	-14088
▁अज्ज	-14089
شمن	-14090
▁रध	-14091
▁देशे	-14092
▁Sa	-14093
ٻی	-14094
दियां	-14095
▁निषेध	-14096
iness	-14097
▁᱑᱙᱕	-14098
▁इदॆ	-14099
शिव	-14100
ानदार	-14101
▁करती	-14102
▁ꯇꯣ	-14103
ुमति	-14104
▁arrest	-14105
▁کپ	-14106
▁Prad	-14107
ोभ	-14108
▁येणार	-14109
21	-14110
▁ᱢᱮᱱᱟ	-14111
▁نتیجی	-14112
▁थयो	-14113
▁گروپ	-14114
▁पूर्वी	-14115
▁lei	-14116
▁بغیر	-14117
िट्ट	-14118
▁अभियुक्त	-14119
▁could	-14120
▁جائز	-14121
▁लेन	-14122
▁ᱺ	-14123
खाल	-14124
ٕک	-14125
▁ماہر	-14126
▁खर्	-14127
ماغ	-14128
▁ٺہیل	-14129
▁दाह	-14130
▁टोली	-14131
▁موضوع	-14132
▁मुट	-14133
▁ben	-14134
▁ᱟᱨᱵᱟᱝ	-14135
▁ताङ्कर	-14136
▁इतना	-14137
▁ڏو	-14138
▁قومن	-14139
ऩे	-14140
पाटु	-14141
▁تصویٖر	-14142
िंप	-14143
▁لش	-14144
र्कळिऩ्	-14145
▁चित्रं	-14146
▁भिडिओ	-14147
nivers	-14148
▁प्रार्थी	-14149
▁death	-14150
▁اقبال	-14151
▁कॊड	-14152
ेण	-14153
ڇی	-14154
▁show	-14155
गीय़ा	-14156
▁२०१५	-14157
▁आजु	-14158
▁زال	-14159
▁آسمان	-14160
हेका	-14161
▁ऎक्कुव	-14162
▁ऐसी	-14163
▁make	-14164
▁करनी	-14165
▁सब्भ	-14166
▁तऽ	-14167
▁हत्य	-14168
▁नान	-14169
▁Pr	-14170
▁ᱰᱟ	-14171
भेद	-14172
▁शरी	-14173
ائب	-14174
▁ᱯᱟᱴ	-14175
▁चमक	-14176
▁स्पे	-14177
निआ	-14178
▁चड	-14179
▁पंज	-14180
▁ꯇꯤꯟꯒꯤ	-14181
ᱯᱟᱞ	-14182
▁1000	-14183
▁चॆंदिन	-14184
▁खाद	-14185
▁सः	-14186
बाबु	-14187
▁पयऩ्पटुत्त	-14188
▁आशी	-14189
iti	-14190
▁शेषं	-14191
▁छौ	-14192
▁तरे	-14193
प्पिच्च	-14194
▁कान्	-14195
▁कोक	-14196
दबनि	-14197
دھ	-14198
▁tylli	-14199
▁ᱩᱰᱟᱹᱱ	-14200
▁nun	-14201
▁मिड	-14202
ियतु	-14203
▁سکتا	-14204
ٹک	-14205
▁निह	-14206
▁माडुव	-14207
lobal	-14208
▁clai	-14209
ंपर	-14210
▁बिज्ञान	-14211
▁आपनार	-14212
बोध	-14213
▁दुर्घटना	-14214
▁थोर	-14215
▁1960	-14216
▁ꯂꯥꯢꯅꯤꯡꯒꯤ	-14217
ꯀꯣꯛ	-14218
▁تٔمؠ	-14219
▁न्याय़	-14220
▁لۄ	-14221
▁खू	-14222
▁taken	-14223
▁ᱯᱷᱮ	-14224
بح	-14225
uty	-14226
▁ترٛ	-14227
lak	-14228
▁विद्व	-14229
ٺا	-14230
▁इसका	-14231
▁त्याचा	-14232
ration	-14233
डे॒	-14234
भाषा	-14235
श्वास	-14236
▁जेम	-14237
▁मचा	-14238
ल्यावर	-14239
▁ꯅꯍ	-14240
▁جہاز	-14241
▁घंटा	-14242
▁روس	-14243
com	-14244
ᱤᱱᱤᱥ	-14245
ताल्	-14246
▁ᱢᱟᱦᱟ	-14247
्याच	-14248
▁झूठ	-14249
▁कॊन	-14250
▁शंक	-14251
▁माना	-14252
▁पंड	-14253
اڻن	-14254
▁زخ	-14255
▁ऎंदरु	-14256
▁those	-14257
नेत	-14258
▁रिव	-14259
▁थिला	-14260
▁جہڙوڪ	-14261
▁اسپتال	-14262
स्सी	-14263
▁انع	-14264
▁ꯀꯪꯂꯩꯄꯥꯛꯀꯤ	-14265
▁चोण	-14266
▁फाइल	-14267
ورہ	-14268
▁thing	-14269
▁سروس	-14270
▁सर्ब	-14271
▁due	-14272
▁पौर	-14273
▁वारु	-14274
▁صورتحال	-14275
ather	-14276
no	-14277
▁نیوز	-14278
▁الفر	-14279
नाह	-14280
पूर्वक	-14281
▁دوسرے	-14282
॑य	-14283
▁biang	-14284
▁लोकक	-14285
िंट	-14286
बढ़	-14287
▁سف	-14288
▁hma	-14289
▁गों	-14290
▁उपयुक्त	-14291
▁jingial	-14292
▁ᱵᱟᱝᱞᱟᱫᱮᱥ	-14293
▁دادو	-14294
▁ᱢᱤᱫᱴᱮᱱ	-14295
▁जानवर	-14296
▁इथ	-14297
▁ᱦᱟᱹᱵᱤᱡ	-14298
roup	-14299
▁shong	-14300
▁عز	-14301
▁निशा	-14302
▁Sc	-14303
▁निरा	-14304
▁ꯆꯥꯎꯔꯥꯛꯅ	-14305
▁آہیان	-14306
▁साहाय	-14307
▁योग्यता	-14308
aduh	-14309
▁बाइक	-14310
▁رہڻ	-14311
ڪیو	-14312
▁دۄہ	-14313
▁मति	-14314
ुत्तु	-14315
▁media	-14316
▁Pa	-14317
ाछ	-14318
▁۳	-14319
اما	-14320
▁बनाइ	-14321
▁छत्तीस	-14322
▁مائ	-14323
द्दरॆ	-14324
न्ती	-14325
खायनो	-14326
▁انھی	-14327
▁करतात	-14328
▁found	-14329
فید	-14330
▁ca	-14331
▁रैखाथि	-14332
▁निऱुवऩ	-14333
▁ꯁꯦꯛ	-14334
▁नन	-14335
▁कॊळ	-14336
ढो	-14337
▁त्यार	-14338
▁बेक	-14339
▁باپتھ	-14340
▁ꯃꯍꯥꯛꯁꯤ	-14341
▁आपणा	-14342
▁جسٽس	-14343
षां	-14344
टिनि	-14345
▁बेफोर	-14346
▁منتقل	-14347
▁सम्पूर्ण	-14348
▁खब	-14349
▁यूपी	-14350
80	-14351
▁थर	-14352
च्चे	-14353
▁सफाई	-14354
▁रेक	-14355
▁ᱦᱩᱰᱤᱧ	-14356
▁अबहीं	-14357
▁मारे	-14358
▁cur	-14359
▁गामिनि	-14360
▁नोड	-14361
▁نگ	-14362
▁चाँ	-14363
▁قص	-14364
▁ᱟᱫᱚ	-14365
▁मथौ	-14366
gy	-14367
्श	-14368
▁many	-14369
▁دلبر	-14370
▁جہاں	-14371
▁फैगौ	-14372
ٹے	-14373
▁मणिपुर	-14374
.30	-14375
▁मॅ	-14376
▁چئی	-14377
▁बाघ	-14378
▁मांस	-14379
▁loc	-14380
ालग	-14381
ovid	-14382
▁lada	-14383
॑ह	-14384
▁ऐप	-14385
▁فرمایا	-14386
ꯨꯔꯤ	-14387
▁फाउ	-14388
▁केन्द्रीय	-14389
▁फ्रे	-14390
▁लादों	-14391
गॊळ्ळ	-14392
▁ᱜᱟᱺ	-14393
▁ꯂꯣꯏ	-14394
रेज	-14395
▁pynlong	-14396
lled	-14397
▁पदक	-14398
▁हमेशा	-14399
▁سنڌیء	-14400
▁कटण	-14401
▁राहा	-14402
्यलु	-14403
▁ᱯᱟᱹ	-14404
▁سریٖ	-14405
▁जर्मन	-14406
▁مادٕ	-14407
▁wat	-14408
▁ᱟᱲᱟᱝ	-14409
▁प्रगति	-14410
▁سریٖنگر	-14411
▁पेपर	-14412
▁अमदाव	-14413
▁کول	-14414
▁مخدوم	-14415
▁बिथोन	-14416
▁आनि	-14417
तोटॆ	-14418
▁हेन	-14419
ali	-14420
▁चिन्न	-14421
▁اپنا	-14422
▁हुनजी	-14423
▁ہس	-14424
▁सिगा	-14425
CC	-14426
▁म्याउं	-14427
▁ڊویزن	-14428
14	-14429
▁دع	-14430
▁ईमेलूं	-14431
▁डिवाइस	-14432
▁hria	-14433
टिंग्	-14434
▁ᱦᱮᱰ	-14435
▁ब्लक	-14436
ञ्ञॆटु	-14437
ᱠᱟᱢ	-14438
▁तास	-14439
ंथ	-14440
▁मेडिकल	-14441
▁एकदा	-14442
ᱥᱛᱤ	-14443
▁एपी	-14444
▁1947	-14445
▁व्याव	-14446
▁How	-14447
▁होब	-14448
स्मिन्	-14449
▁क्षमा	-14450
▁Gand	-14451
चनी	-14452
▁घुम	-14453
▁विट्ट	-14454
ञ्जी	-14455
▁मंझ	-14456
▁मुझ	-14457
▁ॐ	-14458
िच्च	-14459
▁तत्	-14460
▁constit	-14461
बाड़ी	-14462
▁ओळख	-14463
▁मात्रमे	-14464
▁नानु	-14465
▁दासिम	-14466
▁اصطلاح	-14467
िसिकॊळ्ळ	-14468
▁دعو	-14469
िआइ	-14470
ریان	-14471
▁विश्ले	-14472
▁ममा	-14473
▁ایسے	-14474
ासँ	-14475
conom	-14476
▁189	-14477
दछ	-14478
▁पहल	-14479
▁चिकिॎस	-14480
▁ادارن	-14481
stru	-14482
▁फरक	-14483
▁सरि	-14484
▁वरकु	-14485
्थी	-14486
▁वरुम्	-14487
ild	-14488
▁Qu	-14489
िलुळ्ळ	-14490
▁رب	-14491
▁मुस्लिम	-14492
▁विदिआरथी	-14493
▁order	-14494
▁करदिआं	-14495
ystem	-14496
▁हाउस	-14497
▁ᱞᱟᱹᱭ	-14498
▁कमिशन	-14499
▁संचार	-14500
ela	-14501
ायिक	-14502
▁خرچ	-14503
▁ꯌꯥꯎꯕ	-14504
▁लड	-14505
▁सरल	-14506
lin	-14507
▁सक्छ	-14508
▁थया	-14509
▁gr	-14510
اریو	-14511
चिआं	-14512
▁गणित	-14513
▁बइठ	-14514
yns	-14515
▁run	-14516
करन	-14517
▁پین	-14518
▁مولوی	-14519
▁سائیز	-14520
▁ᱭᱩ	-14521
▁रथ	-14522
नन्त	-14523
▁For	-14524
▁प्रभाब	-14525
▁घरै	-14526
▁अइसे	-14527
▁روٗ	-14528
ोमां	-14529
रिऩ्	-14530
▁मागणी	-14531
▁तं	-14532
▁اسم	-14533
▁पुणे	-14534
▁جولاء	-14535
▁त्यसै	-14536
lan	-14537
ؤں	-14538
ꯜꯂ	-14539
▁हन्ना	-14540
ायोग	-14541
सङ्	-14542
▁ᱫᱚᱭ	-14543
▁ٻیون	-14544
स्तान	-14545
▁برابر	-14546
▁विना	-14547
▁दिनों	-14548
lad	-14549
▁जानिब	-14550
लबा	-14551
मानु	-14552
▁پڌ	-14553
▁आगबढ़	-14554
▁ڪاری	-14555
▁सफ़	-14556
▁قمبر	-14557
▁लान	-14558
▁ꯂꯩꯉ	-14559
▁सोड	-14560
▁आवड	-14561
▁185	-14562
▁الاھی	-14563
▁ڏٺو	-14564
▁क्षेत्रमा	-14565
▁मालूम	-14566
▁आस्पत्र	-14567
शै	-14568
ुरो	-14569
▁तॆरिय	-14570
▁माट्लाड	-14571
▁घरेल	-14572
▁सिगाङाव	-14573
▁३७	-14574
▁ख़िला	-14575
▁सूचन	-14576
▁रोखा	-14577
▁करिथिबा	-14578
▁ꯃꯈꯜ	-14579
▁فرم	-14580
▁सकै	-14581
▁देओ	-14582
▁सिहत	-14583
▁school	-14584
▁Acc	-14585
ᱡᱟᱣ	-14586
▁did	-14587
शार	-14588
▁मानि	-14589
ितः	-14590
▁पवार	-14591
▁सट	-14592
बीच	-14593
▁गेदे	-14594
▁ꯑꯣꯏꯅꯥ	-14595
▁चोदा	-14596
▁ᱦᱚᱸᱭ	-14597
▁حملو	-14598
سیم	-14599
▁कामय	-14600
▁लेदु	-14601
▁पक्क	-14602
▁दूरंलो	-14603
ामक	-14604
▁गर्भ	-14605
▁ملاز	-14606
▁قدرتی	-14607
▁Fri	-14608
थ्य	-14609
▁हल्की	-14610
▁तऩतु	-14611
▁३६	-14612
▁ॻ	-14613
▁वधार	-14614
▁प्रकल्प	-14615
▁थाकिब	-14616
▁فوٽ	-14617
▁हेफ	-14618
ाइड	-14619
▁छाप	-14620
िलिरुन्तु	-14621
तीने	-14622
حید	-14623
▁मक़	-14624
ندس	-14625
▁end	-14626
▁बिज्ञ	-14627
▁बढ़िया	-14628
पोल	-14629
▁भरण	-14630
सभक	-14631
ꯗꯃꯛ	-14632
nam	-14633
▁उॎस	-14634
▁वगै	-14635
▁साबित	-14636
سڪ	-14637
हरे	-14638
▁ᱢᱟᱨᱮ	-14639
▁ꯐꯝ	-14640
▁म्हणाले	-14641
to	-14642
▁मुम्बाइ	-14643
▁इन्हे	-14644
▁contin	-14645
ura	-14646
▁pynk	-14647
▁खुली	-14648
▁اسین	-14649
िरिक्कुन्नत्	-14650
▁इहाँ	-14651
لاق	-14652
▁त्यानंतर	-14653
ेम्ब	-14654
लेल्या	-14655
▁अमदावाद	-14656
▁ꯌꯥꯢ	-14657
▁विस़ेस़	-14658
▁तृतीय़	-14659
ोय	-14660
▁असली	-14661
▁sm	-14662
▁char	-14663
▁नाहे	-14664
▁जरुग	-14665
▁नेतृत्	-14666
▁अतोप्पा	-14667
▁सन्देह	-14668
श्मी	-14669
▁चलते	-14670
▁वकु	-14671
▁ᱟᱹᱭ	-14672
▁ᱱᱤᱛᱚᱜ	-14673
▁Bo	-14674
ेको	-14675
ꯔꯞ	-14676
▁ᱛᱷᱟᱯᱚᱱ	-14677
▁चुम	-14678
▁माजी	-14679
▁میڊیا	-14680
▁chaw	-14681
▁दिल्	-14682
▁रोजा	-14683
▁fac	-14684
▁गौरव	-14685
▁pynp	-14686
▁करतो	-14687
णम्	-14688
▁इसमें	-14689
▁लोय़नना	-14690
▁पाड	-14691
▁बॅ	-14692
▁खून	-14693
▁राखी	-14694
▁Post	-14695
▁jo	-14696
▁पर्वत	-14697
▁बचाव	-14698
ऴ्व	-14699
▁अशें	-14700
विन	-14701
▁ᱦᱟᱭ	-14702
▁सख	-14703
▁57	-14704
شان	-14705
▁ᱨᱩᱯ	-14706
▁فیوض	-14707
▁لاڳاپیل	-14708
▁गथ	-14709
ृती	-14710
श्न	-14711
▁डाक्टर	-14712
▁पिल	-14713
᱐ᱤ	-14714
▁رکن	-14715
▁الفرقان	-14716
▁ڪوبہ	-14717
▁....	-14718
▁ठेके	-14719
▁जेह्ड	-14720
13	-14721
▁पुष्प	-14722
▁भेक	-14723
▁Author	-14724
▁ᱟᱹᱫᱤ	-14725
▁अगत्य	-14726
▁एखर	-14727
اسین	-14728
▁تقریبا	-14729
ान्व	-14730
▁tim	-14731
▁ورتی	-14732
▁टुक	-14733
▁पॆऱ	-14734
▁उपाय़	-14735
▁शार	-14736
▁Sab	-14737
▁वृद्ध	-14738
▁भ्रष्टा	-14739
▁त्रण	-14740
▁tri	-14741
ियाय	-14742
गॊ	-14743
▁ret	-14744
▁आसीत्	-14745
▁रास़	-14746
ꯂꯥꯏ	-14747
▁ऒक्क	-14748
ائیڊ	-14749
▁نڪری	-14750
▁मीय़ाम	-14751
▁पृथ्वी	-14752
▁प्र॒	-14753
▁निऩै	-14754
▁ᱩᱥᱩᱞ	-14755
▁क्रि	-14756
वट	-14757
▁अन्नारु	-14758
▁Mang	-14759
▁ᱢᱮᱥᱟ	-14760
▁सरळ	-14761
▁زرداری	-14762
▁दुसर	-14763
▁Assam	-14764
▁हाय़बदु	-14765
▁कारज	-14766
▁उंटुंदि	-14767
▁mu	-14768
▁attack	-14769
ᱠᱥ	-14770
▁समां	-14771
▁कलक	-14772
▁tarik	-14773
▁بتا	-14774
▁तस्व	-14775
ٽرول	-14776
▁इस्लाम	-14777
توڻ	-14778
▁आपवामां	-14779
▁व्यक्तिगत	-14780
▁نہٕ	-14781
▁बांदर	-14782
▁ᱪᱟᱞᱟᱣ	-14783
▁अरच	-14784
▁꯶	-14785
▁किलोमीटर	-14786
उँदै	-14787
▁पडॆय	-14788
▁महत्त्व	-14789
▁تٲ	-14790
▁करवानी	-14791
▁एकजन	-14792
▁दींतो	-14793
मधील	-14794
▁سماج	-14795
▁down	-14796
ाचे	-14797
▁पहिने	-14798
▁राय़	-14799
ᱠᱛᱤ	-14800
▁ꯀꯨ	-14801
निया	-14802
چا	-14803
ینہ	-14804
▁क्लब	-14805
▁Sam	-14806
▁ꯑꯣꯏꯕ	-14807
▁सटीक	-14808
▁लानो	-14809
king	-14810
▁शिकायत	-14811
▁چل	-14812
▁سیپٽ	-14813
▁हादोरनि	-14814
▁مجموعی	-14815
▁ओर्	-14816
▁سپریم	-14817
चण	-14818
गुरु	-14819
जाबी	-14820
नांगौ	-14821
▁جیتوڻ	-14822
▁चाहिदा	-14823
▁ᱠᱚᱨᱟᱣ	-14824
ᱚᱵᱚᱨ	-14825
▁लग्	-14826
▁ज़रू	-14827
▁کرا	-14828
ाळ	-14829
▁रोल	-14830
▁مخصوص	-14831
▁मुलाक	-14832
▁سیپٽمبر	-14833
▁नद	-14834
▁ᱠᱟᱹᱣᱰᱤ	-14835
▁गनाय	-14836
onav	-14837
सिद्ध	-14838
▁काश	-14839
▁त्याच	-14840
▁बुंब	-14841
ुवार	-14842
▁सभनें	-14843
ᱸᱜᱽ	-14844
▁فرو	-14845
▁घेतला	-14846
▁रेसिपी	-14847
▁स्मृति	-14848
de	-14849
▁फोज	-14850
▁برطانوی	-14851
ract	-14852
▁नींद	-14853
न्तिर	-14854
▁कन्या	-14855
▁गेल्या	-14856
▁कुक	-14857
▁कडि	-14858
▁بارے	-14859
▁ख़िलाफ़	-14860
▁सहि	-14861
▁बहुते	-14862
▁भई	-14863
ᱚᱣᱟ	-14864
ैक्कु	-14865
ग्नि	-14866
▁det	-14867
▁माझे	-14868
अप	-14869
▁واپار	-14870
▁किउंकि	-14871
▁ज़रूरी	-14872
▁एसिया	-14873
च्छेद	-14874
▁ब्यबहार	-14875
نگی	-14876
▁कोलक	-14877
ٚر	-14878
▁चूंटणी	-14879
▁पाठ्य	-14880
▁नडॆस	-14881
▁امید	-14882
▁कसम	-14883
▁गेलै	-14884
▁ᱯᱚᱧᱪ	-14885
य्क्क	-14886
▁कंप्यू	-14887
डीपी	-14888
▁छॾ	-14889
▁निय़म	-14890
▁अमरीका	-14891
ओनी	-14892
▁हूँ	-14893
▁दोकान	-14894
▁पाण्ड	-14895
▁अहुम	-14896
ाकरण	-14897
▁घण्टा	-14898
रल्लि	-14899
बहादुर	-14900
क्टो	-14901
भीर	-14902
▁کوشش	-14903
▁१९५	-14904
▁प५	-14905
▁माओ	-14906
▁आश्चर्य	-14907
▁बिलकुल	-14908
▁ᱛᱩᱨ	-14909
यऱ	-14910
▁मंजूरी	-14911
▁Hind	-14912
बद्दल	-14913
▁ज़िल्हा	-14914
क्रो	-14915
▁मुख्यमन्त्री	-14916
▁देखत	-14917
▁conc	-14918
▁गेछे	-14919
लैक	-14920
▁मनि	-14921
▁अगिला	-14922
inistry	-14923
▁ᱚᱱᱠᱟ	-14924
lu	-14925
▁स्क्रीन	-14926
▁८०	-14927
▁नेह	-14928
▁پڪ	-14929
▁कोच	-14930
▁आनजाद	-14931
▁ᱚᱠᱚ	-14932
▁ꯄꯥꯟ	-14933
▁छात्रों	-14934
▁डिब	-14935
▁ہنٛدو	-14936
gg	-14937
▁اولہہ	-14938
▁ᱨᱮᱞᱣᱮ	-14939
वृत्त	-14940
یتے	-14941
▁याहा	-14942
▁نہروٗ	-14943
onavirus	-14944
▁ऎटुक्क	-14945
▁समोर	-14946
▁जख	-14947
▁ᱜᱷᱟ	-14948
▁ᱥᱟᱹᱜ	-14949
स्तर	-14950
▁vi	-14951
वर्सिटी	-14952
▁दखल	-14953
रकपा	-14954
▁कोरोन	-14955
▁120	-14956
▁विष्णु	-14957
ꯆꯤꯡ	-14958
▁59	-14959
ٕل	-14960
nes	-14961
▁جاتی	-14962
▁निधन	-14963
▁अनुदान	-14964
भु	-14965
्ट्	-14966
▁تخت	-14967
ided	-14968
▁गछ	-14969
▁असल्याचे	-14970
▁यूनि	-14971
▁नबी	-14972
▁साई	-14973
▁इलाके	-14974
▁ایسا	-14975
▁मञ्च	-14976
ڙھ	-14977
▁ꯊꯕ	-14978
कडून	-14979
्ड्	-14980
▁سامنے	-14981
▁You	-14982
िए	-14983
ꯨꯅ	-14984
▁तश	-14985
▁Gandhi	-14986
eric	-14987
▁चोट	-14988
िप्र	-14989
▁सिक	-14990
मध	-14991
▁03	-14992
▁उइ	-14993
म्य	-14994
▁य़ादे	-14995
ष्कार	-14996
▁ᱱᱤᱡ	-14997
▁पॆरिय	-14998
▁ᱩᱫᱩᱜ	-14999
▁᱒᱐᱐᱑	-15000
▁ᱦᱤᱱᱫᱤ	-15001
पीय	-15002
▁मथे	-15003
▁تنقی	-15004
▁नियुक्ति	-15005
▁East	-15006
ائیندی	-15007
▁लाज	-15008
▁निर्देशन	-15009
▁व्याख्य	-15010
▁नटैपॆ	-15011
▁بنگ	-15012
▁چیز	-15013
اط	-15014
▁But	-15015
▁स्वामी	-15016
▁भिड	-15017
ंडल	-15018
गड़्ह	-15019
▁किशोर	-15020
▁Rep	-15021
▁घटे	-15022
साई	-15023
▁अटै	-15024
▁अन्नि	-15025
▁दित्ती	-15026
▁वच्चि	-15027
▁वैरस्	-15028
▁وڏن	-15029
▁ᱰᱷ	-15030
लोन	-15031
भ्यः	-15032
▁ذاتی	-15033
उर	-15034
▁बिरोध	-15035
▁بحث	-15036
▁फायदा	-15037
रुक्कु	-15038
▁درمیان	-15039
▁गासैबो	-15040
▁निघ	-15041
▁کھۄتہٕ	-15042
▁حکم	-15043
▁Jam	-15044
▁विराट	-15045
▁ویجہو	-15046
▁اداری	-15047
्याला	-15048
▁پنجابی	-15049
▁तऱ्प	-15050
▁ऎरडु	-15051
▁khubor	-15052
▁निग	-15053
ुण	-15054
▁جیتوڻیڪ	-15055
▁ꯔꯦ	-15056
अम	-15057
▁प्रयत्	-15058
्टा	-15059
▁ᱵᱚᱫ	-15060
▁film	-15061
▁کیون	-15062
▁توان	-15063
▁येथील	-15064
▁ᱵᱟᱞ	-15065
▁हब	-15066
embly	-15067
▁ابراہی	-15068
▁पेठ	-15069
▁अजाद	-15070
▁ᱢᱟᱱᱟᱣ	-15071
▁हेळि	-15072
▁साउ	-15073
▁ٽال	-15074
▁लंबाई	-15075
▁बेव	-15076
▁ᱢᱩᱨ	-15077
▁बादि	-15078
▁Mahse	-15079
▁ऎटुत्त	-15080
▁ह्र	-15081
▁since	-15082
▁ꯑꯁ	-15083
▁वर्ल्ड	-15084
▁قری	-15085
▁فیب	-15086
थै	-15087
▁कहलकइ	-15088
ᱮᱱᱴ	-15089
्यसूची	-15090
▁करिबे	-15091
▁तुहाडे	-15092
▁कट्च	-15093
▁near	-15094
▁Union	-15095
▁आमतौर	-15096
▁come	-15097
ेद	-15098
▁आपल्य	-15099
ऱ्काक	-15100
▁हैः	-15101
▁निर्द्देश	-15102
▁ڪرایو	-15103
▁कराव	-15104
▁لڑ	-15105
शिप	-15106
▁Tag	-15107
▁عرصی	-15108
▁ہوگا	-15109
▁सेमाने	-15110
ागर	-15111
▁स्टार	-15112
केर	-15113
▁انتخ	-15114
ins	-15115
▁तालू	-15116
ड्यू	-15117
▁अभिनय़	-15118
ियिट्ट	-15119
▁cre	-15120
▁शामिलु	-15121
▁आउण	-15122
ued	-15123
اڻیون	-15124
▁सुबुंनि	-15125
▁ہئڻ	-15126
ायची	-15127
▁مالی	-15128
▁꯱꯴	-15129
र्जात	-15130
▁अन्वेषण	-15131
ꯥꯏꯗꯒꯤ	-15132
▁दाँ	-15133
▁गोपाल	-15134
▁रानी	-15135
▁अर्ध	-15136
᱔᱐	-15137
▁मच	-15138
▁नटव	-15139
qui	-15140
▁बताव	-15141
▁रं	-15142
▁आफू	-15143
▁زرعی	-15144
▁پرن	-15145
▁तिआर	-15146
▁एक्ट	-15147
़ी	-15148
▁तरुण	-15149
▁ڳاڙ	-15150
▁ꯃꯔꯤ	-15151
▁कुरु	-15152
▁अफ़	-15153
▁झालेल्या	-15154
▁कोंग्रेस	-15155
▁दिहेस	-15156
iam	-15157
ists	-15158
ving	-15159
वंत	-15160
ᱣᱟᱴᱚᱨ	-15161
▁प्रसंग	-15162
men	-15163
▁काश्मीर	-15164
पादन	-15165
▁ᱛᱟᱢ	-15166
دد	-15167
ाटो	-15168
नान	-15169
्तो	-15170
▁मुंहिंजी	-15171
नल्लि	-15172
▁पाज	-15173
▁कर्या	-15174
▁خور	-15175
▁वास्तविक	-15176
ᱮᱞᱮ	-15177
▁देखें	-15178
▁अय़	-15179
▁मूजिब	-15180
▁chhuah	-15181
▁पर्याप्त	-15182
शासन	-15183
گرافی	-15184
▁ऐन	-15185
▁ریاستھ	-15186
ूनी	-15187
▁दिसत	-15188
▁केशव	-15189
▁वैत्त	-15190
▁Sha	-15191
मीद	-15192
▁देण्यात	-15193
ꯕꯔ	-15194
बादि	-15195
▁أس	-15196
▁Sup	-15197
▁Tw	-15198
▁آل	-15199
▁سٺی	-15200
ऱो	-15201
▁दिते	-15202
▁वु	-15203
▁मतमदा	-15204
▁क्यू	-15205
▁haw	-15206
▁صوٗ	-15207
▁सचिब	-15208
▁रन्	-15209
▁takin	-15210
ौत	-15211
▁जाऊ	-15212
▁मुन्न	-15213
mih	-15214
▁बीते	-15215
्माण	-15216
▁ial	-15217
▁every	-15218
▁मसी	-15219
▁गंग	-15220
ूरि	-15221
▁بندر	-15222
ꯋꯥꯢꯔꯞ	-15223
▁ꯃꯌꯥꯢꯋꯥꯢꯔꯞ	-15224
وان	-15225
▁मंडल	-15226
क्कुऱि	-15227
▁सिरफ	-15228
विल्	-15229
ॆये	-15230
ᱢᱚᱱ	-15231
▁پڙہڻ	-15232
▁جاے	-15233
▁म्	-15234
▁एकत्र	-15235
ानिफ्राय	-15236
ᱫᱮ	-15237
▁य़ु	-15238
▁द्बा	-15239
▁जई	-15240
न्तं	-15241
▁کہنا	-15242
▁اننت	-15243
ज़न	-15244
ᱨᱩ	-15245
▁घड़ी	-15246
ٽائی	-15247
▁भितरे	-15248
▁रिकार	-15249
▁400	-15250
ाय़न	-15251
▁आंध्र	-15252
▁کڻ	-15253
▁around	-15254
ꯐꯨ	-15255
▁ऊं	-15256
▁مب	-15257
ॆयु	-15258
▁Feb	-15259
▁लिंक	-15260
हूर	-15261
भावना	-15262
▁जेर	-15263
▁public	-15264
▁hmun	-15265
▁दिएको	-15266
▁دیگر	-15267
▁may	-15268
ꯠꯀꯤ	-15269
सभमे	-15270
जॆ	-15271
▁برس	-15272
▁Monday	-15273
ुत्तवॆ	-15274
▁इहां	-15275
▁ᱢᱟᱬ	-15276
▁लगाए	-15277
▁अजद	-15278
▁علمی	-15279
▁ꯈꯣꯡ	-15280
▁نہایت	-15281
▁63	-15282
▁एम्	-15283
▁ساڳی	-15284
▁There	-15285
▁निफ्राय	-15286
▁sen	-15287
▁अखिल	-15288
▁बादल	-15289
▁ताहा	-15290
▁इन्स	-15291
▁जंदे	-15292
▁स्वदेश	-15293
ꯍꯧ	-15294
▁कहिड़े	-15295
▁३४	-15296
▁लगानी	-15297
ᱤᱫᱚ	-15298
▁छोटी	-15299
▁ᱞᱮᱱᱟ᱾	-15300
▁गिण	-15301
▁गुज	-15302
▁वया	-15303
ियं	-15304
▁सुभाणे	-15305
ساس	-15306
▁तेव	-15307
▁तस्वीर	-15308
▁पोतानी	-15309
▁بع	-15310
▁बॆळ	-15311
घड	-15312
▁ٽیڪنالاجی	-15313
सॆ	-15314
लोके	-15315
▁नियन्त्रण	-15316
ितम्	-15317
▁कयी	-15318
▁प्रतिदिन	-15319
िपार	-15320
डां	-15321
▁कास	-15322
▁꯱꯷	-15323
ख्रि	-15324
▁मुहिं	-15325
▁अहीं	-15326
▁स्वात	-15327
▁᱒᱕	-15328
▁ہوتے	-15329
▁ᱟᱢᱮᱨᱤ	-15330
ैक्क	-15331
▁धारणा	-15332
▁लुक	-15333
डमी	-15334
▁कमिटी	-15335
▁मिलल	-15336
▁७५	-15337
िकळिल्	-15338
्रेट	-15339
▁चिन	-15340
40	-15341
स्रि	-15342
▁तनि	-15343
▁हरी	-15344
न्नत्	-15345
रः	-15346
▁ओह्दे	-15347
▁سرڪار	-15348
ᱜᱩ	-15349
▁बिलियन	-15350
श्रम	-15351
▁बणाउण	-15352
▁गायुनि	-15353
ुल्	-15354
▁इब्ब	-15355
▁प्रतिभ	-15356
ᱟᱹᱠᱷ	-15357
yi	-15358
▁मार्केट	-15359
▁And	-15360
▁नटवटिक्क	-15361
ہیا	-15362
▁مکمل	-15363
▁ꯃꯈꯥ	-15364
▁प्रापत	-15365
▁अतिकार	-15366
▁दावबाय	-15367
قار	-15368
▁जड़ित	-15369
chn	-15370
▁کاتی	-15371
▁मूळ	-15372
ꯀꯨ	-15373
थौ	-15374
▁पर्यावरण	-15375
▁ᱢᱮᱱᱟᱜᱼᱟ᱾	-15376
▁उठे	-15377
▁مندر	-15378
▁मौजूदा	-15379
▁इंग्लै	-15380
ोह	-15381
▁जैसा	-15382
ٽڻ	-15383
▁نفس	-15384
ives	-15385
वुड	-15386
▁بیماری	-15387
▁والا	-15388
▁asked	-15389
▁अँ	-15390
▁وکیٖ	-15391
دل	-15392
▁हान्ज	-15393
▁नीती	-15394
▁केसी	-15395
▁सरबंध	-15396
▁انگریزن	-15397
▁बिक्री	-15398
▁हेळिदरु	-15399
▁گڏجی	-15400
▁सॊ	-15401
▁तमने	-15402
▁ब्राह्मण	-15403
▁ᱥᱟᱬ	-15404
▁यॊक्क	-15405
▁साडे	-15406
ुवतु	-15407
▁मुद्द	-15408
▁शिकार	-15409
▁ڪٿی	-15410
▁खेद	-15411
▁गायक	-15412
▁ہف	-15413
▁سرحد	-15414
्युनि	-15415
याऩ	-15416
▁kumba	-15417
ळिक	-15418
डिआ	-15419
▁होएत	-15420
र्ना	-15421
▁जम्मु	-15422
ٔژ	-15423
افر	-15424
▁सेरिद	-15425
रान	-15426
▁گادیء	-15427
यित	-15428
्यांच्या	-15429
▁शारीरिक	-15430
ाग्	-15431
म्मत	-15432
्टे	-15433
▁मजा	-15434
▁नावु	-15435
ो॒	-15436
▁हाबाफारियाव	-15437
▁اداڪار	-15438
▁अनौबा	-15439
संगत	-15440
وگ	-15441
▁انجام	-15442
raw	-15443
ानॆ	-15444
▁ᱠᱩᱢ	-15445
▁قبل	-15446
▁कार्यवाही	-15447
▁रव	-15448
▁home	-15449
▁ابتدائی	-15450
सूस	-15451
ages	-15452
▁युस	-15453
▁روشن	-15454
▁असल्याने	-15455
▁ہاتھ	-15456
▁शक्यता	-15457
▁सैं	-15458
▁कोड	-15459
▁जेट	-15460
▁घरी	-15461
▁ma	-15462
ुटैय	-15463
▁سڃاڻ	-15464
▁गड	-15465
▁very	-15466
भित्र	-15467
▁साम्र	-15468
ey	-15469
▁معاشی	-15470
सां	-15471
▁سٺو	-15472
▁मोस	-15473
▁ایڊی	-15474
जीक	-15475
ڪڻ	-15476
ᱯᱲᱟᱣ	-15477
شید	-15478
खौबो	-15479
▁ᱦᱤᱞᱚᱜ	-15480
اڻا	-15481
▁भूत	-15482
▁अहमद	-15483
न्च	-15484
पोतु	-15485
▁पीठ	-15486
▁बेबी	-15487
▁नञ्	-15488
▁तिरुवनन्त	-15489
▁घोषित	-15490
اجہ	-15491
▁अदि	-15492
▁تاز	-15493
डीआ	-15494
▁पोट	-15495
▁भरि	-15496
▁پوک	-15497
▁حیات	-15498
▁अजिहे	-15499
▁पटना	-15500
लिस	-15501
▁जेने	-15502
▁ڪلہو	-15503
▁होली	-15504
▁गुम	-15505
▁पावइ	-15506
▁former	-15507
▁रेखा	-15508
ङ्के	-15509
▁२०१४	-15510
लग	-15511
▁गणेश	-15512
ned	-15513
ुकळिल्	-15514
ابہ	-15515
▁عراق	-15516
▁dik	-15517
▁नामांक	-15518
ᱵᱷᱤ	-15519
▁बेस	-15520
तया	-15521
▁परस	-15522
ٿین	-15523
जाति	-15524
امت	-15525
▁एऱ्ऱवुं	-15526
ग्रस्त	-15527
▁औद्योग	-15528
▁ڪاٺ	-15529
꯭ꯔꯦ	-15530
▁nia	-15531
▁رسم	-15532
▁tr	-15533
▁ᱟᱸ	-15534
▁oper	-15535
▁खुस	-15536
ापित	-15537
▁ᱦᱚᱲᱢᱚ	-15538
जन्य	-15539
loy	-15540
▁خوبصورت	-15541
▁लौट	-15542
▁ऎंबु	-15543
▁Trump	-15544
▁انگل	-15545
य़क	-15546
▁हज़ार	-15547
तय	-15548
ंडो	-15549
▁घुस	-15550
▁आण्	-15551
▁باق	-15552
کٹر	-15553
▁गुद	-15554
▁उङ्कळ्	-15555
▁ᱚᱠᱛᱮ	-15556
▁قاس	-15557
ुकळुं	-15558
ञा	-15559
▁الزام	-15560
▁अर्जुन	-15561
ران	-15562
▁अस्य	-15563
बारी	-15564
तीय	-15565
els	-15566
▁गुन	-15567
▁مکیہ	-15568
खला	-15569
▁مارڪیٽ	-15570
▁इंग्लैंड	-15571
▁ढि	-15572
▁तैयारी	-15573
ꯣꯌꯨꯝ	-15574
▁نیب	-15575
▁बम	-15576
▁नेटवर्क	-15577
ادہ	-15578
वाच	-15579
ऱा	-15580
▁तॆगॆ	-15581
▁तुटङ्ङिय	-15582
▁इउन	-15583
▁مقدار	-15584
▁बेठ	-15585
▁ڌار	-15586
▁gu	-15587
▁पाहिजे	-15588
▁کیونکہ	-15589
्ध	-15590
▁दले	-15591
▁टुइ	-15592
▁طلب	-15593
▁इही	-15594
खं	-15595
ᱩᱜᱽ	-15596
▁जीब	-15597
▁मुठ	-15598
▁بۆ	-15599
▁ꯂꯩꯉꯥꯛ	-15600
ताः	-15601
▁खुले	-15602
عید	-15603
कर्मी	-15604
اوی	-15605
▁हाण	-15606
▁وطن	-15607
▁सभ्य	-15608
▁آسہ	-15609
▁راڳ	-15610
ँदे	-15611
▁ꯌꯨꯝ	-15612
▁لاڳو	-15613
▁मुख़	-15614
▁بک	-15615
▁शाक	-15616
▁ꯀꯦ	-15617
▁भारतनि	-15618
▁करायाइथिला	-15619
िसलाग	-15620
▁تمن	-15621
मान्त	-15622
त्प	-15623
▁ᱜᱟᱺᱴ	-15624
▁चुदि	-15625
دوار	-15626
ᱵᱟᱹᱥᱤ	-15627
▁थें	-15628
ुतोंदि	-15629
▁Kat	-15630
▁कॊन्नि	-15631
▁رفتار	-15632
▁ढाका	-15633
▁प्लेट	-15634
▁چڪا	-15635
▁डॆ	-15636
▁विद्यार्थि	-15637
ंगिक	-15638
ॆयाग	-15639
▁ꯃꯥꯏ	-15640
▁केलक	-15641
vin	-15642
▁lad	-15643
▁बाँह	-15644
▁pynb	-15645
▁ꯈꯥꯢ	-15646
▁رہندو	-15647
▁फोन्	-15648
▁family	-15649
▁झड	-15650
॑म	-15651
▁ऎतिर्	-15652
ियुम्	-15653
▁राम्रो	-15654
▁رخ	-15655
▁पेच	-15656
▁لوڪ	-15657
▁jingb	-15658
▁पोह	-15659
नीं	-15660
▁दरेक	-15661
▁बिरुद्धे	-15662
▁Pradesh	-15663
▁तामुलपुर	-15664
▁اسٽیشن	-15665
▁आमच्या	-15666
▁پیغمبر	-15667
▁दिहा	-15668
▁व्यक्तमा	-15669
▁ᱵᱽ	-15670
▁प्रॊ	-15671
ट्ल	-15672
▁پراڻی	-15673
▁नायबिजिर	-15674
ज़ो	-15675
▁ula	-15676
▁ꯃꯆꯥꯅꯨ	-15677
▁next	-15678
▁ꯃꯅꯥ	-15679
▁ᱡᱟᱹᱥᱛᱤ	-15680
ꯄꯣꯛ	-15681
ाची	-15682
دود	-15683
ख्	-15684
पताल	-15685
▁काप	-15686
▁قلعی	-15687
▁माडिद	-15688
ात्कार	-15689
▁چونڊیو	-15690
▁केवळ	-15691
▁कराई	-15692
▁راہ	-15693
▁مناسب	-15694
▁फुटबल	-15695
▁शरण	-15696
▁टेली	-15697
pi	-15698
ालिक	-15699
हिँ	-15700
▁स्टाफ	-15701
▁आपल्याला	-15702
▁चेसिंदि	-15703
▁प्रसिड	-15704
▁तस्	-15705
▁कुमार्	-15706
▁jingj	-15707
▁जौग	-15708
▁कॊल्ल	-15709
ुमॆ	-15710
ꯌꯥꯟ	-15711
▁par	-15712
▁खत्म	-15713
तुनि	-15714
▁قوت	-15715
▁tre	-15716
▁चलाइ	-15717
▁एउटा	-15718
▁शामल	-15719
▁व्यक्ती	-15720
्यान्य	-15721
ination	-15722
▁लाइमोन	-15723
ꯇꯤꯡ	-15724
ुकॊण्ट	-15725
ंटि	-15726
▁परामर्श	-15727
▁نج	-15728
▁मुजब	-15729
▁ठो	-15730
▁सवार	-15731
ience	-15732
ril	-15733
िषद	-15734
्रेशन	-15735
▁मसिबु	-15736
▁कर्तव्य	-15737
▁لگا	-15738
▁जाएगी	-15739
▁स्बाधीन	-15740
▁برط	-15741
▁चढ	-15742
▁जणाप	-15743
▁زٕ	-15744
थान	-15745
دادڪوٽ	-15746
▁नोकरी	-15747
▁तिच्या	-15748
ृपक्ष	-15749
तुम्	-15750
▁چینی	-15751
॒द	-15752
िनुं	-15753
▁हाजा	-15754
▁انھیء	-15755
▁Friday	-15756
▁मोननो	-15757
▁मोठ्या	-15758
▁2022	-15759
▁कब्	-15760
▁تاکہ	-15761
थाया	-15762
क्ष्य	-15763
▁कबहुँ	-15764
▁نظم	-15765
ands	-15766
▁ꯀꯔꯤ	-15767
▁66	-15768
▁महिलाएं	-15769
▁शराब	-15770
▁कोम्प	-15771
▁लेइ	-15772
▁मेऱ्क	-15773
▁अभाव	-15774
▁꯱꯶	-15775
ꯁ꯭ꯄꯤ	-15776
ᱮᱢᱟ	-15777
deng	-15778
▁ꯆꯤ	-15779
▁अनुवाद	-15780
▁51	-15781
▁held	-15782
▁ज़ोर	-15783
▁अधिकारियों	-15784
یران	-15785
▁رضا	-15786
▁pyni	-15787
▁सारि	-15788
▁सास	-15789
भाल	-15790
िरहेको	-15791
▁कय़ेक	-15792
▁कनिप	-15793
▁भागी	-15794
▁मखोय़ना	-15795
ross	-15796
بلڪ	-15797
▁बुर	-15798
▁ꯍꯧꯖꯤꯛ	-15799
▁دشمن	-15800
वांत	-15801
▁سڄ	-15802
▁شخصیت	-15803
कलन	-15804
▁بڑی	-15805
▁माटि	-15806
▁قبضو	-15807
ڑے	-15808
▁नोंद	-15809
▁मोद	-15810
ोगे	-15811
▁Secretary	-15812
ींम	-15813
▁مریض	-15814
▁پت	-15815
▁माक	-15816
▁अॻ	-15817
▁ابراہیم	-15818
▁पिट	-15819
شتہ	-15820
▁विकेट	-15821
मात	-15822
▁ꯁꯤꯁꯨ	-15823
▁منع	-15824
▁अपह	-15825
▁त्याची	-15826
▁ᱯᱨᱟᱭ	-15827
,8	-15828
▁कृपया	-15829
▁नेहाथारि	-15830
▁ओसे	-15831
▁sak	-15832
▁رستی	-15833
आती	-15834
▁करेगा	-15835
▁गिणती	-15836
▁केंद्रं	-15837
▁मतु	-15838
्रीत	-15839
▁अबस्थ	-15840
▁pyns	-15841
▁ठूलो	-15842
▁मिं	-15843
▁सॆक्र	-15844
▁वडा	-15845
▁ꯂꯩꯈꯥꯢ	-15846
न्ततु	-15847
खाना	-15848
ॆगळन्नु	-15849
ᱤᱞᱤ	-15850
▁know	-15851
▁रहैत	-15852
▁पार्व	-15853
ाटु	-15854
ासून	-15855
▁विळै	-15856
▁रूपमे	-15857
बाईल	-15858
▁ᱟᱭᱳ	-15859
▁سوشل	-15860
▁बानाय	-15861
▁Co	-15862
िसे	-15863
▁टेलि	-15864
▁buh	-15865
▁खेत्तर	-15866
▁नॎ	-15867
▁छुं	-15868
▁दुनू	-15869
▁अब्द	-15870
▁जांदी	-15871
ᱝᱜᱽ	-15872
ꯁ꯭ꯄꯤꯌꯔ	-15873
▁ꯁꯦꯛꯁ꯭ꯄꯤꯌꯔ	-15874
रीय	-15875
▁ꯑꯗꯨꯒꯤ	-15876
▁Air	-15877
▁रह्युं	-15878
gram	-15879
ᱟᱹᱦᱤ	-15880
▁یوسف	-15881
▁پلا	-15882
▁زٲژ	-15883
▁erawh	-15884
▁अश्व	-15885
رز	-15886
▁यूरोप	-15887
▁ڪامیاب	-15888
षन	-15889
▁मोडी	-15890
▁samla	-15891
▁करणार	-15892
ताम	-15893
▁चिह्नट	-15894
दरु	-15895
▁आवेला	-15896
▁Sang	-15897
▁सुझाव	-15898
▁ٺاھ	-15899
▁ڀرسان	-15900
ٹھی	-15901
▁हादों	-15902
▁अधिनियम	-15903
ific	-15904
▁ممڪن	-15905
▁ᱱᱚᱜᱚᱨ	-15906
लाईन	-15907
▁जिन्हां	-15908
▁turin	-15909
ꯟꯁꯤ	-15910
यात्र	-15911
پس	-15912
ᱚᱞᱟ	-15913
▁ꯈꯔ	-15914
मांड	-15915
▁World	-15916
▁प्या	-15917
▁نئی	-15918
ाज्	-15919
▁घू	-15920
▁क़िस्म	-15921
▁پٿر	-15922
▁हाय़खि	-15923
▁᱑᱐᱐	-15924
▁عیسوی	-15925
▁गसाइ	-15926
▁प्रतिबंध	-15927
▁واقعی	-15928
▁ᱯᱚᱱ	-15929
ڪام	-15930
▁৷	-15931
▁Cor	-15932
▁چئن	-15933
▁कुदर	-15934
▁आबादारि	-15935
▁अवतरण	-15936
ᱨᱟᱭ	-15937
▁ᱵᱷᱮᱜ	-15938
▁विडु	-15939
▁हेफाजाब	-15940
▁معامل	-15941
▁सफर	-15942
▁ᱯᱟᱦ	-15943
▁४२	-15944
▁थिसन	-15945
सहित	-15946
▁मासि	-15947
ᱩᱨᱜ	-15948
▁होनायनि	-15949
िसा	-15950
ᱵᱟᱥ	-15951
▁सामूह	-15952
्यक	-15953
book	-15954
▁पहिरीं	-15955
نڊن	-15956
▁दिल्ही	-15957
▁सूरज	-15958
▁ꯑꯂꯤ	-15959
▁इंडियन	-15960
▁नवंबर	-15961
▁Mo	-15962
्बि	-15963
▁दावे	-15964
▁अला	-15965
آمد	-15966
▁कदें	-15967
▁02	-15968
▁करल	-15969
ٕس	-15970
ꯅꯣ	-15971
پال	-15972
▁ڊو	-15973
▁ममांदा	-15974
▁हसपताल	-15975
ꯗꯤꯡ	-15976
▁رھی	-15977
▁ᱥᱨᱤ	-15978
ᱴᱤᱥ	-15979
▁हळ	-15980
▁फू	-15981
▁गायं	-15982
▁most	-15983
▁اھڙی	-15984
▁अदाकारी	-15985
▁ᱦᱮᱰᱠᱩ	-15986
लिफ़	-15987
راسٹ	-15988
▁पातुका	-15989
▁थय	-15990
▁ڪمپیو	-15991
▁साफ़	-15992
▁شاگردن	-15993
▁होंगे	-15994
▁اتحاد	-15995
बना	-15996
▁अनुसारे	-15997
▁दरज	-15998
ाक़	-15999
▁फोरमायदों	-16000
▁हाग्रामा	-16001
▁ᱮᱯ	-16002
▁زان	-16003
▁وڪی	-16004
ᱥᱟᱞ	-16005
िसुत्तदॆ	-16006
▁डिजिटल	-16007
▁माहिति	-16008
▁دٻ	-16009
▁سامہون	-16010
emic	-16011
▁इरण्टु	-16012
▁सेन्	-16013
▁ملن	-16014
▁याक	-16015
▁जबर	-16016
▁pan	-16017
▁इऩ्ऩ	-16018
▁जगन्	-16019
थिबारु	-16020
▁प्रतियोगिता	-16021
▁सोलोंथाइ	-16022
▁पल्ल	-16023
▁इब्राहींम	-16024
year	-16025
▁Council	-16026
NA	-16027
▁करीं	-16028
▁Commission	-16029
▁मय	-16030
दिल्ली	-16031
▁टेष्ट	-16032
▁०१	-16033
افظ	-16034
▁वासी	-16035
▁गाब	-16036
▁ڪناری	-16037
▁चाली	-16038
▁एकाउ	-16039
▁जानते	-16040
▁مختصر	-16041
िसु	-16042
मुना	-16043
▁अइस	-16044
▁एले	-16045
▁اسرائی	-16046
▁شڪارپور	-16047
िय़ते	-16048
▁lar	-16049
▁अगली	-16050
▁اڳوڻی	-16051
▁बन्धु	-16052
▁پیدائش	-16053
ꯔꯕꯥ	-16054
ꯏ꯫	-16055
वाथी	-16056
▁پٲٹھ	-16057
mai	-16058
▁मुद्दे	-16059
▁गारि	-16060
▁بۆڈ	-16061
قرار	-16062
▁केटलाक	-16063
▁इलङ्क	-16064
▁حما	-16065
र्वु	-16066
▁निर्धारित	-16067
ves	-16068
▁आशुपत्र	-16069
▁यज	-16070
ूर्व	-16071
▁विधे	-16072
▁इणै	-16073
▁फिट	-16074
▁दिक्	-16075
ꯁꯛ	-16076
▁कमरे	-16077
tal	-16078
पचारिक	-16079
▁ᱡᱚᱡ	-16080
سٽم	-16081
▁मंजूर	-16082
▁تبدیلی	-16083
पटि	-16084
▁दाई	-16085
ꯈꯠ	-16086
▁اہڙا	-16087
▁منظور	-16088
कुति	-16089
▁आर्ट	-16090
▁देइथिले	-16091
▁होऊ	-16092
सिल	-16093
▁सिब्ब	-16094
▁संख्य़ा	-16095
योः	-16096
ोज़	-16097
ars	-16098
▁tel	-16099
▁چوڌ	-16100
▁बहन	-16101
▁ᱚᱪᱚ	-16102
▁इस्तै	-16103
▁चॆऩ्ऱ	-16104
ामत	-16105
▁मण्डल	-16106
▁उसकी	-16107
▁सभन	-16108
▁right	-16109
ायुं	-16110
▁कक्ष	-16111
▁امر	-16112
بات	-16113
▁हमें	-16114
بری	-16115
▁खातीर	-16116
▁पेय़े	-16117
िक्कुं	-16118
▁हटा	-16119
▁لشڪر	-16120
▁सुरुवात	-16121
▁कॆलवु	-16122
ꯦꯁꯟ	-16123
▁گرا	-16124
▁بدل	-16125
▁शको	-16126
▁खालामो	-16127
्त्ति	-16128
▁हृद	-16129
نٛگ	-16130
▁जायें	-16131
ثریت	-16132
▁वेतन	-16133
oot	-16134
▁᱑᱙᱔	-16135
▁सहभागी	-16136
ured	-16137
्को	-16138
▁बोध	-16139
श्बर	-16140
▁लेदा	-16141
▁تمہ	-16142
▁किमी	-16143
por	-16144
कम्	-16145
▁वांग	-16146
ुकुन्न	-16147
▁हागोन	-16148
▁national	-16149
osed	-16150
▁پوندو	-16151
्रित	-16152
माणु	-16153
▁सती	-16154
▁पजि	-16155
ांनाय	-16156
▁ᱮᱞᱟ	-16157
▁धरम	-16158
▁माउ	-16159
▁प्रतीक	-16160
▁ᱜᱽ	-16161
ᱫᱽᱨᱚ	-16162
▁लॉकडाउन	-16163
جان	-16164
▁جیسے	-16165
▁ᱥᱩᱢ	-16166
▁des	-16167
▁ᱟᱹᱲ	-16168
him	-16169
▁एको	-16170
▁रसोई	-16171
▁tho	-16172
▁کارڈ	-16173
य़ारि	-16174
▁ᱦᱮᱰᱠᱩᱣᱟᱴᱚᱨ	-16175
▁भनेर	-16176
▁nen	-16177
▁مرڪزی	-16178
िस्तुन्नारु	-16179
▁fur	-16180
▁آیت	-16181
▁सबले	-16182
▁नाच	-16183
▁वॆल्ल	-16184
▁ᱞᱟᱭ	-16185
▁بت	-16186
▁جرمنی	-16187
▁जरुरी	-16188
▁आवय	-16189
▁करेल	-16190
▁भगव	-16191
chhu	-16192
▁ꯈꯣꯌꯨꯝ	-16193
▁ᱠᱷᱚᱸᱰ	-16194
▁टन	-16195
▁ᱵᱟᱜ	-16196
▁hrilh	-16197
▁کبھی	-16198
▁꯸	-16199
▁अऱिव	-16200
▁शव	-16201
पाळ	-16202
▁अन्यान्य	-16203
▁ᱥᱚᱵᱷᱟ	-16204
▁वाणिज्य	-16205
▁अधार	-16206
▁آصف	-16207
▁गैस	-16208
▁येईल	-16209
▁हाजर	-16210
▁अक्टोबर	-16211
▁pyrshah	-16212
hm	-16213
▁نٿا	-16214
▁हासपात	-16215
रोज	-16216
▁دٔ	-16217
▁اکر	-16218
▁पावत	-16219
ᱵᱚᱱ	-16220
▁پوی	-16221
▁हमारे	-16222
▁संसाधन	-16223
▁وزارت	-16224
लेटर	-16225
ॊंद	-16226
▁मखल	-16227
ाब्ला	-16228
▁ᱱᱚᱝ	-16229
▁naduh	-16230
▁निर्ण	-16231
bu	-16232
▁उद्घाटन	-16233
▁ᱞᱟᱦᱟ	-16234
▁तिऱ	-16235
ढ़ा	-16236
▁तिला	-16237
▁child	-16238
▁Tues	-16239
▁ट्राय	-16240
itter	-16241
▁सर्वोच्च	-16242
▁विद्युत्	-16243
▁ठाकरे	-16244
▁लड़ाई	-16245
▁स्पर्ध	-16246
▁घेतली	-16247
▁सिन	-16248
▁तिथे	-16249
▁पीएम	-16250
नबगी	-16251
▁मोबाईल	-16252
▁रहेशे	-16253
▁آغاز	-16254
▁Min	-16255
▁ائ	-16256
▁करुथिबा	-16257
▁Tuesday	-16258
▁hnenah	-16259
▁اچن	-16260
टां	-16261
▁झि	-16262
य़ो	-16263
▁जिह	-16264
लिदॆ	-16265
▁صدار	-16266
▁accused	-16267
▁ꯁꯔꯨꯛ	-16268
▁रण्ट्	-16269
्यात्	-16270
▁सरकारने	-16271
▁ज्यादातर	-16272
▁درج	-16273
▁गरज	-16274
▁सम्पू	-16275
▁top	-16276
▁پلوۄم	-16277
▁बाटइ	-16278
▁रहियो	-16279
क्सिन	-16280
▁لطیف	-16281
▁ڏینھن	-16282
▁रखने	-16283
पदा	-16284
ᱭᱟᱭ	-16285
میو	-16286
▁पब्ल	-16287
▁पितृ	-16288
▁phah	-16289
▁अय्य	-16290
▁ᱯᱩᱨᱩ	-16291
▁गा॒ल्	-16292
▁ڪڍی	-16293
▁सुने	-16294
िसबेकु	-16295
▁शूटिंग	-16296
▁Joh	-16297
eet	-16298
▁उद्यान	-16299
جاج	-16300
tip	-16301
ᱣᱟᱱ	-16302
▁Sund	-16303
▁मंचि	-16304
ꯨꯅꯥ	-16305
▁कहिड़ी	-16306
▁حقیقی	-16307
▁तुमच्या	-16308
▁لڳا	-16309
▁آندو	-16310
▁बिशिष्ट	-16311
▁good	-16312
▁عبادت	-16313
▁پنہنجن	-16314
गं	-16315
▁विषयं	-16316
स्वर	-16317
ंपै	-16318
▁सकारात्मक	-16319
▁کنڊ	-16320
▁निहत	-16321
▁वरॆ	-16322
▁गुप्त	-16323
त्रिक	-16324
थाम	-16325
ours	-16326
लेदु	-16327
▁आख़	-16328
▁लगा॒	-16329
▁सोह	-16330
▁रात्री	-16331
▁कक्षा	-16332
बिन	-16333
▁ꯊꯣꯛꯅ	-16334
॒ज्ञ	-16335
न्टार	-16336
▁آیل	-16337
ियाग	-16338
▁सोरखारनि	-16339
▁मुंदु	-16340
प्पिल्	-16341
▁विधायक	-16342
hia	-16343
▁phu	-16344
▁दक्षि	-16345
▁थिनि	-16346
ॆयुळ्ळ	-16347
▁पुनर्	-16348
▁rev	-16349
▁خیرپور	-16350
▁गर्मी	-16351
▁मुलाकात	-16352
ᱚᱥᱴ	-16353
ꯛꯇꯥ	-16354
▁व्हि	-16355
▁प्रपंच	-16356
थायै	-16357
▁स्टेट	-16358
▁جہن	-16359
▁उपाध्यक्ष	-16360
▁सरकारि	-16361
▁فیبروری	-16362
▁तमारी	-16363
▁ᱥᱳ	-16364
▁करायिब	-16365
▁इस्पी	-16366
▁کئی	-16367
SU	-16368
ᱨᱚᱢ	-16369
▁अङ्ग	-16370
▁واب	-16371
▁भूमिक	-16372
▁leg	-16373
▁लाय	-16374
▁बचपन	-16375
▁जिल्हा	-16376
▁वाइरस	-16377
▁निः	-16378
▁जिथे	-16379
स्ट्री	-16380
▁ताण	-16381
▁भूक	-16382
ष्टे	-16383
ᱱᱟᱞ	-16384
▁नूतन	-16385
गेर	-16386
▁꯹	-16387
▁व्यवस्थापन	-16388
▁ꯁꯅꯥ	-16389
tak	-16390
▁نڪر	-16391
▁कमिटि	-16392
▁اسما	-16393
ave	-16394
▁इन्न्	-16395
احت	-16396
▁चॆप्पारु	-16397
जइ	-16398
ᱨᱳ	-16399
▁एभळि	-16400
ٲن	-16401
प्पट्टुळ्ळतु	-16402
▁फैल	-16403
आरि	-16404
प्रमाणे	-16405
▁संकल्प	-16406
ety	-16407
▁केबळ	-16408
زیز	-16409
▁भाशा	-16410
अघि	-16411
▁بانی	-16412
▁ꯉꯥ	-16413
संख्य	-16414
ाळ्	-16415
▁महल	-16416
▁पैन	-16417
▁आहो	-16418
बर्	-16419
बाइ	-16420
▁हाती	-16421
▁मुड़	-16422
▁प्रस्तुतं	-16423
▁جاگیر	-16424
▁जऩ	-16425
▁गतक	-16426
▁३८	-16427
▁कौशल	-16428
▁थाबैनो	-16429
▁پارلیا	-16430
▁69	-16431
▁ᱠᱚᱱ	-16432
▁दलित	-16433
▁थागिबि	-16434
▁یونیورسٽیء	-16435
▁जुदा	-16436
▁केहि	-16437
▁कॊरोऩा	-16438
वच्चु	-16439
्भत	-16440
▁दर्दी	-16441
▁ویئی	-16442
▁थुनलाइ	-16443
▁हिँ	-16444
गित	-16445
▁शंका	-16446
▁होवेगा	-16447
▁सान्	-16448
▁आदित्य	-16449
▁आत्महत्या	-16450
▁प्रयोजन	-16451
▁पिल्ल	-16452
▁पॆण	-16453
▁ꯃꯁꯤꯁꯨ	-16454
▁आय़ोजन	-16455
▁पढ़ाई	-16456
त्तिर	-16457
ᱤᱴᱟᱨ	-16458
▁ꯐꯅ	-16459
ेण्ट	-16460
▁شرح	-16461
▁अब्य	-16462
▁अऱिय	-16463
टेक	-16464
▁چونڊن	-16465
ानुसार	-16466
▁मांड	-16467
▁सहकारी	-16468
▁پون	-16469
ॉप	-16470
▁सरीर	-16471
ᱦᱤ	-16472
▁خلافت	-16473
▁मूवी	-16474
▁लिं	-16475
▁05	-16476
▁हैदराबाद्	-16477
▁حصہ	-16478
▁ᱟᱹᱫᱤᱵᱟᱹᱥᱤ	-16479
▁IP	-16480
▁बीस	-16481
▁del	-16482
▁बदला	-16483
▁शत्र	-16484
▁इदर	-16485
▁अच्छे	-16486
धारी	-16487
▁समग्	-16488
▁They	-16489
▁inte	-16490
▁राहें	-16491
▁ताव	-16492
▁वेळॆ	-16493
▁حاڪم	-16494
▁ओनसोलाव	-16495
न्दी	-16496
▁कोटी	-16497
ुमॆन्न्	-16498
▁ब॒	-16499
▁झार	-16500
किल	-16501
▁गवर्	-16502
िओ	-16503
▁पवित्र	-16504
्त्तमान	-16505
▁शून्य	-16506
▁پہچی	-16507
tia	-16508
▁ᱜᱚᱡ	-16509
▁अन्नु	-16510
विट्ट	-16511
ावली	-16512
▁टीक	-16513
▁ᱮᱫᱟ	-16514
▁अकसर	-16515
▁कारणं	-16516
▁माडलु	-16517
▁میون	-16518
बशिं	-16519
ाइएको	-16520
▁बहस	-16521
ाह्न	-16522
▁संरचना	-16523
▁Whi	-16524
▁har	-16525
▁ᱨᱟᱡᱟ	-16526
▁घुर	-16527
▁فارم	-16528
ऱ्काऩ	-16529
▁خلی	-16530
एलए	-16531
▁ꯁꯨꯕ	-16532
स्तोंदि	-16533
षेक	-16534
▁Khaw	-16535
eih	-16536
متی	-16537
▁ᱢᱩᱪᱟᱹ	-16538
▁हुनेछ	-16539
▁लस	-16540
▁वाळ	-16541
▁परिशील	-16542
▁ᱦᱟᱢ	-16543
▁بھارت	-16544
▁नटत्ति	-16545
▁ᱥᱟᱬᱮᱥ	-16546
षित	-16547
▁गाल	-16548
افتی	-16549
▁ꯍꯧꯈꯤꯕ	-16550
▁पोय	-16551
▁mil	-16552
▁ꯃꯤꯇꯩꯂꯣꯟ	-16553
▁तेन	-16554
▁ᱱᱟᱣᱟ	-16555
▁बिगत	-16556
हुन्छ	-16557
▁ऎम्	-16558
▁پھریون	-16559
▁युनि	-16560
हक	-16561
▁reported	-16562
▁Centre	-16563
▁यूरोपीय	-16564
pu	-16565
िपु	-16566
▁मुसलमान	-16567
ाजे	-16568
▁अमना	-16569
▁एकरे	-16570
▁پٺ	-16571
▁उम्मीदवार	-16572
िलाय	-16573
ستائین	-16574
▁एथिरे	-16575
▁Res	-16576
▁आधिकार	-16577
▁लैण	-16578
दुल	-16579
ुगु	-16580
रं	-16581
मुक	-16582
▁ꯁꯦꯟ	-16583
▁तॆलुगु	-16584
▁ᱮᱞᱟᱠᱟ	-16585
▁پہتو	-16586
▁हिंसा	-16587
ॊब्ब	-16588
▁درگ	-16589
▁एकमात्र	-16590
▁بیل	-16591
der	-16592
▁let	-16593
▁लगो	-16594
▁تخلی	-16595
▁जम्मू	-16596
ᱟᱲᱟ	-16597
▁غریب	-16598
▁गुरिंचि	-16599
▁रस्ता	-16600
▁सुतो	-16601
▁थांखि	-16602
▁ओच	-16603
itive	-16604
▁ٹیم	-16605
▁जैन	-16606
खोम	-16607
▁iing	-16608
ोँ	-16609
▁چورس	-16610
▁ᱱᱟᱠᱷᱟ	-16611
▁ᱥᱟᱠᱟᱢ	-16612
▁पंत	-16613
▁عیسی	-16614
▁तोहरा	-16615
क्ले	-16616
परे	-16617
▁آئے	-16618
्व्	-16619
▁पुष्टि	-16620
▁आलि	-16621
dang	-16622
▁hig	-16623
▁वार्षिक	-16624
▁South	-16625
jar	-16626
▁सेहिपरि	-16627
زیٖر	-16628
▁नज़	-16629
▁जिनि	-16630
arlier	-16631
▁انتہائی	-16632
▁मीतु	-16633
▁ᱯᱮᱭᱟ	-16634
▁सभक	-16635
▁फेरि	-16636
▁टक्के	-16637
▁भास्क	-16638
ᱚᱱᱟᱜ	-16639
▁गाँव	-16640
▁केन्द्रीय़	-16641
मस	-16642
ᱠᱨᱤ	-16643
▁ᱯᱚᱛ	-16644
▁ᱞᱟᱹᱠᱛᱤ	-16645
मल्ल	-16646
▁फ़िल	-16647
▁ڏنا	-16648
▁मुटि	-16649
▁پکیڙ	-16650
विल्ल	-16651
▁ہڪڙو	-16652
▁सन्ति	-16653
▁ᱜᱚᱢ	-16654
वाँ	-16655
▁अपमान	-16656
▁भाइरस	-16657
ئڻ	-16658
ꯔꯝꯕ	-16659
▁कइले	-16660
▁प्राधिकरण	-16661
थिनि	-16662
शाही	-16663
▁पुणि	-16664
▁अध्यापक	-16665
▁तकनी	-16666
▁ऐहा	-16667
▁नैन	-16668
▁بادشاہ	-16669
स्य़	-16670
ient	-16671
ुपि	-16672
▁ڪنٽرول	-16673
estion	-16674
▁गह	-16675
▁نمائند	-16676
ڈن	-16677
ough	-16678
ॉर्ड	-16679
▁सम्झ	-16680
▁ꯉꯥꯡ	-16681
▁तथापि	-16682
▁१९४	-16683
embers	-16684
▁प्रक्रिय	-16685
van	-16686
▁तुर्की	-16687
▁ꯊꯣꯛꯈꯤꯕ	-16688
▁कामना	-16689
▁रजिस्ट	-16690
▁Ste	-16691
ङ्कार	-16692
▁ज़मीन	-16693
▁pawl	-16694
▁बॉक्स	-16695
▁फोङ	-16696
▁तेत	-16697
▁حفاظت	-16698
गारी	-16699
▁وائی	-16700
र्ट्	-16701
▁ताकत	-16702
▁سیت	-16703
▁समयंलो	-16704
▁kata	-16705
▁मतदार	-16706
ᱰᱩ	-16707
▁دینے	-16708
▁होइय	-16709
रुल	-16710
▁अतऩ्	-16711
▁ठिकाणी	-16712
▁लेके	-16713
▁रूस	-16714
▁बिल्ली	-16715
▁incre	-16716
ꯃꯟ	-16717
्रगा	-16718
▁ᱛᱮᱠᱚ	-16719
ᱮᱞᱤ	-16720
लाग	-16721
स्को	-16722
▁کمپیوٗ	-16723
▁ᱢᱤᱴᱚᱨ	-16724
▁ادیب	-16725
▁यद्य	-16726
▁दबा	-16727
ty	-16728
▁पछि	-16729
▁اقتص	-16730
निर	-16731
▁मायथाइ	-16732
ॊप्पं	-16733
▁रेल्वे	-16734
▁ورہ	-16735
chang	-16736
▁ꯒ꯭	-16737
ᱱᱟᱹᱜ	-16738
▁स्वीडन	-16739
▁مند	-16740
▁ویٖن	-16741
▁रेख	-16742
▁Par	-16743
▁ڊگری	-16744
▁dah	-16745
▁बंने	-16746
▁company	-16747
▁भयानक	-16748
▁कादु	-16749
▁सेमानङ्क	-16750
▁कुह	-16751
▁appro	-16752
▁फाव	-16753
▁ᱯᱟᱥᱱᱟᱣ	-16754
▁सालेर	-16755
िकेशन	-16756
▁Part	-16757
یاء	-16758
▁واریا	-16759
▁five	-16760
ळिय	-16761
▁दिक्ख	-16762
▁यथे	-16763
▁तिल	-16764
60	-16765
▁lem	-16766
▁अइसने	-16767
▁नूआदिल्ली	-16768
▁ᱩᱱᱤᱫᱚ	-16769
▁रंभ	-16770
ᱜᱚ	-16771
िसिद्द	-16772
▁ڪجی	-16773
▁شاگرد	-16774
▁बदली	-16775
▁farm	-16776
▁पाठक	-16777
▁شہرن	-16778
दुकॊंड	-16779
▁آفیسر	-16780
▁نما	-16781
▁निवे	-16782
▁परंप	-16783
▁موسیقی	-16784
लिखित	-16785
प्रसाद	-16786
▁خاصیت	-16787
▁केउ	-16788
▁ڪہاڻی	-16789
्यूब	-16790
▁لڪ	-16791
▁उत्साह	-16792
▁तेज़	-16793
▁issue	-16794
्की	-16795
▁आरम्प	-16796
ाणां	-16797
▁हाते	-16798
त्वे	-16799
जनी	-16800
▁आउने	-16801
▁वठ	-16802
▁مبار	-16803
▁गौतम	-16804
▁Previous	-16805
▁lyng	-16806
ꯋꯥꯔꯤ	-16807
▁1980	-16808
▁कवित	-16809
▁आपले	-16810
▁put	-16811
▁सुबुंफोरनि	-16812
▁ज़िआदा	-16813
▁سنگھ	-16814
▁नवीं	-16815
▁२०११	-16816
ᱚᱫᱷ	-16817
ᱠᱮᱴ	-16818
▁تار	-16819
क्सन	-16820
▁यसको	-16821
▁ev	-16822
िरुक्कुम्	-16823
▁रद्द	-16824
▁बियो	-16825
▁जागाय	-16826
▁social	-16827
▁ꯔꯣꯃꯥꯟ	-16828
▁जथुम	-16829
▁क्य़	-16830
▁त्यांची	-16831
▁AI	-16832
▁ᱵᱚᱫᱚᱞ	-16833
باری	-16834
▁سلی	-16835
ुतुन्नारु	-16836
▁हेला	-16837
▁انقلاب	-16838
▁سائ	-16839
▁अत्र	-16840
▁अनिवार	-16841
▁وض	-16842
▁ꯑꯂꯤꯄ	-16843
▁प्रवाह	-16844
▁आगष्ट	-16845
▁कार्यकर्ता	-16846
ᱫᱷᱟ	-16847
▁exper	-16848
प्ल	-16849
▁ڍنڍ	-16850
leh	-16851
▁Isra	-16852
▁उज्ज	-16853
▁अझ	-16854
▁युब	-16855
▁ꯍꯤꯟꯗꯨ	-16856
▁2002	-16857
▁67	-16858
▁85	-16859
ᱤᱥᱴ	-16860
یروز	-16861
▁سٕتی	-16862
▁बेसेन	-16863
▁मीटि	-16864
▁लाइफ	-16865
▁पॊत	-16866
▁ᱥᱮᱴᱮᱨ	-16867
ज्ञा	-16868
▁रोजी	-16869
▁रिट	-16870
ꯋꯥꯡ	-16871
्येष्ठ	-16872
▁विय	-16873
اصلی	-16874
▁मीद	-16875
▁head	-16876
▁जांदे	-16877
▁مٔن	-16878
▁commun	-16879
▁बनावे	-16880
▁مفت	-16881
▁ڳوٺن	-16882
▁पंचाय	-16883
वडं	-16884
ियेँ	-16885
वर्ष	-16886
▁प्रतिरोध	-16887
▁ٻیٽ	-16888
▁वेब	-16889
ness	-16890
▁आटक	-16891
िकळुटॆ	-16892
▁गसाइगाव	-16893
त्रगा	-16894
मोर	-16895
दं	-16896
▁पंजी	-16897
▁मुलुक	-16898
ful	-16899
▁Sex	-16900
▁उभय़	-16901
ذا	-16902
ering	-16903
ण्याचे	-16904
▁बङ्ग	-16905
ाहु	-16906
▁लखे	-16907
ꯒꯅꯤ	-16908
ᱚᱨᱤ	-16909
▁ایوارڊ	-16910
▁ञा	-16911
▁दंड	-16912
ेलो	-16913
▁कप्त	-16914
▁केंदरी	-16915
▁पोलीसे	-16916
▁آئون	-16917
▁शिखर	-16918
▁ऎऴुत	-16919
▁प्रबंधन	-16920
▁निर्भर	-16921
▁बक्त	-16922
कीय़	-16923
▁रिम	-16924
▁दरबार	-16925
▁दोन्ही	-16926
▁hnê	-16927
▁खेलाडी	-16928
मऩ्ऱ	-16929
▁رضی	-16930
▁ꯂꯧꯁꯤꯡ	-16931
▁दानि	-16932
▁ꯃꯅꯤꯄꯨꯔꯤ	-16933
▁uh	-16934
▁ꯔꯥꯖ	-16935
▁पजिटिभ	-16936
▁econom	-16937
▁खड	-16938
kha	-16939
▁चों	-16940
▁بلڪل	-16941
وت	-16942
▁سخ	-16943
▁اکہ	-16944
ᱮᱱᱰ	-16945
▁متحدہ	-16946
ङे	-16947
ula	-16948
▁देरह	-16949
▁बरिस	-16950
▁jingm	-16951
▁स्मार्टफोन	-16952
▁होगोन	-16953
गमन	-16954
▁ایجن	-16955
▁kali	-16956
▁इच	-16957
▁ꯊꯕꯛ	-16958
▁जोखिम	-16959
▁चेस्तुन्न	-16960
▁Af	-16961
▁वाऴ्	-16962
▁करुछन्ति	-16963
▁प्रौद्योग	-16964
▁صبح	-16965
▁گراہ	-16966
▁पञ्चाय़त	-16967
▁want	-16968
▁वई	-16969
ग्रस्	-16970
▁जागरू	-16971
▁प्रीम	-16972
र्लु	-16973
▁मानिस	-16974
▁नत्त्रगा	-16975
▁ᱢᱚᱬᱮ	-16976
▁ꯁꯣꯟꯅꯠ	-16977
▁ताद	-16978
▁करले	-16979
▁पोलीसुलु	-16980
▁डेर	-16981
ियनि	-16982
▁बाधा	-16983
▁ꯂꯤꯔꯤꯕ	-16984
▁احتجاج	-16985
▁भार्य	-16986
▁मुंनि	-16987
▁انٽرنی	-16988
▁گجر	-16989
जइसेन	-16990
▁ऒत्त	-16991
▁महत	-16992
▁ᱜᱚᱲᱚ	-16993
▁गरमी	-16994
▁घणा	-16995
▁tem	-16996
ातं	-16997
▁रहती	-16998
▁सूप	-16999
▁कीन	-17000
गति	-17001
▁ꯐꯅꯌꯥꯝ	-17002
▁यस्तो	-17003
गृह	-17004
आल	-17005
ऱ्ऱै	-17006
ध्व	-17007
ٲلؠ	-17008
▁दूसरी	-17009
▁सुप्रीम	-17010
▁खेतीबाड़ी	-17011
ेल्	-17012
▁tip	-17013
▁मिलि	-17014
▁आय्क	-17015
▁जायगायाव	-17016
▁آپریشن	-17017
▁करोन	-17018
▁कायदा	-17019
▁तालिका	-17020
▁چنڊ	-17021
▁nan	-17022
▁बनाउन	-17023
ꯌꯥꯒꯤ	-17024
▁सुनवाई	-17025
▁संब	-17026
▁वर्णन	-17027
▁दंमोन	-17028
▁حقن	-17029
▁دنہٕ	-17030
▁खेळा	-17031
▁कॊटुक्क	-17032
▁बच्चों	-17033
▁योगी	-17034
▁سۭ	-17035
▁गिरि	-17036
▁روزان	-17037
▁चूक	-17038
▁coronavirus	-17039
िप्त	-17040
▁शकाय	-17041
▁अक्षर	-17042
ियम्	-17043
▁आगि	-17044
▁तिक	-17045
ासह	-17046
▁सिनाय	-17047
▁उमेदवार	-17048
▁क्षेत्रे	-17049
▁जाख	-17050
,0	-17051
▁राजनैतिक	-17052
ळना	-17053
ैयाऩ	-17054
▁करशे	-17055
ाइथिला	-17056
▁موقعی	-17057
▁प्रतिभा	-17058
▁ꯅꯨꯡꯁꯤ	-17059
▁nongial	-17060
▁عذ	-17061
▁बारा	-17062
▁ڏیندو	-17063
▁سنڀال	-17064
▁ᱵᱟᱹ	-17065
▁दिछे	-17066
▁भ्रष्टाचार	-17067
▁ᱥᱟᱶᱦᱮᱫ	-17068
▁ھوندی	-17069
▁ᱪᱤᱠᱤ	-17070
बेर	-17071
गढ	-17072
▁پرائم	-17073
ामिन	-17074
▁ᱢᱩᱪᱟᱹᱫ	-17075
▁न्ह	-17076
▁नवें	-17077
ᱨᱤᱧ	-17078
▁पुम्नमक	-17079
▁आभ	-17080
DA	-17081
▁पन्ना	-17082
▁उल्लंघ	-17083
▁᱐᱐	-17084
▁बुङोदि	-17085
▁नागिर	-17086
▁समृद्ध	-17087
ठु	-17088
विड्	-17089
▁مانی	-17090
▁सञ्ज	-17091
्लाय	-17092
▁करावे	-17093
▁آک	-17094
▁नडॆद	-17095
▁हॆच्चिन	-17096
टका	-17097
بیت	-17098
san	-17099
▁अठ	-17100
▁ڄائو	-17101
▁समये	-17102
▁comment	-17103
▁बेखेव	-17104
▁दाखिल	-17105
▁دماغ	-17106
▁बेला	-17107
▁साद	-17108
ꯛꯄ	-17109
▁न्यूज	-17110
▁इंग्ल	-17111
▁पक्षे	-17112
▁काली	-17113
▁गिरफ	-17114
▁chauh	-17115
▁ᱥᱚᱱ	-17116
▁अर्ब	-17117
▁68	-17118
▁ꯌꯦꯡꯎ	-17119
▁फारसेथिं	-17120
▁موڪلیو	-17121
▁गुना	-17122
▁दवाई	-17123
▁राई	-17124
▁انعام	-17125
▁अवरिगॆ	-17126
▁चुकल	-17127
▁ᱱᱟᱶᱟ	-17128
▁security	-17129
▁ᱵᱟᱦᱟ	-17130
ान्ना	-17131
▁अघि	-17132
▁जातीय	-17133
ᱦᱟᱜ	-17134
▁pawhin	-17135
▁CE	-17136
▁mid	-17137
चाडु	-17138
▁power	-17139
▁बर्फ	-17140
▁तॊटर्न्तु	-17141
▁ꯑꯀ	-17142
▁सतर्क	-17143
᱒᱐	-17144
▁طریقو	-17145
माँ	-17146
▁तोला	-17147
▁दुसरी	-17148
▁way	-17149
ribute	-17150
▁अपेक्ष	-17151
म्यान	-17152
▁جع	-17153
▁हीअ	-17154
▁city	-17155
▁आपे	-17156
िस्तुंदि	-17157
▁कौनो	-17158
▁مذھ	-17159
▁صدیء	-17160
फ्रा	-17161
ture	-17162
▁परस्प	-17163
▁Bang	-17164
▁تٕہ	-17165
▁صلاحیت	-17166
▁लिखित	-17167
बर्ष	-17168
▁उरुवा	-17169
▁बिय़	-17170
▁उत्कृष्ट	-17171
ٲے	-17172
▁Sunday	-17173
िंचडं	-17174
ुत्ता	-17175
▁आपनि	-17176
▁सितंबर	-17177
▁ایندا	-17178
▁गाना	-17179
▁Wed	-17180
▁लोकोने	-17181
छान	-17182
▁सबहिं	-17183
▁गमन	-17184
क्षणिक	-17185
▁लड़का	-17186
tuah	-17187
ाज्ञ	-17188
▁शैरें	-17189
▁तकनीक	-17190
ٹہٕ	-17191
▁بڈگام	-17192
▁ᱵᱟᱱ	-17193
▁थाद	-17194
[...]
